[UNK]
[MASK]
[PAD]
[CLS]
[SEP]
!
"
#
$
%
&
'
(
)
*
+
,
-
.
/
0
1
2
3
4
5
6
7
8
9
:
;
<
=
>
?
@
A
B
C
D
E
F
G
H
I
J
K
L
M
N
O
P
Q
R
S
T
U
V
W
X
Y
Z
[
\
]
^
_
`
a
b
c
d
e
f
g
h
i
j
k
l
m
n
o
p
q
r
s
t
u
v
w
x
y
z
{
|
}
~
¡
¢
£
¤
¥
§
¨
©
ª
«
®
°
±
²
³
´
µ
·
¸
º
»
¼
½
¾
¿
Á
Â
Å
Ç
É
Ì
Î
Ï
Ð
Ö
×
Ø
Ù
Ú
Ü
ß
à
á
â
ã
ä
å
æ
ç
è
é
ê
ë
ì
í
î
ï
ð
ñ
ò
ó
ô
ö
÷
ø
ù
ú
ü
ý
þ
Ā
ā
ă
ć
č
Đ
đ
ē
ě
ğ
ī
İ
ı
ł
ŋ
ō
ś
ş
Š
š
ū
Ÿ
ž
ƒ
ơ
ư
ǎ
ǐ
ɐ
ɑ
ɒ
ɔ
ɕ
ə
ɛ
ɡ
ɪ
ɹ
ɾ
ʁ
ʃ
ʊ
ʌ
ʒ
ʔ
ʰ
ʲ
ʻ
ʿ
ˈ
ˌ
ː
˚
́
̃
Α
Γ
Δ
Ε
Θ
Κ
Λ
Μ
Π
Σ
Τ
Φ
Ω
ά
έ
ή
ί
α
β
γ
δ
ε
ζ
η
θ
ι
κ
λ
μ
ν
ξ
ο
π
ρ
ς
σ
τ
υ
φ
χ
ω
ό
ύ
ώ
І
А
Б
В
Г
Д
Е
З
И
К
Л
М
Н
О
П
Р
С
Т
Х
а
б
в
г
д
е
ж
з
и
й
к
л
м
н
о
п
р
с
т
у
х
ц
ч
ш
ы
ь
э
я
ё
і
қ
ң
ө
ա
ն
ր
ְ
ִ
ֵ
ֶ
ַ
ָ
ֹ
ּ
ׁ
א
ב
ג
ד
ה
ו
ז
ח
ט
י
כ
ל
ם
מ
ן
נ
ס
ע
פ
צ
ק
ר
ש
ת
،
ء
آ
أ
ؤ
إ
ئ
ا
ب
ة
ت
ث
ج
ح
خ
د
ذ
ر
ز
س
ش
ص
ض
ط
ظ
ع
غ
ـ
ف
ق
ك
ل
م
ن
ه
و
ى
ي
َ
ُ
ِ
ّ
ْ
ٰ
ٱ
ٹ
پ
چ
ڈ
ڌ
ڑ
ک
گ
ں
ھ
ہ
ۃ
ی
ے
۔
ܐ
ܝ
ނ
އ
މ
ދ
ަ
ީ
ު
ް
ँ
ं
ः
अ
आ
इ
ई
उ
ऊ
ऋ
ऌ
ऍ
ऎ
ए
ऐ
ऑ
ऒ
ओ
औ
क
ख
ग
घ
ङ
च
छ
ज
झ
ञ
ट
ठ
ड
ढ
ण
त
थ
द
ध
न
ऩ
प
फ
ब
भ
म
य
र
ऱ
ल
ळ
ऴ
व
श
ष
स
ह
ऺ
़
ऽ
ा
ि
ी
ु
ू
ृ
ॄ
ॅ
ॆ
े
ै
ॉ
ॊ
ो
ौ
्
ॐ
॑
॒
॓
॔
ॠ
।
॥
०
१
२
३
४
५
६
७
८
९
॰
ॱ
ॲ
ॻ
ॼ
ॾ
ॿ
ঁ
ং
অ
আ
ই
উ
এ
ও
ক
খ
গ
ঙ
চ
জ
ট
ড
ণ
ত
থ
দ
ধ
ন
প
ব
ভ
ম
য
র
ল
শ
ষ
স
হ
়
া
ি
ী
ু
ূ
ৃ
ে
ৈ
ো
ৌ
্
ৰ
ৱ
৷
ਂ
ਅ
ਆ
ਕ
ਖ
ਗ
ਘ
ਚ
ਜ
ਤ
ਦ
ਧ
ਨ
ਪ
ਬ
ਭ
ਮ
ਰ
ਲ
ਵ
ਸ
ਹ
਼
ਾ
ਿ
ੀ
ੁ
ੂ
ੇ
ੈ
ੋ
੍
ੰ
ੱ
ં
ક
ગ
જ
ત
દ
ન
બ
મ
ર
લ
વ
શ
સ
હ
ા
ી
ુ
ે
ો
્
କ
ଗ
ଣ
ତ
ଦ
ନ
ପ
ବ
ମ
ର
ଳ
ଶ
ସ
ହ
ା
ି
ୀ
ୁ
େ
ୋ
୍
ୟ
அ
ஆ
இ
எ
க
ங
ச
ஜ
ட
ண
த
ந
ன
ப
ம
ய
ர
ற
ல
ள
ழ
வ
ஷ
ஸ
ா
ி
ீ
ு
ூ
ெ
ே
ை
ோ
்
ం
అ
క
గ
చ
జ
ట
డ
ణ
త
ద
న
ప
బ
మ
య
ర
ల
వ
శ
స
హ
ా
ి
ీ
ు
ూ
ె
ే
ొ
ో
్
ಂ
ಅ
ಕ
ಗ
ಚ
ಜ
ಟ
ಡ
ಣ
ತ
ದ
ನ
ಪ
ಬ
ಮ
ಯ
ರ
ಲ
ಳ
ವ
ಶ
ಷ
ಸ
ಹ
ಾ
ಿ
ೀ
ು
ೂ
ೆ
ೇ
ೊ
ೋ
್
ം
അ
ക
ച
ജ
ട
ണ
ത
ദ
ന
പ
മ
യ
ര
റ
ല
ള
വ
ശ
ഷ
സ
ഹ
ാ
ി
ീ
ു
ൂ
ൃ
േ
ോ
്
ർ
ක
ත
න
ම
ය
ර
ල
ව
ස
්
ා
ි
ු
ก
ง
ช
ด
ต
ท
น
พ
ม
ย
ร
ล
ว
ส
ห
อ
ะ
ั
า
ิ
ุ
เ
้
ນ
་
།
ཀ
ཁ
ག
ང
ཆ
ཐ
ད
ན
པ
བ
མ
འ
ར
ལ
ས
ི
ུ
ེ
ོ
ྒ
ྫ
ྱ
ྲ
က
ခ
င
စ
တ
န
ပ
မ
ယ
ရ
လ
သ
အ
ာ
ိ
ီ
ု
ေ
့
း
္
်
ျ
ြ
ွ
ა
ი
ል
ក
ទ
ន
ម
រ
ស
ា
្
ᱟ
ḍ
ḥ
ṅ
ṇ
ṛ
ṣ
ṭ
ạ
ắ
ệ
ồ
ộ
ἀ
‑
–
—
―
‘
’
‚
“
”
†
•
…
′
″
⁄
€
₹
⃣
℃
ℓ
⅓
↑
→
↔
−
√
∞
≈
≠
≡
≤
≥
■
▪
◆
●
☃
★
☆
☑
♦
⚔
ⴰ
ⵉ
ア
イ
コ
ス
ト
ラ
ル
ン
ー
三
中
京
人
北
南
名
和
国
國
地
大
天
子
字
家
小
山
島
市
拳
文
新
方
日
明
本
李
東
武
民
法
海
漢
田
自
西
道
국
성
이
한
ﷺ
️
ﺍ
，
￱
￸
￼
🇮
🇳
🌹
👉
👌
💐
🙏
🚩
##ं
##ध
##ा
##र
##ि
##त
##उ
##ड
##ब
##ी
##ह
##स
##क
##p
##r
##o
##x
##i
##m
##a
##t
##e
##l
##y
##़
##ु
##ज
##ू
##ल
##ख
##्
##च
##न
##य
##ो
##म
##व
##ए
##द
##ृ
##श
##घ
##ट
##प
##े
##s
##n
##T
##R
##७
##२
##c
##ई
##थ
##ः
##ग
##°
##फ
##ॉ
##ौ
##भ
##ष
##u
##g
##d
##k
##f
##ै
##ऊ
##आ
##ण
##इ
##2
##0
##7
##झ
##h
##E
##D
##º
##C
##A
##M
##P
##ँ
##छ
##ओ
##6
##1
##9
##b
##ङ
##8
##3
##w
##ठ
##ُ
##م
##َ
##ّ
##ت
##ِ
##ي
##á
##ञ
##5
##W
##B
##अ
##ढ
##ळ
##ل
##د
##ن
##ة
##4
##S
##०
##६
##j
##￼
##v
##о
##д
##а
##८
##ی
##ر
##V
##z
##४
##९
##१
##N
##I
##G
##ॆ
##ш
##ظ
##ā
##ī
##ε
##δ
##ά
##ν
##ι
##ο
##ς
##O
##H
##မ
##်
##း
##ပ
##ြ
##န
##ယ
##Z
##U
##ন
##ি
##ত
##ম
##ऐ
##ا
##ه
##é
##५
##L
##३
##ॅ
##ج
##॓
##Y
##ב
##ל
##ہ
##ش
##ئ
##q
##⁄
##ಾ
##ಮ
##ನ
##್
##ء
##ˈ
##ː
##K
##ਿ
##ੱ
##ਲ
##ǎ
##ɔ
##਼
##ੰ
##ਦ
##ਾ
##ਬ
##ง
##ล
##า
##F
##ب
##و
##س
##м
##и
##р
##н
##в
##ऽ
##ص
##ک
##ರ
##ಿ
##ಗ
##ೆ
##ز
##이
##ऑ
##औ
##ח
##ו
##ר
##י
##ם
##ı
##॒
##ွ
##ေ
##ခ
##ျ
##တ
##င
##ာ
##က
##ရ
##ג
##ן
##ή
##τ
##ó
##ʲ
##ɪ
##ɕ
##ɐ
##å
##ä
##ö
##κ
##υ
##ρ
##ీ
##ర
##్
##జ
##ా
##π
##χ
##X
##½
##ெ
##ர
##ி
##ய
##ா
##்
##ē
##ऴ
##ূ
##ঙ
##্
##গ
##ল
##ك
##ऍ
##ª
##ɾ
##ɛ
##॑
##ִ
##ְ
##ד
##ַ
##ּ
##پ
##ٹ
##خ
##ル
##ऋ
##́
##ь
##е
##ৰ
##ু
##ৱ
##া
##්
##ර
##ා
##ි
##ක
##ය
##ø
##Ï
##ॾ
##J
##ñ
##ف
##ْ
##ے
##ে
##ই
##ॊ
##ق
##í
##ί
##μ
##ṅ
##ع
##ھ
##ح
##ੁ
##ਗ
##ੀ
##ё
##й
##ۃ
##×
##І
##স
##ા
##ક
##ે
##ڈ
##ழ
##ப
##ண
##ம
##ں
##æ
##Ù
##è
##Ø
##￸
##ऩ
##أ
##দ
##ো
##প
##ধ
##য
##়
##γ
##α
##ω
##ë
##த
##ラ
##ン
##ୋ
##ି
##္
##သ
##ୁ
##େ
##ଳ
##ό
##వ
##మ
##ి
##ା
##ଗ
##ч
##ਕ
##ว
##ย
##ห
##Α
##Σ
##Λ
##Ε
##ந
##ட
##ன
##ோ
##ാ
##യ
##ര
##്
##ü
##ਧ
##ਨ
##ི
##ས
##ੂ
##ং
##র
##ṇ
##ط
##ָ
##ה
##א
##צ
##ֵ
##נ
##گ
##হ
##ု
##ਹ
##ਵ
##ა
##জ
##ə
##غ
##ব
##ী
##ு
##έ
##མ
##ى
##བ
##ང
##ʊ
##г
##ū
##★
##ú
##ǐ
##É
##ิ
##น
##ऱ
##چ
##ಷ
##ು
##ಲ
##ಕ
##ٰ
##Q
##வ
##→
##∞
##л
##і
##ൂ
##ു
##ം
##η
##ದ
##ō
##ث
##ট
##ц
##ม
##ז
##ֹ
##ﺍ
##બ
##ુ
##દ
##θ
##ã
##т
##у
##ы
##ư
##ύ
##λ
##॔
##ೊ
##ಡ
##ೇ
##త
##ವ
##ె
##డ
##ऒ
##ద
##ల
##న
##б
##ð
##ç
##σ
##ক
##à
##מ
##เ
##ก
##ร
##ต
##ת
##®
##ు
##ం
##Δ
##Κ
##గ
##ప
##ă
##ṛ
##℃
##ર
##્
##ી
##ğ
##ষ
##క
##ł
##ض
##ట
##ే
##µ
##š
##റ
##ന
##ി
##উ
##స
##ʁ
##̃
##ୀ
##ମ
##ଣ
##Ÿ
##¢
##ʃ
##စ
##ş
##ަ
##ނ
##ް
##ɒ
##ṭ
##з
##к
##ూ
##φ
##ල
##ම
##ိ
##β
##ô
##с
##ý
##ಟ
##ɑ
##פ
##ש
##ׁ
##ొ
##ì
##ò
##ɹ
##య
##శ
##ല
##â
##−
##ག
##ắ
##ॄ
##إ
##ུ
##ạ
##¾
##Ç
##¸
##Ì
##න
##ු
##ગ
##વ
##ો
##મ
##ન
##લ
##މ
##ಪ
##ತ
##க
##ஜ
##ಂ
##শ
##ള
##ூ
##ζ
##²
##я
##ʌ
##ŋ
##অ
##ণ
##€
##п
##Μ
##ު
##±
##ܝ
##ệ
##ң
##ი
##ড
##ט
##כ
##ત
##ï
##ʿ
##ಳ
##ಬ
##ೀ
##ও
##ங
##ʰ
##₹
##ற
##ள
##ώ
##ⴰ
##ⵉ
##ନ
##´
##ਤ
##ੋ
##ਰ
##イ
##જ
##қ
##ɡ
##ě
##ḥ
##ө
##ʻ
##ॐ
##খ
##ல
##ை
##ˌ
##പ
##ע
##ś
##☃
##ഹ
##മ
##đ
##ස
##ù
##Á
##˚
##ణ
##Ω
##ଶ
##ବ
##ସ
##୍
##କ
##️
##⃣
##х
##ऎ
##ಸ
##ೂ
##શ
##સ
##Î
##బ
##ʒ
##চ
##Ú
##ж
##ே
##ק
##ॱ
##î
##ਚ
##ಣ
##ಶ
##ն
##ր
##ക
##ତ
##ୟ
##ೋ
##ਭ
##А
##Н
##ộ
##Ü
##þ
##ะ
##￱
##ର
##ঁ
##√
##한
##국
##ർ
##آ
##ذ
##ో
##ਆ
##ਮ
##ऌ
##👉
##ṣ
##ê
##ـ
##¤
##ৃ
##੍
##ਸ
##ḍ
##🙏
##ৌ
##ਜ
##ؤ
##ത
##ീ
##ൃ
##ദ
##చ
##ં
##ס
##ุ
##้
##ச
##ಯ
##🚩
##േ
##ž
##ஷ
##ֶ
##ེ
##ട
##ശ
##ಜ
##ཆ
##ོ
##³
##ท
##ช
##ั
##🇮
##🇳
##৷
##ན
##വ
##ಚ
##£
##÷
##ਂ
##ီ
##ਪ
##ॠ
##ད
##འ
##ੇ
##ਖ
##ྱ
##●
##ส
##ด
##พ
##อ
##ോ
##ᱟ
##ଦ
##ﷺ
##ৈ
##ន
##ា
##ម
##ީ
##ա
##©
##ྒ
##ྲ
##ལ
##സ
##ව
##ア
##ー
##🌹
##ར
##ऺ
##コ
##Â
##ജ
##ນ
##э
##ಹ
##ơ
##ହ
##ஸ
##హ
##থ
##≡
##ॻ
##ॲ
##ʔ
##≤
##ξ
##ß
##ਘ
##↑
##ച
##ீ
##ണ
##Θ
##Φ
##Ö
##ڑ
##О
##С
##💐
##အ
##≥
##ト
##ත
##့
##≠
##ഷ
##လ
##ੈ
##ć
##č
##្
##ཐ
##ॼ
##Д
##Р
##П
##ទ
##រ
##Е
##Т
##ދ
##ڌ
##ভ
##ਅ
##ក
##ស
##Г
##Б
##Å
##¨
##⅓
##હ
##ܐ
##성
##ス
##Đ
##އ
##Л
##⚔
##Ā
##Τ
##ል
##¥
##ℓ
##М
##ཀ
##ପ
##ॿ
##ྫ
##К
##В
##ồ
##¼
##ཁ
##པ
##Γ
##☆
##▪
##Š
##Ð
##👌
##्र
के
है
##ें
##ार
में
##या
##र्
##ों
##ान
##्य
##िक
##ता
प्र
की
का
और
से
##्त
##ने
को
##ित
##िया
##्व
##ना
एक
कर
##न्
पर
##ाल
##िल
इस
वि
हैं
##्ट
##िय
हो
सं
##ाम
##िस
##्ष
जा
##ती
##ाज
##ाद
##ते
##िए
##ास
##ड़
##्थ
ने
सम
##ां
##त्र
##के
##ति
यह
##ुर
किया
##्म
##्या
भी
##ला
##ंग
लिए
##ेश
अन
सा
कि
##री
##से
##ोग
था
##नी
##का
##क्ष
##रा
अप
नि
##कार
##ही
##्ल
##्स
##वा
##ूप
##ाय
गया
हु
##िन
##्प
राज
जो
भार
##द्
स्थ
##कर
##हा
रूप
##ारा
##ूर्
##ली
##ंद
##की
##ले
अध
कार
##्री
##ाप
दे
जाता
उस
##न्ह
##ियों
वर्
##ंड
उन
##क्त
द्व
##द्ध
कु
##ष्ट
मु
ही
##था
##मा
##्क
जिस
##ीन
उप
ले
##त्त
साथ
या
##हीं
##सी
19
करने
##ाव
##्ड
20
##ओं
##ाने
##ाँ
भारत
##ाइ
पह
##ाग
##ाह
##ेल
विश
##िर
##स्त
नहीं
थे
##िव
द्वारा
##्च
##ात
उन्ह
मह
##वि
अनु
##में
##ज़
बाद
तथा
सक
##्रे
##ंत
तक
थी
वाल
क्ष
##न्द
रह
अधिक
स्व
निर्
##ानी
##रे
अपने
लग
##देश
##्ब
##सा
दो
वे
सि
पूर्
##ृत
नाम
##कि
वह
होता
##िला
दिया
सु
जी
मान
##स्थ
##िम
##ढ़
##योग
##ारी
##ेत्र
राज्य
##ेट
इन
वर्ष
##ाई
##ंध
##ूर
##िश
##ोल
क्षेत्र
##ोज
उत्त
##भी
##ोंने
##ेर
##र्म
##ण्ड
##ूल
##वी
##िका
##्ञ
पु
जै
##दी
स्थित
बह
सी
##ुत
##ोट
हुआ
##वं
कुछ
व्य
साम
##न्न
##ब्
##स्ट
रा
##जी
##खा
##ौर
##्रम
कम
विक
##धार
बी
##िट
##ंत्र
##नों
##िल्म
इसके
प्रति
तो
सब
जब
##पुर
पूर्व
##ोक
बना
##ाष
##मान
##रण
##ाँव
##िले
मै
पा
##दि
करते
मे
अम
हुए
अल
##ुल
उन्होंने
##िंग
गाँव
##र्श
##ड़ी
200
समय
##ष्
##चार
कई
कार्य
किस
अन्य
##कों
एवं
##ज्ञ
##स्
##्यू
##ीय
विश्व
##वत
##ाना
क्र
##िप
मिल
जन
##तीय
लोग
कह
##टर
##्रीय
##ोर
होती
##र्थ
##ड़ा
उत
##जा
##सार
ब्र
##र्ग
हि
##ंप
##ेष
##निक
उनके
कारण
पुर
##ंच
मा
फ़
अंत
सर
बन
##ूस
प्रकार
##गर
##दा
##न्म
सह
स्ट
होने
##िये
कै
##ाप्त
बार
राष्ट
प्रा
##भाव
##फ़
गु
सबसे
वाले
अव
201
ग्र
करता
##हर
अपनी
चु
##ेन
यु
तर
सकता
##ाषा
##मी
##िण
पू
भारतीय
संग
##ध्य
##ंब
मुख
जन्म
किसी
##ोप
##क्ति
पहले
अभ
##बंध
बि
##क्स
जाती
मार
शुर
##यु
गए
##च्च
##प्र
गई
कहा
##वे
##वाद
##टी
##ंक
जैसे
##िख
उत्तर
तह
##द्य
हुई
##किन
भाग
##लय
विभ
देश
##्न
##श्च
##्यों
##धान
बहुत
##ड़े
भू
लेकिन
##ाली
प्रद
##ुख
पार
##करण
दी
फिल्म
##गा
शाम
##माण
उन्हें
प्रत
##वन
भाषा
बै
##र्ष
##हार
##सि
जिले
प्राप्त
होते
१९
##ीत
सू
##ंज
##भा
टी
##00
सर्
रहे
##िक्ष
शामिल
##त्व
##ियम
दु
अन्त
उसके
##ख्या
##ेम
##ील
##ांत
##ोध
व्या
##िता
##ून
##ास्त
पी
निक
दूस
##पूर्
##ियन
आदि
##म्ब
##बाद
ये
अनुसार
आधार
मुख्य
ईसा
स्थान
##ित्र
काम
##चना
प्रदेश
##क्ट
उत्प
##्यालय
##ेड
विशेष
##ये
##्ता
जाने
##क्र
##सील
##स्क
तरह
रहा
वै
तहसील
##द्र
##दार
सभी
उनकी
##रिक
संवत
उपयोग
लिया
बीच
बे
##क्षा
##काश
दक्ष
##मुख
२०
##ोन
इसका
##िन्न
##ोर्
अस
इसे
##er
##त्म
परिव
पै
##धि
##ाट
हम
##ज्ञान
मन
##णा
सरकार
स्थाप
##बर
दक्षिण
##ब्द
जिसमें
आव
##र्गत
रख
अंग
##ंह
##ोह
##ंट
पर्
करना
अमेर
##यर
उसे
प्रमुख
कोई
##्छ
##ैंड
##बी
स्प
हाल
##च्छ
आर
##वल
ज़
प्रयोग
##श्य
##क्रम
जु
जिन
##को
##यी
##र्त
पश्च
##स्था
##वर
प्रभाव
##ोम
लोगों
##नि
##ंस
##ॉल
18
##ष्ठ
चाह
जाते
बढ़
##यन
शहर
##युक्त
##शन
##प्त
ला
##ल्ल
##गी
स्त
##on
दौर
मूल
##डी
हिन्द
##पर
दिन
श्री
देख
ओर
##ग्र
दोनों
##न्त
राष्ट्रीय
##ाला
सद
मौ
स्क
##भग
##मार
लोक
##पूर्ण
धर्म
##चीन
##जन
तीन
##ुक
##an
सकते
प्रश
निर्माण
शुरू
##ैन
प्रकाश
##सिद्ध
लगभग
चल
##हास
##म्
जल
##्वर
##ेक
शब्द
##धिक
##िकी
लिये
##र्क
प्राचीन
चार
आप
अब
##ूह
वाली
यहाँ
भूम
विकास
199
फिर
##गे
##हित
रे
संबंध
अलग
##तिहास
##द्यालय
##ुद
अंतर
##ीर
##ण्डल
##थम
दौरान
##क्षण
अन्तर्गत
मंद
##र्स
##in
कॉ
##ांग
##काल
##िस्त
कृ
प्रसिद्ध
हर
आम
##णी
उद
इसी
अत
मध्य
शिक्ष
छोट
काल
##फल
##at
##्ग
व्यव
अध्य
##ोस
##िज
करती
पास
महत्व
मण्डल
जिसे
नी
##ोष
सिंह
ली
##लों
केवल
##एं
##ोड
##्टी
जीवन
##ेशन
मंदिर
साल
क्यों
##धा
माना
##ुष
अपना
##ंद्र
फ़िल्म
कंप
##फी
##ाया
अला
जि
##ar
परि
पहु
राजा
व्यक्ति
##निया
##कृत
##न्ध
##तर
##एँ
पश्चिम
##ृति
##र्शन
दिल
अर्थ
कभी
अंग्रे
दृ
##तिक
बा
##र्ड
##ैल
##al
राम
कल
##चे
##ताओं
##न्द्र
निय
खेल
##or
##ाइन
##त्रा
मी
अग
##दान
##ंभ
सर्व
##हाँ
सम्म
आई
##िस्ट
बु
##ियाँ
कहते
##व्य
##्वी
अलावा
##वान
जाना
##्ली
विभिन्न
पद
##रों
जान
इसकी
##ची
##ाक
खिला
उनका
इसमें
##ासन
क्योंकि
##ियो
##en
##ोड़
##्यु
##ांश
व्याप
टीम
बद
कला
##ंख
अर्
##ांस
##ांकि
सत
##ारे
तब
##ुआ
बात
युद्ध
##स्थान
##वाह
आय
##्रा
लेख
##िकेट
रही
हालांकि
एल
सिद्ध
महिला
##ान्त
##ियर
##वाल
राष्ट्र
चौ
##ेद
##विद्यालय
##यास
##्सा
उच्च
##टना
##क्
##ायक
बल
##es
सदस
##वरी
##श्यक
##ष्ण
##ेंट
##वास
विष
##ेज
अर
हा
##िस्तान
क्रिकेट
##नाव
आज
##ंश
सेवा
##ेत
गण
##गत
हिस
श्र
##ोत
उत्पाद
##ुम
संख्या
जह
विर
आवश्यक
ती
##्ला
##ोजन
##खण्ड
अने
##ुट
साहित
##चा
किए
##पी
घर
योग
##द्योग
महा
साहित्य
##म्म
ट्र
लिख
उत्तरा
समझ
संघ
नगर
वी
##म्प
प्रत्य
यहां
वृ
यू
कप
गयी
ब्रिट
198
बाह
##कल
सो
शिक्षा
##स्कार
इन्ह
नदी
पहली
##वीं
दूसरे
##ामी
##ारों
पृ
प्रदान
उसकी
##्यान
##ूद
गो
बड़े
संस्क
फ्र
समूह
##ोजना
##ेस
विश्वविद्यालय
##he
अमेरिका
##ान्य
पत्र
##चित
आध
हिन्दी
सै
पत
क्ल
अनेक
न्यू
10
दर
हिंद
टे
प्रार
##टा
##ुओं
विधान
महत्वपूर्ण
जिसके
पड़
##ष्ट्रीय
##ेख
इतिहास
कुल
##ियां
##ूत
अति
जबकि
##र्न
##र्ट
श्रे
विचार
##मित
##गढ़
संगीत
संयुक्त
वर्त
ज्ञ
##ुप
वर्षों
जिसका
##एस
वाला
प्रथम
##ॉन
सुर
##ic
दश
लि
देव
##ित्व
पि
लगा
गै
##चन
आस
##ोब
रोग
##दे
डी
एस
नामक
वर्ण
तौर
##तंत्र
##चल
वर्तमान
गां
चाहिए
पुन
दूर
पिता
धार
##ूम
रंग
समाज
##तः
197
माध्य
देने
ऑफ
जग
सेना
बच्च
सभा
प्रण
स्थापित
दिल्ली
##शी
जिन्ह
पाक
15
भर
प्रव
जाए
##द्व
##कारी
##िग
बनाया
माध्यम
रचना
भूमिका
सकती
स्थापना
उपल
उसने
ऐसा
समान
##त्ति
##िने
संप
गति
##न्स
##ष्टि
बारे
चित्र
राजनी
बता
ना
सामान्य
मैच
तै
ऐसे
वास्त
यूर
अथ
##म्भ
बिहार
सन्
चुनाव
पौ
##डा
पुस्त
उपलब्
रखा
२०१
अध्ययन
बड़ी
##ंबर
##यों
वस्त
अच्छ
भग
कोश
उत्तराखण्ड
##००
##is
##म्बर
नव
अधिकांश
##ठन
##स्ता
पं
परिवार
##ोली
##र्भ
##जे
##ाता
सां
बड़ा
##वार
##पाल
फै
देता
ख़
##सं
17
बाल
##्रेस
विल
सदस्य
जहां
##लैंड
पुरस्कार
शै
##शिया
##धी
##it
अधिकार
इस्त
दिख
बनाने
##ंतु
कवि
इसल
विज्ञान
उद्
ज्या
##ंत्री
आद
मृत
##ाज़
##मेंट
सम्ब
कान
जिला
वर्ग
196
निम
##रो
उल्ल
इं
##तम
काफी
यदि
##र्द
सफल
जारी
##मे
मत
करके
शिव
##त्मक
##क्रिया
##स्ट्र
डे
उपलब्ध
##ाण
##ंदर
सार
चिक
जिससे
##इट
नाग
अथवा
इंड
##ाजिक
12
##जर
शा
न्या
##ूरी
##ीप
##ाहरण
उसका
स्थिति
प्रत्येक
रेल
स्तर
##ूट
##ाइड
यूरोप
निर्देश
प्ल
इत
गये
##ट्ट
माम
##ion
##ंथ
घोष
देशों
##भव
दर्श
उदाहरण
दुनिया
पूर्ण
गुर
हाथ
लेकर
##ानों
किये
विस्त
##यं
जीव
त्र
संर
##सभा
##चाल
कंपनी
शी
##ाइट
थीं
##वादी
##यार
परिण
मानव
##ादी
शक
पानी
स्वतंत्र
एम
२००
निर्वा
सामाजिक
अफ
पुत्र
##ंखला
##ेमाल
पां
पृथ
लड़
सौ
##साय
##लाई
इस्तेमाल
शुरुआ
##र्ण
चि
ची
डॉ
क्षेत्रों
##सर
##र्य
##बल
केंद्र
##्यता
##गल
शरी
परिवर्त
निम्न
तुल
##ोर्ट
स्
195
वाय
छोटे
संग्र
किल
छोड़
16
अप्र
इसलिए
मिश
कोड
आगे
##ाज्य
परी
##िति
एन
##जूद
ब्रिटिश
भाव
##ार्ड
नौ
##न्तु
##िष्ट
पहुंच
स्कूल
शता
पाकिस्तान
##टन
##ब्दी
चिकित
पता
प्रक्रिया
##पति
मिला
पहला
##सित
कार्यक्रम
##द्धि
पे
नियम
##नीय
इससे
##िब
आधारित
सम्मान
##ुनिक
##ृंखला
##ंगा
रॉ
##ास्त्र
##le
जहाँ
वन
रहता
आग
परिणाम
मार्ग
##श्व
##सन
होगा
गुण
स्वी
##्ज
विध
बनी
##स्प
13
##वरण
मृत्यु
कैल
सीमा
ब्ल
बच
##विक
##ँच
नै
शासन
आधुनिक
##मन
गिर
पूरी
##र्ज
##ालय
प्रकाशित
बाहर
##धन
माल
##सल
प्रणाली
भगवान
लंब
शरीर
##नाथ
मद
तु
##ताल
वित
१८
उल्लेख
##बा
बिल
the
पक्ष
अमेरिकी
देते
होकर
नियंत्र
##रिक्त
अं
रहते
जगह
आल
इनके
##ज्ञानिक
11
अतिरिक्त
एक्स
##as
शताब्दी
पंच
##ed
विकसित
बने
##डर
ध्यान
प्रदर्शन
वो
नाट
##ोने
सित
पेश
विद्य
व्यापार
स्वयं
##गण
##कट
इंग
##मीटर
बॉ
##ात्म
व्यक्त
उत्पन्न
जिनमें
##ाइल
##ादा
समर्थ
प्राय
शु
ज्ञान
##टक
खे
मि
पार्टी
चला
##क्षित
##लेज
बदल
##रिया
इला
##आई
##ार्थ
प्रधान
##वाई
खिलाफ
##om
स्म
##कर्
योजना
शक्ति
मॉ
##सत
समुद
विभाग
प्रदर्श
##क्सर
##ाजी
दशक
पुरुष
एशिया
##प्रिय
शुरुआत
##धारण
##स्या
विषय
##शा
पदार
14
प्रयास
##र्जा
##त्री
अत्य
##ात्मक
मैं
##रल
बंग
##मता
##nd
गीत
देखा
##पन
आया
फर
हे
सम्प
श्रेणी
भिन्न
##ायी
##ितीय
##ज़ी
##रूप
##िली
ऊपर
अनुस
जून
नए
पाल
घटना
194
जनवरी
##विध
पुल
किलो
##ॉर्ड
##ोजित
विक्रम
दूसरी
तैयार
रिक
सिद्धांत
उसी
अक्सर
अंग्रेजी
लक्ष
##ur
दि
मल
इंज
##am
गांव
जीत
ऑस्ट्र
##वर्
##ेंस
उठ
रो
मार्च
लोकप्रिय
जर्म
दौ
तुलना
सहाय
फल
बिना
मात्रा
आर्थ
आने
संस्थान
चै
000
तीस
##धानी
एड
##धिकार
लाग
##तक
हिस्सा
क्रम
अभिने
ऐसी
आक
कुमा
संस्कृत
संत
##ऊँ
उत्तरी
##ोर्ड
बेट
##षि
पूरा
पर्या
##तिम
##्मिक
प्रबंध
खु
पदार्थ
दिस
एंड
##ाउ
सूची
of
##िनी
प्रस्त
युग
मई
##िद
##्फ
वंश
##ुन
विरोध
##ेलिया
द्वीप
उत्पादन
इंग्ल
कर्म
प्रारंभ
अली
##शील
##फ्ट
##िशा
क्रिया
बस
निर्वाचन
##हरा
रहने
श्रृंखला
पश्चिमी
क़
##टल
लाल
शास
जनसं
लिखा
नीचे
##श्म
आत्म
अक
##ूबर
##स्करण
निकाल
पुस्तक
##र्च
सन
पूर्वी
##स्ल
दा
लाभ
कुमाऊँ
दल
मज
होना
##त्
चे
सहायता
संग्रह
बौ
प्रचल
##ष्क
महान
##ing
छा
द्र
##ड़ों
निवास
##द्द
अगस्त
लेने
अभी
जर
खोज
##ह्म
वाप
विप
##ंडल
उम
व्यवस्था
इस्ल
##गु
हास
चीन
##ानीय
लगे
##्राष्ट्रीय
##ायर
##क्रमण
##र्षि
पाया
अंतिम
पांच
##ांक
किलोमीटर
नई
इंटर
हार
उद्देश
हिंदी
##चान
##ोरी
ते
विज
##डे
##ांति
##िक्स
यही
परिस
राजधानी
लौ
इन्होंने
वार
ऑफ़
जाप
निकल
प्रदर्शित
अप्रैल
रु
सप्त
अक्ट
स्थानीय
धन
जनसंख्या
##ोलन
वहाँ
जे
समा
समस्या
स्टेशन
##ैक
आर्थिक
अक्टूबर
भौ
##न्यास
स्पष्ट
जुलाई
##शल
साम्र
यून
##ol
विधानसभा
सके
संस्करण
समाप्त
##स्व
##िकल
प्रवेश
कॉलेज
कोल
##ब्ल
शीर्ष
मिलता
##ियोग
ता
पहा
पूरे
माता
भूमि
विदेश
अह
राय
इनमें
राजनीतिक
ताप
##तिहासिक
रू
हल
##ेश्वर
##डल
पृथ्वी
बंद
विशिष्ट
संगठन
ज्यादा
##तु
आकार
ब्रह्म
यात्रा
##्वज
कौ
प्रभावित
धी
##भर
आवश्यकता
रोम
##ul
ग्रे
प्रसार
##ॉट
ग्रंथ
##ंगल
दृष्टि
पुराने
बोल
##पा
नम
ग्रह
मोह
##कु
##ग्रह
##बादी
##जों
तकनी
उद्योग
ऑस्ट्रेलिया
##ोद
पढ़
##िज़
##विधा
ओल
करें
चर
डिज
धारा
##क़
कहानी
गोल
##एम
कठ
साम्राज्य
आते
हों
##्टर
##कीय
##िक्र
##डिया
कांग
##कालीन
पद्ध
पाठ
सुन
##िको
तरी
देवी
##िरा
तेल
आरम्भ
धार्मिक
25
सहित
##सम
बर
सात
महार
विस्तार
सदी
##र्प
संबंधित
इनका
##गणना
रहती
तम
शैली
परिवर्तन
समु
##ास्थ
##ठी
राजस्थान
##ro
##िटी
दिए
नर
##वेद
वर्णन
बांग
2008
खुद
दर्शन
##डियो
##्रु
आता
जनगणना
क्षमता
वैज्ञानिक
##क्षर
पड़ा
हेत
प्रतिनि
प्रचलित
ऐतिहासिक
दिव
##्नी
प्रस
मिली
दूरी
ग्री
सम्बन्ध
चिकित्सा
रेड
##तों
किमी
आबादी
अफ्री
माइ
जय
लै
प्रस्तुत
##el
##ेयर
पीछ
आन
##ार्
सुविधा
मदद
2007
193
##ृह
##राय
खान
बज
अन्तर
##स्वर
##ch
हेतु
व्यापक
रखने
द्वितीय
मुर
पर्वत
##us
##त्रों
बैठ
प्राकृत
बहु
मही
अध्यक्ष
##कारों
दिखाई
दूसरा
भाई
वृद्धि
बैंक
संस्कृति
##एल
उद्देश्य
नार
कथा
##शास्त्र
सूर्
##हन
रक्त
30
बौद्ध
तहत
##्यो
##ेप
संचाल
रोक
##ent
गढ़
##प्रदेश
समुदाय
मो
अर्था
##ापन
आयु
राष्ट्रपति
##त्या
संभ
बेह
रेलवे
बनाए
विवाह
बाज
प्रती
लाख
पंजा
बच्चों
निर
##il
सुरक्षा
संस
घोषणा
अरब
##्से
विभाज
##चार्य
in
मीटर
निकट
##ज़र
##मति
सामने
इंग्लैंड
व्यवहार
जाति
साइ
##ष्य
क्या
##राष्ट्रीय
##कृति
केन्द्र
अंतर्राष्ट्रीय
शाह
तट
जिन्हें
मिश्र
##ूं
##र्फ
स्र
##et
सप
प्रेम
आयोजित
पो
मनुष
बताया
जिसने
फुट
सिर
##ूँ
सप्तर्षि
अधार
लाइ
2009
##ांड
##ीस
कार्ब
स्वीकार
इन्हें
##बद्ध
##क्ट्र
##्रिय
निश्च
##ुक्त
स्थल
पहचान
कमी
मोट
वज
पर्य
##ोड़ा
पिछ
लॉ
मिस
डाल
औसत
##वक
पद्धति
नियंत्रण
##िखित
##ड्ड
दिशा
समर्थन
पुलिस
यौ
निर्मित
प्रतियोग
##षद
##ct
##स्वरूप
मर
करे
##तौर
स्वास्थ
##ोफ
##मंत्री
##ेंद
प्रतिश
प्रेर
##श्वर
##ुड
सूर्य
##ृत्व
गैर
अद
तत्व
कृष्ण
एयर
सुधार
##वें
##सीसी
क्व
जनता
##चक
शादी
##तन
##ायण
##ुग
विधि
अगर
न्याया
पैदा
उपन्यास
कांग्रेस
100
##वंश
##ब्र
##शनल
संके
चम
पश्चात
जिन्होंने
स्वास्थ्य
##िड
##20
जानकारी
शो
करी
परीक्षण
लीग
री
निर्ण
वस्तु
उपकरण
##रात
आलो
##ृत्य
इनकी
मिलियन
##ंपरा
विद्व
याद
ग्राम
प्राकृतिक
महिलाओं
कुमार
लेखक
##रित
##म्मद
अभिन
हिन्दू
वित्त
##टे
माँ
मास
तत
सहयोग
ऊर्जा
##गम
नेत
दिनों
जम
मंत्र
##ाब
##्राम
उम्र
धीरे
##ादेश
##ीक
##ation
##नेट
पहुँच
प्रशिक्ष
##धे
##ोव
छोटी
##मर
महास
नेतृत्व
शिक
समी
वापस
पश
अवधि
गाय
मुस्ल
##िफ
प्रतिशत
दक्षिणी
रस
##जात
##स्कृत
##्लेष
देती
परंपरा
##भाषा
मूर्
लगता
रिकॉर्ड
##्यार
रिप
हिम
चरण
##लेक्ट्र
विशाल
##ूर्ण
भु
##वाले
मौजूद
मुस्लिम
##ंका
पीछे
आश
2006
##्कि
कम्प
शाखा
वा
##ुद्ध
##्मण
भीतर
बो
अंतरराष्ट्रीय
##फा
##ानु
१९९
कानून
##ॉक
आंद
मंत्री
संभाव
##re
टेस्ट
##भार
वायु
हज
इस्लाम
स्वतंत्रता
अंतर्गत
संस्था
वजह
वर
किंतु
विमान
##ीद
अनुसंध
हासिल
अंक
सार्वज
##मार्ग
आकर्ष
जिसकी
सफलता
बाव
##लाइ
##राब
गा
परिय
##लिखित
##न्ध्र
##कर्ता
अपे
खिलाड़ी
पड़ता
नेट
स्रोत
जैसा
गुरु
परियोजना
आन्ध्र
पक
##ग्री
जोड़
##िवार
##ासी
भाष
##स्थित
##ूष
प्रौ
##खंड
सरकारी
नृत्य
कहला
##iv
प्रतियोगिता
##स्ताव
जिम
अनुमान
दिखा
खा
##तियों
##र्मा
##नाम
सार्वजनिक
संरचना
रास
बढ़ा
राजनीति
अंग्रेज़ी
##िकाओं
गणना
गुज
आमतौर
एच
##ागर
##गढ
अनुसंधान
१५
साधारण
##न्दर
##श्रे
##ंटी
##ेंडर
##मत
मश
##शि
शक्त
सूचना
मना
चक्र
##ड़ियों
उत्स
प्रस्ताव
ज़िले
तंत्र
इलेक्ट्र
##भाष
कृषि
##एन
इन्
##िथ
##िना
महाराज
सल
##ंबई
##देव
१०
##ख़
ताकि
सड़
तमिल
सहायक
अवस्था
नागरिक
दस
शोध
सिक
साह
रै
समुद्र
कविता
##हरी
आइ
##्यूटर
##ल्ड
विद
ट्रे
फ्रांस
##आर
##्द
##ष्म
सैनिक
##ियल
##ष्ट्र
##ॉप
वास्तविक
आरंभ
निम्नलिखित
अच्छी
प्रमाण
मुद्र
##ंडर
##id
##राव
शुरु
किन्तु
2010
##ियान
वहां
##्रो
पत्नी
अनुभव
उससे
गौ
लो
ग्ल
21
मुह
अनुवाद
वाह
विद्युत
##र्व
टाइ
उनमें
ब्राह
##न्ट
चीनी
योगदान
डिग
##न्थ
अक्ष
फ्ल
प्रान्त
टै
टूर्
चुके
##क्टर
बल्कि
##ंदन
नाटक
विश्वास
काव्य
##पि
##स्कृतिक
राव
##सिंह
##िनियम
जाएगा
१७
रेखा
##नामेंट
बंगाल
चाल
##ra
सैन
ठीक
अभिनय
जैसी
टूर्नामेंट
ड्र
##गोल
महारा
मिट
##ताब
##श्रेष्ठ
आठ
नेपाल
##ठा
समिति
सांस्कृतिक
अफ्रीका
गल
अश
सुल
विन
रिली
##पास
देखने
न्याय
राज्यों
विजय
##धिकारिक
अग्र
##इड
मन्द
##बे
##्लादेश
सर्वश्रेष्ठ
यूरोपीय
191
डिग्री
आन्ध्रप्रदेश
आए
##पात
##स्टर
प्रौद्योग
##चर
##पे
सम्मानित
आधिकारिक
झील
पाए
परंतु
फूल
निर्मा
24
बांग्लादेश
इंडिया
किन
गर्म
##टिक
स्ना
##न्या
ऊंच
उसमें
पटना
१२
मनुष्य
प्रोट
परन्तु
मुक्त
निजी
##त्त्व
अनुमति
##भाग
##ूरत
बैंड
लम्ब
मान्यता
##th
खरी
चलता
पंजाब
192
आंदोलन
तथ
सें
विद्यालय
वेब
युवा
लक्षण
शब्दों
क्लब
संद
कहीं
भोजन
बां
मिलती
संय
##ंसा
टेली
मुख्यालय
मॉडल
तल
घंट
जापान
for
फरवरी
अपेक्षा
प्रतिनिध
##सू
##ोरा
##धारित
खंड
##ाँच
जैन
##ृत्ति
फिल्मों
लागू
##ज़ा
बाग
बाजार
सामूह
लगाया
भावना
खो
##ंकर
##ानि
सामूहिक
##हाबाद
##मैन
##ow
निर्णय
50
ध्व
##वेयर
नीति
##्बम
सामग्री
पूजा
प्रबंधन
##िक्रिया
फॉ
गेंद
जीता
##ॉलर
दुर्
रक्षा
लु
भाषाओं
रात
सॉ
जॉन
##्ह
2018
बच्चे
आसपास
ब्रिटेन
##बार
अस्त
##ुरी
तरफ
बेल
विवाद
सीमित
उपचार
##ादाबाद
मजब
##्वीप
##ोत्स
भे
मुंबई
मूल्य
and
##रेट
सितंबर
##ंडी
उपा
##चि
संघर्ष
मध
##ेब
धात
मुरादाबाद
कश्म
संकेत
एज
पाँच
मामले
##दाय
सदस्यों
नया
2005
##्शन
एकल
सागर
हवाई
गढ़वाल
बावजूद
##यान
सक्रिय
रन
मां
मन्दिर
##चित्र
लगी
##ेय
##ig
##os
पत्थ
संवि
कोशिश
दृष्ट
संबंधी
निश्चित
अपरा
१९८
##धर
इका
निर्धारित
लिप
स्थानों
बनाई
##ad
निर्भर
##ंजन
प्रकृति
अध्या
शासक
व्यवसाय
23
22
##um
अधिनियम
##त्तर
१६
##बॉल
रानी
##गंज
##क्षेप
##रीय
वास्तव
स्वरूप
हरा
##्काल
मानते
वीर
नियुक्त
कट
कर्
##रस
प्रांत
##्लेषण
वीं
अभिनेता
##ार्क
सत्य
फी
##ंपिक
##यत
प्रचार
उड़
सिल
##केट
चैन
##ंघ
##किंग
2014
हिस्से
महीने
##ुरा
सही
होगी
##टिल
प्रयुक्त
2011
चुका
##भीर
##रीत
छोटा
##्ताह
अस्प
मू
आक्रमण
व्याव
व्याख्या
##स्थाप
प्राथम
फार
दर्शाता
संदर्भ
करोड़
मिन
##वेश
भागों
गांधी
##वर्ती
चले
हॉ
मिले
गैस
प्राथमिक
##गार
डिजाइन
सेंट
सेल
##िकोण
विविध
संश
रि
नेता
अल्म
विपरीत
प्रौद्योगिकी
हाइड
26
भेज
ब्राह्मण
##राज
##त्य
##खन
कथ
जर्मनी
इल
##्पना
टीवी
देना
पस
इत्या
पेट
2016
##न्ना
अतः
लेते
##क्सी
##ातार
##शिप
मील
##ष्णु
##ia
##ूब
साध
किंग
दृश्य
अधिकारी
##त्ता
##वर्क
काउ
बुद्ध
सर्वा
##शाला
निभ
डॉलर
आदेश
कन्न
##नगर
मांग
मात्र
तुम
वेद
गं
रण
अर्ज
मामलों
##ॉम
##ज़न
2019
कार्यों
१९७
लिखी
##em
छह
##ay
##नु
भारी
परिषद
दिसंबर
प्रारंभिक
मानस
अच्छा
##प्प
पट
जॉ
##ेव
##एफ
ज्ञात
2012
##ापुर
इलाहाबाद
अहम
##डु
##वस्था
पत्रिका
हत्या
##वै
##फ्त
आयोजन
स्वामी
लौट
करीब
सच
प्रशिक्षण
इत्यादि
बिक
##ेंगे
श्व
##क्षम
##क्ष्म
११
संपाद
##ाये
रुप
बनने
जूल
##च्छा
पहल
##ातर
एल्बम
विज्ञ
पार्क
##लाह
मेल
##ियत
##उस
##नाइट
ताल
दै
सिस्ट
##मल
विस्तृत
प्रशास
##ेंज
लगातार
यौग
##नियों
##ut
##म्स
प्यार
इंजीन
नवं
तत्काल
##ष्णा
नवंबर
प्रकाशन
गंगा
एफ
परमाण
##ag
समाचार
भवि
संविधान
हिंदू
##ारोह
##ंडा
ओलंपिक
##िरी
लक्ष्य
##घु
##णों
पालन
उल
2000
रिपोर्ट
ईस
पिछले
दब
पव
रखते
आती
भविष्य
सम्र
प्रतिस
घोषित
महाराष्ट्र
प्रतिष्ठ
अनुर
महाद
##ंधित
27
न्यायालय
सड़क
प्रतिनिधित्व
राजमार्ग
##ल्प
जुड़े
मिलकर
पृष्ठ
##रोक्त
उपरोक्त
यद्य
जिनके
दवा
सारे
हमारे
अकाद
अगले
विधायक
2004
सफ
##ृद
ग्रन्थ
मानक
यद्यपि
चंद्र
लंदन
2017
चर्
बोली
##un
शि
##टों
सर्वाधिक
विदेशी
संसद
कना
मानकर
दिसम्बर
विद्र
कश्मीर
कैलेंडर
सक्षम
रूस
उम्म
संभव
असम
पुनः
तर्क
मरा
##विज्ञान
ईर
##्टन
28
इट
नेटवर्क
कृष्णा
जर्मन
घट
##ce
सरल
छात्र
खेलों
शिल
##ूनी
##व्र
अनंत
योग्य
##ेशा
प्रतिक्रिया
बदला
बर्
निर्माता
##ूक
अमरी
साक्ष
##ग़
गंभीर
अल्प
##ot
##ir
यौगिक
डाय
##वाया
इसने
##ाद्य
पर्याप्त
सिर्फ
##ष्प
कले
सुपर
सम्राट
##दातर
##पु
##गन
बरा
१४
अभियान
मैदान
दुर्ग
आलोचना
स्टार
विशेषता
##्यास
गठन
##भु
##मात्र
तरीके
चुन
##ास्ट
अज
##ारण
##स्थिति
घरेल
##झे
190
##ैर
हस्त
##यल
मनो
##ाइनल
##ारक
वीडियो
वेस्ट
कंप्यूटर
आगरा
अधीन
पवित्र
शेष
किर
लेता
##मु
##वों
निष्क
##वुड
40
दान
कार्यालय
मिट्टी
मिलते
अफ़
संकल
##बू
##ंपरिक
व्यक्तियों
नवम्बर
सैन्य
मसी
##उट
पर्यावरण
##रोध
##दास
##od
##दर
मौत
वेल
##घर
पारंपरिक
विभाजित
ग़
##वाब
2015
##िश्च
खास
सभ
राजन
करा
१९६
बोर्ड
मैक
निकाले
अंदर
अत्यंत
##न्त्र
##ंजी
##ाटी
##थी
जाये
आरोप
##्रेड
अधिकतर
अवसर
कुर
औद्योग
##ट्र
फिल
अत्यधिक
विश्लेषण
चुना
प्री
समारोह
##दम
बिज
उन्होने
मुसल
##st
पत्थर
मैन
##यात
##र्तन
कव
##ॉर्क
इमार
दू
##ोग्राम
तीर्थ
##णि
##ीकरण
##लपुर
निवेश
##ज्ञा
कॉम
उम्मीद
हमेशा
##क्षक
मित्र
सर्वो
चरित्र
अख
बजाय
विष्णु
परीक्षा
स्वर
सप्ताह
पसंद
गू
##ेंड
मुद्रा
बीज
मसीह
मेट
किनारे
घरेलू
भौतिक
तेज
##ik
आर्
##ामा
##ौली
परिणामस्वरूप
##ण्डर
##ेदार
##ोषण
जिनका
चाहते
##चय
##फ़ी
१३
५७
५८
##बर्ग
उल्लेखनीय
##भूम
गृह
७८
समझौ
माप
चिकित्स
मीडिया
चुकी
##गाह
2013
फैस
आयर
##्वे
हवा
जांच
##ेम्स
##ृत्त
प्रो
to
श्रील
ऊँ
जित
##ियुग
##घाट
सुंदर
जाय
लेखन
वित्तीय
व्यक्तिगत
संगठ
मस्त
गर
वही
अपराध
चन्द्र
दौरा
##ाउन
दावा
महल
ईसाई
रेडियो
संभावना
चैनल
गुजरात
##कोट
गुप्त
उर्द
##कान
##िब्ब
परमाणु
भवन
सामना
कलाकार
##खी
नष्ट
##og
मुहम्मद
गोप
##्मी
##स्य
अम्ल
##वाला
##णु
##्थित
ऑन
कलियुग
तापमान
गणित
जंग
हमला
मुसलमान
संपर्क
खेला
सूत्र
##न्ड
शीत
बल्ल
##वाली
सन्द
अस्तित्व
पाई
##सै
साब
सलाह
सॉफ्ट
श्रीलंका
##im
युक्त
सतह
##ौज
##िटल
महासागर
अस्थ
##ियस
सत्ता
वॉ
दोस्त
चोट
लाइन
लड़ाई
##गो
अकादमी
अंतरिक्ष
ग्रामी
छत्त
##ज्ज
प्रकट
##ित्य
शांति
औद्योगिक
2001
प्रधानमंत्री
जिम्म
2003
आँ
स्थिर
##दियों
##जाति
गतिविध
##डम
##सान
कर्न
वहीं
##ायत
जूलियन
##मारी
##गति
ज्यादातर
सत्र
इंजन
अर्थात
##रत
सम्बंधित
##माने
प्रसाद
शारी
बेहतर
##ित्त
बराबर
##इल
तीसरे
जोख
विक्रमी
ग्राह
पदक
हथ
चढ़
भेद
नैनी
१९५
दृष्टिकोण
##हरे
अर्थात्
डेट
चर्च
हस्ता
१९४
सुरक्षित
चारों
अभिनेत्री
ग्रहण
सूक्ष्म
सम्मेल
तिर
उर्दू
फ़र
सोल
सिद्धान्त
परम
इतना
स्पेन
##्लाह
प्रेरित
एकमात्र
आत
तकनीक
माइक्र
छत्तीस
अंश
##पल
##चारिक
##ृष्ट
प्रजात
धर
संरक्षण
शुद्ध
आचार्य
2002
th
##शाली
आदर्श
मैचों
रोज
वस्तुओं
##ter
जनरल
केंद
29
##धारा
सुख
##रीब
शास्त
सम्मिल
##ायद
##लब
##्यक
शहरों
सिस्टम
संसा
##्रेट
डिस
लंबे
##ख्यात
तीव्र
विद्रोह
सीरी
जोखिम
आये
##ह्न
##ियाई
चलने
पद्म
##ोक्ता
माह
अड्ड
##यम
श्रम
खरीद
नियमित
कनाडा
तार
संचालित
शारीरिक
##नो
पंचाग
##नाइटेड
विषयों
##op
1990
उनसे
धातु
कब्
उन्
निर्देशक
सितम्बर
##एच
लिखे
घंटे
इच्छा
##ग्न
आख
अधारित
नैनीताल
कलेण्डर
##्यूट
##याल
महत्त्व
##कारात्मक
विवरण
वाता
नाइट
मशीन
पुनर्
प्रे
पेर
टेलीवि
क्रमश
सिने
कैथ
##िकन
कैर
##ियनशिप
रेख
विलियम
प्रशासन
##ायनिक
##ढ़ी
##ब्ल्यू
शर्मा
##ियार
द्वार
किले
##लाइन
##ुस
##सीय
फैल
घाटी
##लेट
विद्या
मात
जीन
31
संस्थाप
किताब
उद्यान
अस्पताल
स्नातक
विकेट
जेल
आंत
प्राण
पति
कृत
##ायल
दोष
ग्रामीण
रिलीज़
सम्मिलित
हट
छत्तीसगढ़
##्यूर
लगाने
मार्क
अवश
पुरुषों
हृद
जिसमे
नील
##िवेश
##वीय
##भूमि
फुटबॉल
##वां
मस्
00
संशोध
पुराण
form
##ब्ब
समर्प
##जीव
भुगत
इंजीनियर
हल्
लागत
स्वर्ण
प्रतीक
बाँ
दास
वर्गी
##पूर्वक
घाट
काली
सीधे
कैसे
अल्मोड़ा
##ेंच
परिप
गर्
बिंद
कोरिया
अलीगढ़
रोड
मिलने
राशि
ईश्वर
जुड़ा
##स्फ
##्वा
फाइनल
##क्षेत्र
मौसम
पकड़
अच्छे
वातावरण
##िवर्स
##ंदा
पैर
नही
##ist
##ula
जटिल
दिखाया
रासायनिक
##कृ
कोशिका
सॉफ्टवेयर
तेजी
मस
##वट
इम
देखते
##्ले
खत
हाई
अभिव
##्वाल
##िप्प
##कर्ताओं
##कता
केरल
सोव
तत्कालीन
पल
रखता
इकाई
or
मुझे
पशु
शीर्षक
ज्यो
##लीय
##जिद
सोम
आयोग
शेयर
वृक्ष
परम्प
आनंद
विचारों
##वेदन
##शय
##ेंद्र
चर्चा
केंद्रीय
कहान
प्रायः
जमा
अरबी
नेशनल
पॉ
संचार
अनुक
बेटे
मंच
##व्यवस्था
उचित
लक
उन्न
ध्रु
संचालन
##ादन
मस्जिद
##ंसर
रोमन
शास्त्र
निभाई
##ोत्साह
##न्व
189
कार्बन
re
दर्ज
लिम
##हवीं
समूहों
संक्रमण
पत्त
पॉल
पाने
उत्क
चलते
नियंत्रित
पहाड़ी
रसाय
मिनट
कस
भेजा
##गान
अय
चयन
फैला
सम्मेलन
##िष्क
##वाहिक
देवता
रज
सिटी
कार्ड
कंपनियों
राजवंश
कपूर
जीवित
##ैण्ड
##ात्
दबाव
तुर
घटनाओं
##ंतर
काट
##उंड
##वरों
##ग्
सोवियत
प्रशासनिक
गर्भ
छात्रों
##ांकन
जुड़
पोल
बंध
मछ
##ोनी
वाक
मेड
व्यावसाय
भक्त
##शाह
##50
समस्त
मुख्यतः
प्रोग्राम
माने
विरुद्ध
भुगतान
प्रारम्भ
##करी
शिकार
परम्परा
तृ
निभा
com
नारायण
ज्योति
उदय
भ्र
राह
##ोडा
कर्ना
##कुल
##त्मा
उपभ
आत्मा
##दिक
##and
हाइड्र
वाण
तुम्
##ुण
अधिकारियों
हमें
विद्वान
लिंग
गहरा
लघु
विरोधी
शायद
##बन्ध
तकनीकी
स्ट्र
##tt
##भूत
##िमा
##ah
व्यावसायिक
##णिक
अनुया
1980
ढंग
कैंसर
करेगा
सांस
##्हा
आकाश
छोड़कर
विवे
##पचारिक
जहाज
मनोर
सेवाओं
फे
क्षेत्रीय
प्रत्यक्ष
उपाधि
संसार
प्रगति
विकल्प
वर्णित
बेटी
##ap
क्रांति
बिक्री
वालों
२५
एथ
गठ
आईसीसी
उनको
##ध्या
प्रोत्साह
लोकसभा
##ताप
##चारी
विशेषज्ञ
पहुँ
मतलब
मानसिक
##ंगे
हरिया
हृदय
मार्
आवास
##द्दीन
मांस
##स्त्र
##खाबाद
अनुकूल
अनंतपुर
रिया
गव
पुराना
जापानी
उपयुक्त
##भाषित
सर्वोच्च
##िश्चित
वर्षा
##सूस
मानना
विभाजन
##वती
स्वा
##दर्श
समझा
##ौल
स्कॉट
उपस्थिति
##िज्य
गतिविधियों
##ील्ड
गेम
तारा
##क्क
formula
##ांतर
विद्वानों
##ोना
##राबाद
##भारत
अंततः
##र्की
संप्र
##पुरा
चतु
लिपि
500
छि
पश्चात्
समीक्षा
हजार
ऋण
तिब्ब
##लाल
जगत
सम्पूर्ण
##गरी
मेरे
##र्घ
##्षिक
प्रभावी
तप
सूर
##eb
##टिन
##ास्
फ़्र
##पूर्ति
कराया
वाणिज्य
पदार्थों
हाउस
60
##ers
##ेह
##कृष्ण
त्व
##वर्ष
प्लेट
##कला
एक्सप
##्रुखाबाद
188
पैमाने
फर्रुखाबाद
लंबी
##थे
वर्ल्ड
न्यूय
##काता
परिसर
सेन
अर्थव्यवस्था
ट्व
उठा
एप
सुना
मौल
जेम्स
मिशन
सन्दर्भ
संस्थापक
वें
हित
कक्षा
##ोज़
##हीन
1999
मजबूत
नुक
##्तान
##ष्कार
##ौती
##काब
ध्वनि
##ab
विजे
##ोबाइल
निर्देशित
सिनेमा
बहन
पात्र
##ाटा
खाद्य
##ार्ट
एशियाई
##धारणा
अंग्रेजों
औष
त्या
##सेन
##पुरी
कर्नाटक
कोर
पेशे
ईरान
हटा
निगम
खेती
आंक
बल्लेब
गोर
चैंप
##लीवुड
न्यूयॉर्क
बाहरी
गुल
सिख
##स्पति
मंत्रालय
पाठ्य
The
रिस
##ांतिक
फैसला
वार्षिक
##क्का
खुल
दिये
##ाँकि
सम्
पौड़ी
रूसी
कहलाता
आउट
##क्व
हालाँकि
संभवत
मग
राजप
अमर
##रीन
निर्देशन
दिवस
प्रसारण
बेस
समस्याओं
##र्नर
उपन
##संख
मंडल
सृ
##धों
शुरूआ
किरदार
कहना
कल्पना
##ive
##ख्य
मुक
स्न
जीवा
प्रतिबंध
संपत्ति
उत्पत्ति
कोलकाता
उपस्थित
##ड़िया
कल्या
##देशक
बिजली
##ak
अवधारणा
##मह
##विड
चट्ट
185
१९३
तीसरी
पुरानी
##ंकन
आसानी
बजे
##श्विक
##सेना
गाने
##ॉनिक
अग्न
समर्पित
##झा
ट्रेन
वैदिक
##ंव
हस्ताक्षर
##ांव
सीट
##अर
##कुमार
##पत
केन्द
पूछ
रखी
##निर्
मिस्र
##जल
लखन
##बर्ट
##पट
##ावत
परिवर्तित
##्सी
पत्रकार
अभ्यास
टू
नियमों
मेर
धारावाहिक
जानी
पिथ
मंज
##िष्ठ
कठिन
##्पर्
नैतिक
नवीन
सेट
देखें
1998
इंटरनेट
संग्रहालय
डाला
निश
अभि
दर्द
##राम
##ंता
किश
मस्तिष्क
निवासी
आन्द
एव
##पद
संस्कार
##ंदी
टीमों
इटली
कमा
आर्ट
ऐल
##ac
नॉ
सीख
विज्ञापन
##av
कर्नूल
घूम
दार्
क्षेत्रफल
##मेर
कारणों
प्रतिस्पर्
सोच
सिंध
परिभाषित
शंकर
क्यू
इमारत
##ासा
जोर
तय
स्टू
चली
स्टी
महाभारत
अना
टुक
##ip
बेच
जॉर्ज
##यू
##ुल्क
जमीन
कर्नूलु
##अल
जिल
स्टेड
प्रोफ
चेन्न
साबित
अनिवार
दौरे
बीमारी
ऊंचाई
चैम्प
जलवा
यूनिवर्स
डि
रिश
##वत्ता
परिस्थित
प्रि
सर्वे
गंग
वोल
केंद्रित
##ैतिक
##ावर
ब्लैक
खी
##क्ल
अब्द
मोहम्मद
समुद्री
कित
##दर्शन
अनुपात
##ांतरित
##ुस्त
##्श
पर्यटन
प्रवाह
कोट
35
##ेक्ट
१९२
जरूरत
इर
मंगल
सजा
##हारी
वैश्विक
मूर्ति
अनुप्र
गुणवत्ता
ऋषि
देकर
दूध
##वीर
अभिव्य
##ठे
सिंग
आतंक
##लिंग
##बि
त्रि
##दूर
यूनाइटेड
पंड
##ॉस
रसायन
##र्जी
तोड़
अवत
केन्द्रीय
##क्साइड
खूब
श्रद्ध
पुण
is
स्थायी
गूगल
शेर
ग्रेग
हरियाणा
आंतरिक
मंग
यंत्र
०००
##संग
जम्म
बनाये
##ेंसी
सुब
बढ़ती
घन
ठाक
स्त्री
रोकने
##राज्य
प्रश्न
महाराजा
संधि
द्रव्य
अके
तभी
मालिक
##ूषण
शुक
##नेस
साधन
##चु
फ़रवरी
काशी
st
जाकर
कल्याण
स्टेडियम
##ोला
प्रथा
आकर्षित
##िशाली
##ttp
80
नामित
नंबर
##खे
मातृ
नो
बढ़ावा
साहित्यिक
तला
आपको
तीनों
शाही
तुर्की
##्रीम
प्राप्ति
जम्मू
हैद
बाज़
महसूस
स्वाम
चुने
धारण
पोर्ट
होटल
गी
बिंदु
http
म्यू
##कल्प
नुकसान
संदेश
##्मा
कन्नौज
##ानुसार
##शनिक
आकर
डिज़
चाहता
##पेक्ष
सभ्यता
##oc
गौर
भागलपुर
गिरा
चूं
प्रतिमा
##ड़ित
पुष्टि
स्टेट
##ांत्र
अहमद
लिखित
बंदर
##ोत्तर
##ोग्रा
चूंकि
आर्य
लाया
हिल
शे
टेलीविजन
##ेन्द्र
##ोंग
तत्वों
शक्तिशाली
सुल्तान
प्रीम
लव
उपग्रह
लेन
##र्मी
##ेंटी
दार्शनिक
कार्यक्रमों
ज़र
सौर
इंडियन
चू
थो
लाने
##्दी
वास
मुगल
मुख्यमंत्री
##ोलिक
माध
##ेसर
उड़ान
जिनकी
बुला
लिमिट
अनिवार्य
बुल
रोगी
आवि
संपूर्ण
पड़े
ठाकुर
चा
गईं
फ़िल्मों
परिभाषा
##वर्ड
##षण
वस
समृ
कोशिकाओं
##श्क
कप्त
##र्ती
##िस्तानी
तू
##्ज़
##ंडे
एंज
सर्वप्र
ज़िला
वितरण
कदम
##हान
सैनिकों
यथ
लकड़ी
यज्ञ
##जू
सुझ
चेन्नई
जलवायु
प्रेस
बढ़ाने
पथ
रॉक
##ंगी
बचपन
क्षति
##वेल
संकट
दाय
इंद
परिवहन
1970
हाथों
हाइ
आन्दोलन
पाप
कानूनी
##ाउंड
मनाया
विजेता
##ुत्व
पाद
##्को
मिश्रण
##िकता
उपर
##ूति
लखनऊ
मोबाइल
मुकाब
लेना
##ian
##्की
##ॉय
##ाजा
बाबा
##ुति
##स्ती
गोल्ड
सौंप
##चरण
हरि
##ोसिए
समझने
लोह
##संख्यक
२४
द्रव
होंगे
##ेनिस
लिमिटेड
जाल
##इस
शराब
ब्रे
स्ल
२१
1996
जू
##ल्स
##तया
##िपी
प्रताप
सचिव
गायक
कर्ण
जल्द
##स्म
##्रीट
एकत्र
मिलाकर
मक
यानि
समानता
३०
वय
करेंगे
आदिव
In
##ावली
पर्व
पेड़
##िप्त
##ोर्स
##जु
##प्ट
जैव
पौधों
कौशल
##धीश
कण
##पक
प्रभ
उपयोगी
वाहन
प्रतिरोध
बू
हूँ
हैदराबाद
शिश
ड्राइ
गिल
##डन
फीट
अर्ध
शुक्र
प्रय
##क्शन
गुजर
हमले
32
इस्लामी
मेज
उत्पादों
##ंकार
##ेदारी
सोस
##नक
इंजीनियरिंग
उपकरणों
तुरंत
रास्त
हद
जोड़ा
गेंदब
साथी
व्यक्तित्व
##्चर
त्याग
उद्य
##दाता
स्मृति
डिव
डेटा
लिखने
महत्त्वपूर्ण
सर्वप्रथम
आपूर्ति
देवताओं
गलत
निरंतर
हिमालय
बसा
हेल
187
बाकी
##परी
सीरीज
मिथ
br
औपचारिक
भोज
1997
##ोलॉ
सेंटर
##ॉड
##क्षी
बेग
##ाइम
उत्कृष्ट
de
अवार्ड
##धिकारी
गणराज्य
अमरीका
नक्
बनाता
राजपूत
चिह्न
ग्रंथों
राजाओं
ट्रांस
बत
बाय
चेत
##ैट
अनुबंध
व्यास
70
##त्रि
अपेक्षाकृत
##ठार
ईस्ट
खाने
##्त्र
ज़्या
२२
आध्या
इलाज
##राह
फोट
भ्रम
प्रसारित
एंटी
दीवार
काला
##हाट
अदाल
२३
पुस्तकाल
आदमी
36
दैनिक
##्सों
मेरी
##चारियों
डेविड
अशोक
हेन
##क्ता
##िरण
##ोहन
ऊँच
अभाव
बचा
ग्रीष्म
##ष्टा
##इन
बनाते
साक्षात्
ठोस
##नाश
सफेद
आध्यात्म
बदलाव
##घटना
दीर्घ
##ैश
अन्दर
फॉर
बनाकर
ग्रेगोरी
टेल
##घ्र
##गुप्त
स्टूडियो
काले
टिक
टेक
##ou
न्यूजी
नेप
निधन
कॉल
उपाय
घु
शिख
साक्षर
बैं
जंगल
पड़ती
##र्जन
क्रिस
व्र
##ांट
अधिकतम
इलेक्ट्रॉनिक
क्रिस्ट
कैम
कम्पनी
कायम
बनता
पंडित
जवाब
एक्स्प
09
सारी
##्ती
संह
साइट
1960
##नन
पुस्तकों
लगती
असफल
बृह
##ंटर
निदेशक
निच
फ्रां
इतनी
चक
सदा
हार्ड
कठोर
प्रोटीन
कलाकारों
डर
कोर्ट
##est
फलस्वरूप
प्रतीत
II
सामान्यतः
चंद
डा
नज
तरंग
##खों
गिरफ्त
शल
अर्जुन
अश्व
मानी
सच्च
प्रतिभा
##ावल
सीता
186
तथ्य
##तीत
वैसे
रखना
लाह
मोटर
पक्षी
##िताब
चैम्पियनशिप
शृंखला
बिग
जयपुर
##गांव
कर्मचारियों
न्यूजीलैंड
1992
कैलंडर
##साइट
महाविद्यालय
अकबर
मोर
खिलाड़ियों
फ्रेंच
समाधान
##च्छेद
प्रतिनिधि
नये
विस्फ
अफगान
बीमा
परिस्थितियों
##ुत्प
एसोसिए
खोल
पहुंचा
सांसद
समीप
##ाइयों
यात्री
##ess
कक्ष
मध्यम
प्रेरणा
##गोलिक
पाठ्यक्रम
##तल
पराज
प्रशंसा
पाकिस्तानी
##डो
काग
बहाद
टूट
रूपों
अनुप
गुफा
##दल
##ैंक
सुन्दर
गवर्नर
ग्रीन
बढ
तृतीय
कुशल
##ang
संबद्ध
रेखांश
उपभोक्ता
##ैम
चलती
##माला
सेक
सश
सुझाव
##ण्ट
##इयों
##भाल
al
टिप्प
भीम
दर्जा
##ार्थी
मराठी
विफल
भौगोलिक
धो
हॉल
स्वामित्व
1991
चुनावों
##ाफ
लेती
लंबाई
##र्वेद
##मती
##बोध
45
मारे
जीतने
अवि
अल्लाह
आयरलैंड
खेले
ऊँचाई
##ly
##वासी
##शीलता
तिल
शौ
##खिक
##लेस
1994
बंगाली
तीसरा
अर्थशास्त्र
##ंगाबाद
अध्याय
##तिकी
ख़ान
##ity
त्वचा
नोट
यानी
कार्बनिक
इंच
यम
करवाया
प्रतिप
डिजिटल
जिम्मेदार
##if
हिस्सों
दस्ता
सोन
##ालियों
##कोश
वाद
बोध
##यक
कुश
टीका
खर्च
##त्रियों
विस्फोट
शेख
अधिकारों
संबंधों
ऑस्ट्रेलियाई
राजनैतिक
खेलने
बालक
##iki
पढ़ाई
नदियों
किला
##ासत
बांध
##ैया
बनाना
पारित
सर्वेक्षण
शत्र
भट्ट
२६
माइकल
मिश्रित
दें
सामान
##ine
कन्या
##िकीय
बॉक्स
मगध
1995
उच्चारण
300
झार
##नात्मक
सकें
अमेरिकन
शुरूआत
ऊपरी
##र्या
##िणी
Ch
कराने
सुनिश्चित
##दीय
##ीकृत
बुर
बैठक
पहन
रखे
एक्स्प्रेस
स्वत
जीते
शैल
स्वर्ग
अग्नि
देखकर
प्रार्थ
##ोई
ग्रुप
कैरियर
90
रास्ते
डबल
मुसलमानों
नेहर
हुये
दर्शकों
रियासत
प्रीमियर
जला
##रि
निकाला
चाहे
श्रेष्ठ
बम
अवस
बांग्ला
दुर्घटना
उपनि
यहीं
##सूत्र
जातियों
आंध
रुपये
33
##ापि
##न्दु
रॉयल
ब्रांड
प्रतिष्ठित
संगठनों
इज
१९१
चार्ल
रचित
जल्दी
सिद्धांतों
##ँग
1993
२०११
कड
शुल्क
##पत्र
निर्धारण
हाइड्रोजन
एक्सप्रेस
भंड
ब्रह्मा
वेबसाइट
बंदरगाह
संहिता
con
पुर्त
ऑक्सी
साक्षात्कार
संक्ष
बुनिया
हराया
##ूसराय
पीड़ित
आश्रम
##ud
शीघ्र
बेगूसराय
135
स्थानांतरित
इंस्ट
साक्षरता
##ec
रोह
थाई
##ायन
##मो
अमृत
धारणा
ध्रुव
पिक
बदले
निर्वाचित
##तियाँ
तनाव
पीढ़ी
##म्बई
गोली
मोहन
प्रजातियों
विंड
पेशेवर
धूम
##ate
उद्ध
यूनानी
web
##ैव
प्रार्थना
शहरी
निष्कर्ष
वयस्क
भक्ति
##ूदी
किस्म
लगते
गुणों
नायक
कहता
##फार
मुला
बुद्धि
वृत्त
नाथ
पौधे
स्कोर
न्यायाधीश
कौन
पंचायत
शिखर
##ant
फोन
##जीत
बढ़ने
पोस्ट
खाड़ी
किंगडम
##मय
##पूर्व
सूरज
कड़ी
##वारों
कमज
##विधि
बारह
शास्त्रीय
क्रमशः
##ांतरण
खण्ड
##ph
##ट्
श्रेय
इरा
##नेशनल
##युद्ध
##वाड़
बीस
##्पनिक
##ub
अंध
##कश
पुर्तग
औरंगाबाद
आनु
बागेश्वर
सुबह
खींच
##टो
an
करियर
##फर
शान
##दृ
मंदिरों
अनुरूप
झु
प्रखण्ड
##दिन
बाज़ार
दंड
प्रशंस
शुक्ल
लेखकों
मेजब
सका
##ौरा
##नर
अधि
पौरा
बहुम
विचारधारा
##फोर्ड
किरण
ऑफिस
दस्तावे
यश
पार्
व्यापारिक
महाद्वीप
उभ
सज
##भेद
##घाटन
व्याकरण
काल्पनिक
उपनिवेश
डब्ल्यू
२०१४
कप्तान
##शास्त
हास्य
अनुप्रयोग
अफ़्री
न्यून
पौराणिक
चम्प
##विद
पहाड़
आध्यात्मिक
now
37
रम
रेस
दिवसीय
स्त्र
##मि
कीमत
##गीर
यूनिवर्सिटी
##घात
##्रीन
फ़ार
रिव
सफ़
सकारात्मक
पुस्तकालय
##ाले
प्रत्या
शुरुआती
##व्या
##igh
समझौते
संवाद
##्बा
व्युत्प
महात्मा
काउंटी
##श्किल
चित्रण
रणनी
आहार
इसील
##ाणु
##पों
क्रान्त
जुल
रोगों
संभावित
##वाना
सरदार
##ून्य
इंद्र
##लर
##दु
प्राव
पूंजी
रिलीज
१००
यौन
चमोली
अवशेष
##िनो
व्यंजन
अब्दुल
गरीब
ति
##ोर्निया
##स्वती
##्रय
आपके
ऑल
##कालिक
प्रारूप
##धरी
राजकुमार
साव
प्रोफेसर
##ार्ज
आजकल
मुक्ति
समकालीन
##त्रिम
नज़र
हनु
पौडी
##णन
विख्यात
कर्मचारी
काफ़ी
यादव
वरिष्ठ
क्लास
राजनीतिज्ञ
चार्ल्स
इन्द्र
##वानी
##ोनेशिया
##कियों
##्सन
परिचय
वर्मा
प्रतिस्पर्धा
##ुब
डिप
nowiki
##्रोल
मुश्किल
फसल
निरा
##कार्ब
मेला
आकर्षण
कैथोलिक
महाम
खर
भूत
भा
##वारी
कारक
नजर
योग्यता
खराब
##्टा
कैप
अवश्य
लक्ष्मी
गाँ
ब्लू
धरती
##भूति
##ेशिया
आवाज
अदालत
नौकरी
इसको
मगर
##त्न
रुचि
##्लो
इंट
सम्प्र
समीकरण
राजने
##वादियों
पांड
फ्रांसीसी
अक्षर
आविष्कार
बॉलीवुड
नीत
##ैज्ञानिक
सारा
पीटर
बुनियादी
##qu
तथापि
बाइ
##ri
वाइ
स्थलों
लोगो
पूर
वक्त
##ुलन
देखी
जड़
थोड़ा
##ical
हजारों
##लिन
##जनक
नमू
मठ
सरस्वती
##सिड
खत्म
प्रतिद्व
ज्योतिष
समन्व
मेघ
शिक्षण
संप्रदाय
नयी
यहूदी
कृत्रिम
इंटरनेशनल
छाप
सिव
##्यांकन
ar
##उथ
खनि
शरण
२८
##लि
रचनाओं
1950
भय
रोगियों
##ग्रहण
रेट
##िंगटन
दशा
मछली
##वाही
किसान
##ूली
तरल
##युग
प्रयोगशाला
नाभ
इलाकों
पंजाबी
हनुमान
मनोव
##जनन
हेनरी
##िकों
सदर
शिल्प
सहज
डाइ
कमाई
सेवन
परेश
सालों
वर्गीकरण
आंध्र
कोय
पुरात
स्तन
##िलाबाद
स्मारक
75
बन्द
##ट्स
संसाधन
डिवी
##सों
##ेटर
कोण
अपनाया
सिंगापुर
विलय
लड़की
संक्षिप्त
२७
##्का
##ोरिया
##स्पर
34
रामायण
उत्सव
बचाने
संयोजन
प्रोत्साहित
##ुदा
नेहरू
##धारी
अंडर
संग्राम
शासकों
रायगढ़
करनी
वस्त्र
बेहद
बहादुर
इंस
बनाती
गुना
1989
##वाँ
##ग्रस्त
##क्कर
मनोरंजन
जुड़ी
अज्ञ
##क्षिक
कब्जा
ट्रॉ
संशोधन
पारी
##पान
स्तंभ
कलक
##ूड
चिंता
खेत
प्रक्षेप
देखभाल
कर्त
##वाहित
अदिलाबाद
तात
जीवों
##बीसी
##ov
राज्यपाल
हमारी
पंजी
वायरस
##णियों
भरत
रहना
संस्थानों
पुत्री
रॉबर्ट
गोपाल
अदिलाबादु
गिरजा
संस्थाओं
अग्रणी
##िच
मुताब
##सूर
आभ
##ुखी
कपड़े
रेश
हिट
मेह
सम्बन्धित
आपने
नमः
अफ्रीकी
##्यूब
डिज़ाइन
मुताबिक
हान
चौधरी
पुणे
देर
गेट
##हाल
##षद्
##द्वीप
##ेंग
कार्र
##ंधन
उद्यम
पट्ट
चां
नल
##रप
प्रयासों
##ंगिक
चलाने
एसोसिएशन
##नाक
विविधता
कार्यरत
जिलों
##जय
यांत्र
##सैन
##ोजी
विशेषकर
धम
चिकित्सक
##तायात
शिष्य
##याग
वाणिज्यिक
यो
शर्त
वेग
ज़्यादा
खड़े
खिताब
राजस्व
##स्टन
शून्य
##सेंस
##्वल
पुष्प
खेलते
मरी
##काव्य
मंड
अत्यन्त
##नाडु
भाषाएँ
लल
##बरा
रहस्य
प्रभावशाली
##हूर
मैक्स
वैकल्प
##यत्न
38
वान
बेन
नेताओं
ओपन
##्फ़
##ादित
अमीर
बताते
झू
मौजू
##ill
##ुद्दीन
##ध्यक्ष
007
संभवतः
##कन
क्रांतिक
मौजूदा
ओवर
##ुश
##रेन
रिच
वैकल्पिक
यातायात
बीमार
निवासियों
समृद्ध
मथ
राग
ट्वेंटी
गार्ड
कार्यकारी
दुब
चित्रित
२०१०
खग
तिथ
ऑनलाइन
##निर्माण
##ेस्ट
परत
देखे
##ोलॉजी
राधा
मूल्यांकन
वनडे
अड्डा
टॉ
##बिल
प्रयत्न
गिरफ्तार
##हाई
क्रिकेटर
ख्या
##up
यथार्थ
##मेन
हूं
सोने
प्रतिक
##बीर
##मीन
विरासत
नाय
##केश्वर
उपयोगकर्ता
जानते
बाह्य
बजा
मौलिक
उन्म
##ंगेर
लू
जातीय
सीज़न
ग्रीष्मकालीन
उष्ण
बग
प्राणी
छाया
गोवि
आशा
जोकि
निर्यात
##जरी
##टकों
##ण्य
निदान
##काय
शिक्षक
अंग्रेज
पाण्ड
दरबार
बिलियन
लाहौर
##ंकी
अत्या
शत्रु
नहर
##्के
##ुरु
सैम
कंट
##बाल
गि
परस्पर
भव्य
##ंठ
##000
##ग्राम
उपनिषद
डाक
वारा
निष्प
सुविधाओं
तारे
देह
डेम
##िंट
1988
##ागत
२००९
अटल
##िप्ट
चाहिये
St
पटक
असाम
उद्घाटन
वजन
जनजाति
##ction
चुनौती
इब्
##ॉर्म
घरों
लैटिन
##एनए
फ्री
हुसैन
कमल
पुस्तकें
पर्यटक
मजबूर
बिस
गीतों
पेरिस
org
##ख्त
##ंचल
##ेडी
खड़ा
##ial
कार्यकाल
स्नान
##धानिक
विपणन
पित
##लेन
कारख
##्युन
लंबा
on
भाँ
रिश्त
वोट
##गाँव
कारा
जौ
##लोक
ब्रज
मशहूर
तमिलनाडु
पतन
मोन
##कुम
##्रल
##क्राम
खुले
##ष्मा
मद्र
भूक
##पालिका
महीनों
##ोपाल
उच्चतम
इतने
नामों
भौतिकी
मनोविज्ञान
कलकत्ता
##दारी
हिमा
जानवरों
1984
##धीन
यूएस
खाते
स्वाद
शल्य
आंश
टेनिस
##्याम
अनुश
मारने
1947
##बम
##ard
1986
परंपरागत
शक्तियों
इन्हीं
कहानियों
कडप
पन
हरे
वैज्ञानिकों
पड़ी
बेर
दरव
प्रवृत्ति
पाइ
##ेरा
मौखिक
ग्रेट
मणि
##चीत
##ast
जितना
आदिवासी
वर्गों
आंशिक
केश
##ind
मुद्
डिस्क
औषध
छिप
##धित
मुद्द
फारसी
ध्वज
##जान
प्रजनन
परा
विद्यमान
अद्व
पशुओं
उन्नत
इक
##बंधन
निकाय
चिंत
संयंत्र
संघीय
गार
दौड़
ट्रॉफी
रहीं
भीड़
कठिना
##चकों
कवर
##ोबार
कों
मेडिकल
बाई
उसको
संगम
कार्रवाई
##िस्टर
आर्क
अधिव
समझौता
नोब
##ावन
##ोनिया
डेल
184
बातचीत
प्रिय
कृति
संपादक
वापसी
तिब्बत
पिथोरा
किशोर
##बाई
##21
१९०
वस्तुत
रोल
##ार्ध
पराजित
फाइ
##ल्ली
अफगानिस्तान
आज़
##वाणी
हाथी
##शाही
कवियों
कमजोर
दम
बचने
अभिव्यक्ति
##देह
चीज़
चिप
##चालन
चमक
अक्षांश
1952
टाइम्स
लक्षणों
फें
इसीलिए
मान्य
रुक
लख
चरम
ऋतु
मादा
आयुर्वेद
ईंधन
५०
##िम्ब
दूसरों
1985
अम्ब
जनस
उतर
चौथा
##ev
प्रक्रियाओं
मेरा
##क्के
लोकप्रियता
नमक
##त्तम
गहराई
भरा
##बेर
##मिक
स्क्रीन
48
##ंक्शन
##हारिक
प्रशांत
सेवाएं
डेन
##ोही
##वश
##पेट
##न्दा
मृ
##द्दी
जैक
##ब्लिक
लम्बी
अर्जित
आंख
अष्ट
लड़ा
बैट
इसलिये
व्रत
मारा
शूट
मुंगेर
##न्दन
नाट्य
एर
स्टॉक
छत
##विन
वेल्स
स्कॉटलैंड
उदार
##ांटिक
##art
आगमन
खाना
खगोल
हिंसा
वनस्पति
तरीकों
लाइसेंस
श्वेत
डोम
जाया
हस्तक्षेप
pro
टन
गोद
झा
शासनकाल
##ell
##दर्शी
नवाब
चार्ट
प्रतिद्वंद
डाउन
##लभ
##यिक
स्वच्छ
स्वतन्त्र
पिथोरागढ
छवि
असर
प्रजाति
मद्रास
सटी
##ुक्ति
इतिहासकार
##कम
##र्ब
अभिले
चौथे
पराम
मुद्दों
स्थितियों
##र्षण
संपन्न
बचाव
##ोड़े
पाता
शुभ
ग्राहक
चेतना
राइ
##ोवा
##न्ग
बताता
##ith
##ीट
मैथ
सहयोगी
ग्लोब
इण्ड
तस्व
##स्थल
अवतार
अज्ञात
ताला
पोषण
नागरिकों
ग्राहकों
as
समाव
पाते
मैंने
हेम
सेमी
खुर
चावल
धु
##ामिन
जंगली
कब
https
राजनेता
तारी
मज़
व्यापारी
उत्तराधिकारी
संदर्भित
पटकथा
उपास
मनुष्यों
तस्वीर
##भाविक
चौथी
एकीकृत
##्रेन
##दाबाद
रीति
महादेव
##ोश
अखिल
ऑप
आपस
गिरजाघर
यान
बलि
बोलने
अणु
घायल
##ोषित
64
खिल
छुट
रखती
बदलने
मुकद
टिप्पणी
मनोवैज्ञानिक
तारों
मुम्बई
वंशज
वां
##षा
1987
1967
मंगोल
आह
##ालेख
उपज
हानि
मैरी
##सेस
निहित
पहुंचने
इलाके
##बन
##सु
गणेश
हथियार
घनत्व
किसानों
हुईं
##स्र
##परेशन
##ies
परिवारों
संज्ञा
##सैण
वोल्ट
##भि
मार्ट
1972
जेन
इस्प
चलाया
गौरव
चलकर
जाएगी
संसदीय
पर्यटकों
फ्रे
##ैक्ट
अस्वी
##्लाइ
1962
आश्च
##वर्धन
घटक
सवाल
२९
सबूत
प्रणालियों
नाइट्र
##चिक
जोड़ने
##ड्र
छः
गोत्र
अमरीकी
##मोहन
दोनो
##द्रा
बाधा
##िमान
बाघ
1971
फार्म
ग्रीक
शर
लगने
कहने
पीठ
कल्प
घास
भर्ती
##नपुर
पहच
##दूत
कोलंब
इब्न
बढ़ते
दृढ़
पेशकश
कही
##30
जोध
भाँति
##उंट
##पुट
पार्श्व
##ानिया
जनपद
##धनों
होल
मानवीय
स्ट्रीट
##ंती
आसान
दुर्लभ
बल्लेबाज
वाराण
ताक
##ीदारी
##स्तर
180
पदों
##ुकला
अगली
प्रस्तावित
पहुँचा
बसे
स्वभाव
न्यूज़
नद
चुंब
अभिया
तरीका
##ॉक्स
करवा
डॉक्टर
नाक
पाये
खुश
संरक्षित
##िफोर्निया
साफ
नजदी
इस्पात
##बिया
##विल
सांख्य
मलयाल
निकलने
वाक्य
##जिक
##िनल
ताज
##ंडिया
##रेख
65
wh
विट
##ोथ
##बोर्ड
##चंद्र
##दू
##नाग
##िमी
एलबम
आश्चर्य
##10
अमी
रोजगार
हिमाचल
परामर्श
मैग
##मार्क
वार्ता
पंख
बर्फ
रवि
##किल
##ंडों
##िबंध
ट्रैक
२००८
बट
हज़
विनाश
संवेदन
55
ज्वाल
अनुसू
दवाओं
रिचर्ड
##र्पण
थॉम
##ंत्रित
कोच
समग्र
ग्वाल
भागीदारी
व्यावहारिक
Ind
##ादक
##ांसी
निश्चय
आलोचकों
नाव
यथा
रास्ता
हाव
पैसे
ढां
जैविक
बहती
शिशु
वाराणसी
उत्तम
##ेरे
मुल
पक्षियों
मलेशिया
शान्त
##शे
जाग
##ूण
##ॉग
कुत्त
बढ़ता
अड्डे
खतरा
##िशन
आखिरी
राजी
राष्ट्रों
ईस्वी
##ाराम
##जीवन
प्रसन्न
अनुरोध
गाँधी
##रक
##ैड
शैक्षिक
दाब
तत्प
न्यूनतम
##ोसी
विक्ट
वास्तुकला
##मेल
##पोर्ट
##पथ
##फ्र
गतिविधि
गिरावट
be
बारी
कार्ट
२०१३
नु
##नाल
असामान्य
जोधपुर
दिग
निस
बुक
कम्प्यूटर
टर्म
##सूरत
मेन
भाषण
शास्त्री
अकेले
सर्विस
##ोरेट
छोर
दाह
रेग
चिन्ह
##्ठा
नक
##ब्स
##क्षणिक
आरंभिक
उन्हीं
##ran
अपर
गुला
##न्नी
उपनाम
1982
छोड़ने
नस्ल
150
डिवीजन
चाँ
बिर
##ारायण
##ानक
विकिरण
माध्यमिक
गर्मी
##ग्व
एकता
2020
आजादी
##्यौ
एका
##दीप
en
##बारी
निष
कैलिफोर्निया
पढ़ने
जवा
नकारात्मक
शांत
स्वस्थ
गुर्
गुज़र
प्रदेशों
1977
निकलती
उभर
##द्भ
लक्ष्मण
अन्तर्राष्ट्रीय
गंध
##पूर
मेले
माया
##ुष्क
खड़ी
बिता
##ाज़ी
##इया
जाँच
साँ
साझा
अवय
42
गों
शह
##कात
दीप
टाइम
##चुर
अवै
आवश्यकताओं
आकर्षक
स्वाभाविक
सम्प्रदाय
एट
घात
श्ल
एक्शन
निपट
पार्व
वन्य
शंक
##बुल
ट्रै
गरम
सिक्क
##गरीय
सेवान
सुग
चित्रों
अंज
दिला
पेंट
अल्पसंख्यक
उज
हड्ड
कॉर्प
स्मिथ
गद्य
वध
होम
२००६
नौसेना
चम्पावत
99
##हे
एजेंसी
प्रावधान
कच्च
ब्लॉक
वर्गीकृत
तालाब
फु
##ाती
##खर
आधे
पड़ने
##समूह
हंडिया
##कथा
सेवानिव
घिरा
जमी
दाव
व्हा
##त्कार
प्रतिस्थ
राष्ट्रम
निकालने
##मुना
मलयालम
वकी
जोशी
नियुक्ति
लाइव
गौतम
गीता
दस्त
ऊँचा
हेड
##लन
आकृति
लम्बे
गैल
##रेली
मौका
एण्ड
##िटर
##िओ
##िवे
बनते
सैक
गुजरा
ओड
जोड़ी
##साई
संगीतकार
पच
##डब्ल्यू
चुम्ब
##ांकित
बजट
चित्त
##ain
जिनसे
स्कूलों
उग
मार्शल
गहरी
यमुना
##द्धा
खनिज
बिन
सब्
US
खतर
भारती
इंडोनेशिया
गठबंधन
छूट
##हराया
संसाधनों
52
इज़
थिय
द्रव्यमान
बुलाया
डच
##लीन
स्रोतों
उत्सर्जन
भूल
##ib
##रेखा
इनकार
##rom
विकार
तैय
सूचीबद्ध
400
ज्व
##्तन
मोटे
शीतकालीन
अधिग्रहण
२००७
मजदूर
##िसी
1973
मास्टर
ऋष
पोट
##नेल
ex
##ric
##वेट
##नांक
##वाड़ा
पूर्ति
##ोरेशन
भूगोल
समुदायों
##काने
##व्यों
##ताव
साहिब
जायेगा
तिथि
47
नंद
रत्न
व्ह
##आन
##क्रामक
ch
खबर
शही
##साधारण
खोला
##ड्स
कमरे
##ंचाई
##्रोम
##ादे
राणा
सदन
मथुरा
##स्को
लिखते
बातों
खि
##राई
मानचित्र
सीरिया
कार्यकर्ता
चीज
##शास्त्री
74
##नाई
उपदेश
बिन्दु
##ure
डाटा
1975
##र्ति
स्वाय
सहमति
सहमत
पृष्ठभूमि
##ैस
बेटा
विमानक्षेत्र
भोपाल
##ोसा
##लेख
बहुमत
जंक्शन
दाम
##फ्फ
1957
भरी
वॉल
##ep
मेम
ज्वालाम
स्पोर्ट
व्यवस्थित
##ary
प्राणियों
51
कोह
##ish
संतान
अनुमानित
जाम
##ोध्या
बनती
चरणों
रोब
थोड़ी
41
##ेलो
शुष्क
##फ़ा
दशकों
मक्का
लहर
##जार
कार्यान
अट
बादशाह
दर्शाया
साहब
गर्मियों
शिलालेख
##बु
##किट
सहारा
##ेडकर
उद्योगों
तंत्रिका
पठार
##्यून
जानने
वायुम
आनन्द
आखिर
यात्रियों
एयरलाइ
प्रतिष्ठा
होनी
##ाइटी
हिंदुस्त
1930
अयोध्या
लिट
विशेषताओं
श्रीकृष्ण
मधुम
ट्रस्ट
##मिति
1979
1956
दायित्व
##याम
मानद
##ोसॉ
##ार्थियों
दत्त
भंग
निगर
##ोपी
##ास्टिक
कीट
##केश
प्रबन्ध
करो
##िंग्स
जरूरी
तुम्ह
झारखंड
कालेज
##न्च
##जीवी
सौंद
##ंघन
नाइ
शती
##हत्या
##ew
##द्वार
चालक
ब्या
२०१२
उठाया
कथित
इमाम
सृष्टि
प्रायद्वीप
##कुमारी
##्तिक
##ोरम
हमने
स्नात
मुनि
मूलतः
1948
पायी
रिज
##रन
##खेत
वियत
कार्ल
##निष्ठ
स्का
नरेश
टैग
उज्ज
माय
##ज़े
नामकरण
##भावना
प्रबल
अंकित
##ect
परिकल
दुश्म
गोरख
आनुवंश
निगरानी
Th
प्रभु
२०१६
मेट्रो
नेपाली
कार्यान्व
44
इताल
##पेश
अंतर्
लॉस
पट्टी
कागज
शानदार
अचान
टक
##बरी
सोसाइटी
##थि
आवृत्ति
वास्तु
उम्मीदवार
कन
अस्थायी
शहीद
##ment
भूमध्य
नाटकों
1983
46
##ानियों
भूमिकाओं
साधना
अचानक
भाज
वैष्ण
असली
यमकेश्वर
##लो
रथ
##्ये
##दिष्ट
गोवा
खुला
##eg
##श्री
##ैप
पेय
निचले
ई०
पॉप
##चंद
कारकों
सर्वर
दृश
मर्
सलाहकार
लोहे
त्यो
नारी
गयीं
एडवर्ड
##कारा
व्यंग
##श्चात
मुकाबले
नोबेल
आराम
संशोधित
ग्वालियर
मार्क्स
##उन
प्रतिर
##all
##ायें
दुकान
##धिकरण
लोहा
ऑक्सीजन
अफ़्रीका
सिविल
प्रजा
उत्तेज
181
तलाश
गिट
##्यूल
तुर्क
ईरानी
39
बलों
निरी
२०००
फ्रैंक
रिकार्ड
##नीस
महर्षि
श्लोक
सोशल
सम्बन्धी
सीखने
समन्वय
कम्युन
##ंसिल
अनुसरण
संकल्प
नाल
बड़
सती
४०
##ाष्प
##चालित
सौंदर्य
नक्ष
परिक्र
जादू
खूबसूरत
टिकट
त्योहार
प्रतिदिन
बाढ़
1978
कथाओं
संकलन
नौकर
माँग
क्रांतिकारी
56
##रपुर
##सनीय
##यें
##थल
हैरी
##्बी
मूल्यों
Nam
क्षत्र
##र्मन
हार्ट
अनुक्रम
मतदान
आइस
संगठित
तैयारी
नास
फेर
##र्वे
२०१५
अन्न
आना
खतरे
##ुगु
##चन्द्र
##िसन
उन्हे
टाइप
एथली
##iz
असह
##ens
##ोत्सव
आरा
कब्र
##िनि
लगाए
सटीक
सुनी
इनसे
रखकर
श्रेणियों
##ध्याय
क्वाली
कूट
##हस
कहे
सत्या
रावण
##ts
##प्पा
परिक्रमा
##ृंग
अन्तिम
चौक
1976
##फोन
##ियंस
होली
##ल्लि
समाप्ति
##वृत्त
##ंत्रिक
पहाड़ियों
हरी
##ान्तर
1981
लुई
लॉर्ड
अल्ब
पटेल
जागर
##ादर
##केल
निरूप
जानवर
महाकाव्य
भरे
##शक्ति
अंगों
सिम
बनवाया
बातें
केन्द्रित
वाष्प
हसन
##डोर
जाट
नेत्र
स्पी
183
संपादित
फिलिप
इतालवी
माई
##ेली
##र्ध
एकड़
सिन्ध
आईटी
##ूर्व
##स्टिन
सल्फ
छंद
हिसाब
तुलसी
समेत
सापेक्ष
##राइ
वैध
स्वायत्त
चिन
लिय
##ry
सूचक
विधियों
विधा
टु
##िल्स
##प्ति
पार्वती
##वर्ग
##श्र
##भौ
##्वामी
ऑट
##our
##णुओं
मतभेद
बोलते
थॉमस
काठ
कुंड
विश्वविद्यालयों
उल्लंघन
समर्थक
ह्यू
क्रोध
असमर्थ
तत्त्व
बहस
पैन
चौहान
रिकॉर्डिंग
बोर
रंगों
सीमाओं
शिर
जीती
हॉकी
गेह
रोट
##बाजी
##स्कर
आपात
यांत्रिक
क्वालीफ
इकट
दांत
पाली
##राइल
मन्त्र
स्पर्श
नींव
एजेंट
43
54
गिनी
भूकंप
साउथ
वर्षीय
##र्तक
सोलहवीं
क्रे
##वाने
निज
##वात
##्कुल
फ्लोर
पंक्ति
फूलपुर
##वैधानिक
##प्रस
पहुंचे
प्रमाणित
Al
नाश
मॉड
निकटतम
गुजराती
अकाल
आस्ट्र
दुर
##ational
निबंध
अनुच्छेद
माउंट
स्पे
कू
संयोग
दुस
प्रिंस
खज
प्रोड
सैद्ध
रूढ़
##मोद
द्वि
##ath
1974
१८९
अद्भ
ह्र
कोष
बैल
##ोडियम
उत्साह
संपादन
मेजबानी
नोक
स्तरीय
लीला
##ोराइड
##तें
##्ध
##ॉर्ट
सिफार
निकला
बाबू
1965
##महाद
Om
खार
रघु
##किक
फाउंड
##शिंगटन
मध्यप्रदेश
गायन
##ोग्राफी
ऋग्व
संल
उतार
बाँध
##ैत
##्कोह
आवाज़
##olog
वकील
अंचल
सन्त
कानपुर
गुरू
अपमान
देगा
1969
नीतियों
दीन
शतक
##्रिक
रहें
नामांकन
चेहरे
कथन
##नियां
सोनी
परिणामों
मासिक
प्रशिक्षित
पत्रकारिता
व्युत्पन्न
##फे
##क्षकों
परिषद्
ड्यू
पिट
बस्ती
##पू
##ैली
##कोत्तर
सार्व
##ग्ध
मानने
विद्यार्थी
कहलाते
##ौला
##िएटर
सफलतापूर्वक
An
एंट
##ous
##मां
दीवारों
रचनात्मक
विनिम
सेल्स
##िबंधीय
अवैध
are
गोस
##फन
श्रीमती
##चेस्टर
तिब्बती
ऑपरेशन
चाय
##मंडल
सुप
एसिड
दलों
##िफ़
पात्रों
##हारे
माइक्रोसॉ
अद्भुत
भिक्ष
पत्रिकाओं
द्वीपों
संभाल
##age
आवासीय
ग्यार
बुरी
विकिपी
प्रभावों
1000
##ok
विहार
अवध
समाजवादी
विक्टोरिया
भाजपा
गिटार
कने
गज
हंस
##्थान
##ीराज
त्रुट
पृथ्व
विकिपीडिया
85
माला
पारिवार
लें
स्क्र
संतुलन
##ीसराय
##महाद्वीप
##ेषण
स्वीकृति
तेलुगु
मापन
##ुणा
पीने
गाड़ी
कन्नड़
वसा
##हल
##वाय
सिफारिश
गहरे
##्विन
लखीसराय
by
मैसूर
##ong
ट्रेड
गठित
खून
वेतन
उतना
सूचित
आपकी
टोक
एपिस
पारिवारिक
भूषण
सिंहासन
साहित्यकार
##20ई
साम्य
मैने
आत्महत्या
दुर्गा
वाम
##बीन
##फिक
##िपल
प्रबंधक
कहलाती
##मस
रेज
मोड़
मिसाइल
चट
##शायर
##राष्ट्र
महारानी
पीछा
जवाहर
सिंचाई
मेस
हेर
##िरि
लिव
##ob
सिंड
एडम
##ग़ल
अनुयाई
धारी
वेश
##शनी
##टेन
सीधा
२००१
पहुँचने
धाम
##गंगा
विघ
##ाजील
##ोदय
चैंपियनशिप
अन्व
##्बे
आमंत्रित
परियोजनाओं
रणनीति
गाया
##्नों
##मूल
##प्ल
राजकीय
मीर
##षेक
केल
उपर्
मुख्यत
बिल्कुल
Namah
वैद्य
प्रचलन
वर्ज
बहि
गोला
मांसपेश
फ़ारसी
स्नातकोत्तर
बास
##हरण
##च्य
महिलाएं
ईमान
तिरु
आयी
##तियां
परिश
प्ले
##वंशी
विभक्त
आँख
sp
##कू
मोदी
औसतन
निशान
ऋग्वेद
53
##रगढ
1920
##िप्र
ख़ुदा
फ्रांसिस
फेफ
देन
भले
##इंग
##22
अनेकों
जंगलों
फाउंडेशन
दादा
बिश
##रू
विषाणु
१८५
##धर्म
##थर
##end
पड़ोसी
इंस्टीट
योद्धा
घोड़े
शैक्षणिक
चतुर्थ
क्रेड
##uc
##ोजक
##ोधी
निर्माताओं
कंक
भिक
##ear
प्रतिवर्ष
##ere
##क्रमित
लाखों
स्टीव
गाना
##तान
##19
##ण्डा
सड़कों
ख्याति
##ोरे
जनक
##क्की
उक्त
##दन
बेरी
कविताओं
पृथक
मूत्र
फर्
शार
##ामंडल
##ंगों
लेखा
पूर्वोत्तर
प्रदूषण
प्लास्टिक
सफ़ेद
भाल
##ंबित
हराकर
इंदिरा
57
प्रक
टाटा
59
३१
##ब्दिक
पुरातत्व
##ेंशन
##ापित
विभागों
##लक
##ेज़
##ितु
लड़कियों
यूनियन
शाखाओं
राहुल
गहन
जोड़े
रात्रि
##ोनें
मार्टिन
दृश्यों
अले
कत
##ोमा
देशी
बिट
ब्राजील
सांरगढ
##80
##दरलैंड
लम्बाई
66
बोस
ज़मीन
बढ़ाया
जिम्मेदारी
एकत्रित
Sh
श्याम
समक्ष
बैक
मामला
आयात
मराठा
औषधि
अतीत
आचार
सैल
1968
प्रवि
पूँ
रचनाएँ
हाइड्रो
तपस्या
उपर्युक्त
##ानंद
बनायी
मेरठ
क्रेडिट
##गमन
जातियाँ
अपन
दिव्य
भावनाओं
इराक
49
निल
##ोसिस
लड़ने
उपरांत
ड्राइव
फेंक
##छा
##ज़ल
##ूरु
त्रिप
##हत
चाहती
हिन्दुस्त
सोना
डालने
मोर्
##नायक
संवैधानिक
सुप्र
प्रोत्साहन
##ंण
##दायक
##ग्रंथ
1964
गुरुत्व
२००५
उन्नति
तुम्हारे
आधा
आश्व
##यो
##ोल्ड
##ाकू
##वासियों
महावीर
##कटिबंधीय
विवेचन
अमीरात
व्
कां
##ंदगी
मानकों
मेक्स
मौर्य
विनियम
अल्मोडा
बारा
##ारस
सरकारों
##ory
इकाइयों
अंडे
संदेह
उपमहाद्वीप
तीव्रता
रद्द
बैंकों
वात
हू
##ियर्स
स्वदेश
शासित
पृथक्
हिर
धर्मों
शूटिंग
##ai
##ोत्त
##्पर्य
रूपांतरण
##ोधन
निकलता
अनाज
ग्रन्थों
हटाने
उर्
##वेन
जाएँ
टेक्स
१८८
63
सेनाओं
95
उड़ी
उग्र
न्यूर
पेज
##ंकिंग
भारतीयों
मनु
तटीय
कम्युनिस्ट
छप
शनि
अबू
1857
पूछा
वाट
##न्ज
असुर
क्रियाओं
##aya
अखबार
खाली
बुख
लैंड
##ॉर
संबोध
19वीं
काउंसिल
पृथ्वीराज
पोप
स्वागत
पुरी
नीदरलैंड
पिछली
अनुयायी
##ुए
प्रकरण
##ालों
रहेगा
##म्बे
जरूर
थिएटर
कारोबार
स्वप
लेखों
इस्ती
शिवाजी
नक्शा
तात्पर्य
गान
किरा
अपील
रहित
पक्षों
जगहों
भेजने
भ्रष्टा
arch
अस्वीकार
अंट
भोग
हड़
##कस
##ूर्ति
पूज
डू
डिक
उदयपुर
##हि
##मिल
देहर
इन्फ
##ब्रे
एक्ट
परे
##हाइड
##ागो
##ाईट
अद्वितीय
नती
फेड
##न्य
##मपुर
##र्सी
##ादि
##्डी
तकनीकों
अध्यक्षता
लौटने
कॉमेडी
मुलाकात
नाप
सोडियम
स्तरों
बुध
सैय
हितों
इनको
क्रू
पत्रों
##ass
नाटकीय
वेदों
छिद्र
टेक्न
चिल
रिट
सीबी
व्यय
पैदल
एनिम
पहलुओं
नग
भव
अनुष्ठ
जिब्र
##ord
लौह
पढ
बयान
##ादून
##सेल
मानवता
पिथौरा
सैकड़ों
##ोवर
प्रोज
मानता
##ेटी
राक्ष
##िट्
फैले
##पनिवेश
##ख़्त
भ्रष्टाचार
फंड
बर्मा
मनी
प्रां
हमारा
ढा
ताम
वुड
##per
##मंच
##नात
वेन
##ंभव
##म्मत
भिन्नता
अजय
सीरीज़
आर्म
अपवाद
##स्तु
विश्वयुद्ध
नागपुर
उद्देश्यों
72
केस
##्पद
फैशन
दोषी
आग्रह
पंद्र
पाठक
अवसरों
माइक्रोसॉफ्ट
##BC
विस
परिचित
वाहनों
ऑव
फूलों
गेंदबाज
देहरादून
with
औपनिवेश
##ंचित
पैट
##पीठ
२००४
असाधारण
दण्ड
गुड
बढ़ी
शब्दावली
पितृ
एपिसोड
तेर
बारिश
##ich
बदलकर
पुराणों
बाप
महम
##ुलर
1966
वचन
##भ्र
सकल
##ore
दलित
अदा
दमन
मीन
५००
##ge
##पुराण
##िनेट
1940
फ़्रांस
##ace
##फील्ड
प्रवाहित
शाब्दिक
स्फ
उठाने
##छित
प्राधिकरण
स्त्रियों
##ight
##किया
इन्होने
##umb
उपासना
६०
##ड़ाई
##ोटा
त्रिकोण
रुद्र
मातृभाषा
छत्र
##यनों
##मक
##ावि
फ़िल
भूट
##दारों
##ग्रा
##ust
मों
##ोषक
भाषाई
उन्नीस
प्रतिद्वंद्वी
अनुसूचित
जागरूक
##aw
##लांग
पीएच
रिसर्च
तारीख
कणों
गले
वक्र
##ुड़
##ुला
##ूनों
##चस्प
एक्सच
मोक्ष
साहस
आज्ञा
झर
२०१८
अभिलेख
निषे
संलग्न
पावर
सिड
##ोरस
##ोनि
##फान
##सेट
जीवाणु
##ेरी
##ोक्स
जिनमे
व्हाइट
खाँ
##ww
बिलकुल
सम्पन्न
अहमदाबाद
ओम
चन्द
##ft
##ंसक
कोरियाई
ब्रेक
टॉम
मल्ल
##ेला
निर्दिष्ट
पेट्रोल
निष्क्रिय
वाद्य
औरंग
##स्की
क्रॉस
बैठे
सृजन
www
खाता
पाउंड
फिल्में
समावेश
62
अल्फ
बनकर
##ोर्न
179
विटामिन
हांग
##तांत्रिक
विम
कार्तिक
सीजन
अलंकार
##ल्लॆ
##ीरिया
साक्ष्य
बल्लेबाजी
सशस्त्र
इंटेल
##ort
२०१७
तमाम
बौद्धिक
##व्यापी
58
77
##चाप
रंगमंच
##aj
चालू
इश
##ेशनों
सदैव
67
पवन
सान
##बुक
##र्डर
ऊतक
रव
शिया
##ठों
मुज
पारिस
सर्प
उपयोगकर्ताओं
इलाक़
बैंकिंग
अंटार्क
पान
##so
##ोरो
नगरों
खुदाई
स्पोर्ट्स
गिन
##िवल
चंद्रमा
यौगिकों
that
फर्म
##तू
निर्व
बाध्य
सदस्यता
ऊंची
आंकड़ों
चैंपियन
##हम
##२०
रहकर
ताइ
##पुरम
##दानिक
पंजीकृत
##ोनिक
##विस
प्रज
दिलचस्प
लगाकर
वितरित
कर्तव्य
टाउन
##रेन्द्र
अवरोध
##ign
IS
चत
##त्स
कलात्मक
शिकायत
स्पेस
सेकंड
टूर
पब्लिक
##वेली
पैरों
स्क्व
##ice
ख़ास
1963
प्रभुत्व
क्रान्तिक
झिल
##खाल
कहती
लोकतंत्र
##ॉर्डन
उड़ीसा
चंडी
##चरित
आईपी
रोज़
विनिमय
एनी
साज
जातक
रॉय
स्मरण
पहलू
पुर्तगाली
जेर
लिंक
##्ने
##५०
प्राइ
मेगा
बहुसंख्यक
61
विश्वसनीय
अंतराल
गणतंत्र
कबीर
दंत
कुरान
इमारतों
कष्ट
##प्ता
##कांग
##निर
##मन्त
अभयार
##वालों
गणितीय
भंडार
आवेदन
शिम
##न्टी
जावा
नैदानिक
##रब
दिखाने
बंगल
तलवार
खासकर
लूट
पकड़ने
##चिकित
भिकिया
अनाव
थ्र
##वंत
साझ
##ायिक
##ोलीय
टुकड़े
फिट
बला
रिंग
##ारू
##च्छिक
##न्तर
घातक
खतरनाक
88
##ानिस्तान
हल्के
जिब्राल
##अप
मेजर
84
चिर
बचे
##कत
##ff
##ांख्य
1961
परिस्थ
शाहज
रैंकिंग
##वैज्ञानिक
ब्याज
पारिस्थित
इच्छ
##ुज
##घा
##न्हा
सीर
फैली
धातुओं
चोटी
नक्षत्र
खली
षड
##hy
देखता
धूम्र
कठिनाई
##चिका
समतल
साथियों
##ट्रिक
मुकाबला
चुंबकीय
लाइफ
रजत
archive
क्री
##pl
तरफ़
आईएस
परिपथ
चोप
पिल
##ile
##्जा
##erm
पैरा
##िस्ट्री
177
जरिए
##ाब्वे
गौरी
इंदौर
एले
जन्मे
##तावनी
##क्य
##दिव
##हाव
आस्था
चौद
उपलब्धि
विधेय
ref
##ास्कर
परेशान
वियतनाम
68
छेद
नगरी
फस
##डेल
##ियारों
संक्रमित
##त्विक
चेतावनी
गर्भा
बेचने
ज्वालामुखी
औपनिवेशिक
ईंट
##कीन
सुस
अध्ययनों
२००३
विद्युत्
ईसवी
कामया
विलु
गांवों
##वर्त
मिलान
मुद्दे
Ar
ऊष्मा
खाल
गानों
समाय
##रीबी
1955
भ्रूण
आनुवंशिक
फुल
##लाइट
राजीव
जस
भेंट
पूर्वज
बढ़कर
सिरे
ताकत
बें
##शेष
##केन
सूत्रों
##ुदेव
जूनियर
क़ान
97
##वृत्ति
पड़ते
द्वीपसमूह
वैष्णव
जिब्राल्टर
भै
##ug
राजकुमारी
कारों
##िवादी
पहुँचे
व्यंग्य
##थेन
बनावट
##्नर
स्प्र
निकटता
लॉन्च
ललित
परिकल्पना
भिकियासैण
कोलंबिया
##लैण्ड
##ैक्स
करार
शिविर
आयाम
कौर
साद
प्राम
सुविधाएं
निरीक्षण
##ाते
संक्षेप
सतत
पुनर
सार्वभौ
शस्त्र
हमलों
बेहत
ऊँची
जीवाश्म
##थन
व्यंज
अन्यथा
योजनाओं
अभयारण्य
600
##ारियों
जानता
स्वयंसे
##िदास
ओलम्प
उपनिषदों
जनसांख्य
पहचाना
मय
##ach
##ूला
##ौरी
##्यात्मक
करनेवाले
कहकर
आपसी
चट्टान
सेल्सियस
78
एंग
भाप
##काव
मुंह
दुः
बच्चन
माधव
96
सऊ
##ेड़
व्यस्त
सर्दियों
स्ने
ग्रहों
फाय
##लियों
##ियोप
गुप्ता
टी20ई
डीएनए
1945
भाइयों
हैर
पत्थरों
क्षत्रिय
नाना
पठ
अधिकृत
बैक्ट
##ated
1949
ऊँचे
स्पेनिश
लाइट
##बली
##हिर
##ोस्ट
##वण
##ियाना
साउंड
उत्तराखंड
इतिहासकारों
तारामंडल
71
पायल
हर्
समापन
स्टील
ज़ि
जीवनी
प्रस्तुति
साधनों
##ास्पद
बाण
प्रसंग
भुजा
लगाना
सीम
क्रोम
सदियों
अटलांटिक
दाल
दुल
##ैंट
प्रचुर
उपयोगिता
समझी
उष्णकटिबंधीय
हाइड्रोकार्ब
एक्सचेंज
नवी
ग्राफ
आपका
##िज्म
जितनी
धूम्रपान
त्यौ
##ron
##जीरिया
पार्ट
लवण
पाय
शन
सराह
##िडा
एंड्र
प्रतिबंधित
खाद
फिन
##एव
उस्म
पहना
कैब
श्रीराम
यूके
सेनापति
दुख
रेंज
सकी
मार्गदर्शन
तालिका
कायमगंज
##ae
##शर
संभल
##सैंण
##िमेंट
##सेज
चलचित्र
प्रसिद्धि
ऑपरेट
76
##ेथ
##रेटर
कैद
बच्चा
सशक्त
थाईलैंड
आशी
रौ
##फिया
##िकारक
मरने
##स्टीन
प्रयोगों
1954
बृहस्पति
खगोलीय
81
घुस
हॉट
##बो
##णक
##ण्व
##ोंस
ग्रैंड
एड्स
मधु
डबल्यू
इंडी
सेंट्रल
थर
##गीत
##ढ़े
178
ब्राह्मणों
##oun
##विया
##ासित
निकले
करेगी
लेबल
देखना
उत्तराधिकार
दिखने
मिड
राहत
##ापी
उपहार
भाग्य
नगरपालिका
कोटि
सैमसंग
मुकदमा
इंस्टीट्यूट
एस्ट
चोरी
फ्रेम
रेगिस्तान
संजय
##ेल्स
त्यौहार
विक्रे
अभिक्रिया
रोशनी
बेल्ज
##ौड़
##ाजे
भील
73
ऑक्स
182
##ence
तुलनात्मक
सुनकर
डेमोक
##कक्ष
##दों
सर्जरी
तेज़
संस्करणों
आश्रय
##्ना
##ड़न
अपितु
WW
##नम
##ढी
मुफ्त
अनुमोद
लगाते
आदित्य
अहि
लुप्त
कृतियों
धोखा
बख
##ँह
जिसको
अंग्रेज़
चित्रकला
176
न्यायिक
प्रोटोक
घाव
##ुली
लाए
##ोबा
कूद
एकीकरण
ब्रॉड
रानीखेत
ग्यारह
ड्रम
करण
1946
सम्भव
सोसाय
तिहाई
अंब
##लै
##इंडी
केर
बिहारी
मदन
##मन्त्री
पहाड़ों
गेंदबाजी
मिया
लार
हर्ष
##ंवर
##म्य
##मंड
##दायी
आवेश
साधु
##िवेदी
मेक्सिको
लाई
##िजा
सिग
बनाम
१८७
थोड़े
##रौली
##har
##द्दा
Un
##द्रता
सैद्धांतिक
##उल
कोइल
##orm
विदेशों
विधेयक
धूप
शोषण
##प्रयाग
कॉन्
फलन
संस्कृतियों
क्रिस्टल
परिस्थिति
नर्म
##टका
सहन
##ेनिया
डॉक्ट
स्की
भेजे
पेटेंट
श्रद्धाल
प्रांतीय
छू
ढूं
##टिका
##िएट
अवर
लड़के
##श्वास
स्वीकृत
सोसायटी
##ीदा
##ूलन
कैन
1951
अंकों
दाख
गायत्री
वेस्टइंडी
मार्केट
प्रामाण
86
##ंकि
##गित
##NA
##्लाई
##मेट
##ाजन
##दाताओं
##टीवी
इस्लामिक
इंजीनिय
III
गोस्वामी
भि
रतन
केन
##ब्लू
प्रेमी
रेटिंग
इकट्ठा
आचरण
गद्दी
सिया
अपहरण
हीरो
कैम्प
परिमाण
परिवर्तनों
समाधि
हांगकांग
ट्यू
डांस
##मिन
##प्स
##राचार्य
ग्रस्त
निभाया
कितना
उर्फ
##ue
##केशन
##वेग
##र्नल
शिकागो
##ost
उर
नैन
फलों
प्रख्यात
वस्तुतः
स्वप्न
रग
सीधी
अंगू
स्वीडन
रसूल
१९९०
सिंड्रोम
##नामा
साप
१८६
खरीदने
प्रखंड
सामुद
##ोपण
पीले
बंदी
##ूषित
विवादास्पद
कट्ट
हंग
##ौन
साई
बीकाने
##काशी
मोती
गाथा
हथियारों
सुनाई
अन्ना
चूँ
कीर्ति
कांस
उपे
पारस्प
संकेतों
सरलता
कुरु
भ्रमण
##शिष्ट
##ver
सुदूर
##द्वारा
शिवलिंग
कार्टून
छुप
रियल
लिन
शू
##ांच
##सेफ
नौका
कंस
खल
जेट
टॉप
डीडी
मॉन
माइक्रो
आंग
##ुद्र
काँ
##माव
##म्परिक
1958
अपराधी
comp
डार
फायर
सिस
मुग़ल
##आईटी
सऊदी
pl
पिन
##िअ
##बै
##ापति
##िराम
तेलुग
250
सेनानी
फते
कोटा
##रेज
आवरण
जरिये
गलती
राष्ट्रमंडल
92
was
रूम
राइट
पिंड
##yst
##श्यप
टेलीविज़न
गोरखपुर
घड़ी
डीवी
##lect
स्मार्ट
तथ्यों
मंजूरी
नॉर्थ
वसंत
कुश्ती
पेन
##AT
##ढा
##ान्स
कांच
अक्षरों
चिंतन
ढांचे
संबोधित
तेलुगू
ढाल
##टित
##ीयर
दीक्षा
फि
भांति
##पित
##्स्य
##िपि
फ़िर
कर्नल
बेहतरीन
चूँकि
धरो
##act
काय
##ics
120
कहानियाँ
सिक्किम
थली
हज़र
##फॉर्म
##स्ते
##कलन
पसंदीदा
##ोहित
महाराणा
वनों
##िकरण
इसपर
##ीनो
पारम्परिक
धीमी
विलियम्स
हिंदुस्तानी
महमूद
बेल्जियम
En
डु
फा
३००
साय
अनुदान
अभिय
अतिथि
दर्शनीय
सम्पर्क
ग्लोबल
##rit
##नागरी
खुली
हार्म
अक्षय
पारस्परिक
##ाज़ा
२००२
चुम्बकीय
वाज
##शाक
व्यायाम
##ond
मीना
उत्पादित
व्यापारियों
##ult
खारिज
##०२
डेब
1959
मालवा
सिकंदर
फॉर्म
उपाध्यक्ष
सामुदायिक
असी
३५
प्रशस्त
उत्पादक
पुरस्कारों
भेदभाव
प्रजातियां
विवेक
बीकानेर
87
खै
यॉर्क
शिला
सुभाष
##फ़्त
समझते
कितनी
टाइट
##न्ने
चौड़ाई
गुलाम
चट्टानों
एश
नज़
##है
##गुरु
##ेश्व
##प्रकाश
दीक्षित
पैसा
स्तम्भ
पर्वतमाला
साइंस
मधुर
जहाजों
कोयला
निवार
##िवाद
उत्तरार्ध
प्रवृत्त
हज़रत
मोम
##तरी
मेवाड़
शिक्षित
सुनने
प्रतियोगिताओं
धरोहर
##०३
राजदूत
नामांकित
व्यतीत
##ide
ओलम्पिक
मैड
पुनराव
चाचा
शैलियों
ढाका
Com
इर्द
##ानन्द
##विच
अवस्थित
##ंथी
एंटीब
बैटरी
##तकों
##ताई
कीं
निधि
##्रमण
युगल
प्रतिकूल
प्रोजेक्ट
साझेदारी
##लोड
##ेता
##sh
प्रास
रहमान
युग्म
उपन्यासों
आलोचक
भण्ड
##न्नाथ
वाणी
श्वसन
प्रयोजन
भूटान
नान
##ाजनक
क्षण
चित्रकार
##स्थापित
कंध
चक्कर
शाक
३२
अनुकरण
सीई
स्टेशनों
बेस्ट
आंकड़े
##धियों
##्ण
पाती
पुराता
विकासशील
डेवल
खुशी
98
बांस
प्रतिबद्ध
स्टैंड
##यंकर
##पुत्र
कच
बंट
कांट
दोहरा
अवकाश
तैनात
सम्बद्ध
मलिक
रोशन
घंटा
प्राथमिकता
रुपए
त्रिभु
विलुप्त
ऐंड
पद्य
##बारा
##लाश
गुड़
बीसवीं
तुम्हें
भट
सना
##ृश्य
##िमंडल
आयन
अनिश्चित
हुक
##ोटिक
कृपा
हॉलीवुड
प्रशंसकों
हानिकारक
गुलाब
साप्ताह
##लाया
##ापूर्व
कृष
प्रारम्भिक
टर्मिनल
थलीसैंण
त्वर
##शु
##पोल
##40
##ऑक्साइड
##करार
काटने
श्रद्धा
ठंडा
कोने
बनारस
चाँद
वेस्टइंडीज
लेंस
##ीरी
##चक्र
##ड़क
कुण्ड
श्रो
दर्शक
थियेटर
कार्यान्वयन
चंडीगढ़
घेर
चित
फेस
ब्यूर
##बत
अररिया
सोचा
मालूम
पर्वतीय
स्वतन्त्रता
पंद्रह
##ंगत
##डीए
परिचालन
दिमा
रूचि
चंप
भैर
भयंकर
##बूत
महोत्सव
##ूल्य
देवनागरी
मल्टी
जोड़ता
गरीबी
वकाल
##ामऊ
धनुष
बर्लिन
गिर्द
रेन
##हाद
##मुखी
वृद्ध
सल्तन
सैयद
प्रोटोकॉल
शव
##les
##भाई
सेव
नीले
पेड़ों
उद्धृत
मिर
##बिन
##न्ज़
##वाड़ी
हालत
लोकतांत्रिक
##ism
स्वरुप
सौंपा
फसलों
91
नित्य
मले
##रेशन
##हद
मुक्के
##न्नत
स्पेक्ट
संतु
कथानक
sh
धनी
बेंज
##वांश
##श्त
बताती
प्रतिपादन
गोम
वार्ड
सवार
##स्वी
बैर
निकोल
रंगीन
1953
पढ़ा
सर्वोत्तम
साप्ताहिक
83
फील्ड
##यंत्र
##शेख
##थाम
##AS
##ID
एकाद
##नीकरण
सीटों
कमीशन
क्रान्ति
एसी
##ोइ
##िवर्तन
##one
अतएव
##ंघम
वकालत
छठी
##ie
युनाइटेड
एंजिल्स
दुश्मन
69
संकाय
मुँह
##त्ती
पूर्वा
##क्ज
इंग्लैण्ड
नमूने
##ृंगार
फाल
बहने
##ंगलोर
आतंकवादी
प्रक्षेपण
ड्राम
हफ्त
##रेस
##डीज
##र्दन
गणितज्ञ
सुप्रसिद्ध
तीर
पूल
##ोआ
मुखर्जी
पुनर्ज
यूनिट
दाद
मोल
शोर
##न्ता
##रात्रि
ब्राउन
जगन्नाथ
संरक्षक
पोशाक
रविवार
ब्यूरो
एंटर
##ौसी
##ष्ठा
परंपराओं
##ज्जित
दार
##se
बॉय
##ame
निराश
अंद
ठहराया
दर्
प्रवास
संज्ञान
अनि
##ोजनों
ज़ी
क्लोराइड
मध्या
गंगोली
पैटर्न
मकान
सेवानिवृत्त
नोकिया
ऑर
##गिरि
##्यूप
प्रभाग
पुरूष
कंपनियां
हिंदुओं
दुसरे
आक्रामक
देंगे
##घरों
##ंजक
##ase
निभाने
दुबई
बँ
रनों
1942
इंग्लिश
##ष्कृत
बैठा
आर्कटिक
93
क्ला
पड
समकक्ष
##ुराम
वैन
जलप्र
रिश्ते
ऑपरेटिंग
पाग
##चिव
एकदिव
##क्ष्य
तोप
पैलेस
बुंद
लम्बा
कितने
बस्त
##िआ
##ीर्ण
##्पण
देवर
स्टोन
अवलोक
##क्टेयर
##ite
अफ़ग़
नैतिकता
अत्याचार
रिज़
##तो
##क्तियों
आतंकवाद
अनुष्ठान
एकदिवसीय
जर्नल
निया
##ासुर
##हाउस
स्वचालित
##्यूम
##tern
कांस्य
सल्तनत
Pro
लंका
##्रिज
पैग
विलयन
बॉम्बे
##आईवी
सिंधु
##माल
पूर्ववर्ती
यूनिक
विस्तारित
##्लेक्स
तूफान
ऑस्टिन
फोर
सेक्स
##ाग्र
निर्द
दोप
सिन्हा
तेलंग
फैसले
अवसाद
डै
प्रतिभाग
पाउ
फ़्ल
सूफी
युद्धों
गायिका
प्रतिस्थापित
भालू
##ासियों
समर
प्रतिबि
आजाद
मरम्मत
आदान
##उद्दीन
##दाद
##शंकर
राउंड
कार्यवाही
परिवेश
##जेब
गिरने
ध्रुवीय
संवेदनशील
नली
मिमी
##ंगनी
बादल
प्रतिरूप
जनजात
अंतः
झिल्ली
धूल
लन्दन
##नास
बहर
युक्ति
आपदा
जमींद
##ology
800
कद
प्रमे
##नेर
##ित्री
ख़त्म
हज़ार
अंड
डाली
दूत
शपथ
##ाबाद
##und
मुग
160
सिलस
परिपक्व
##प्रसाद
##सिया
##हीत
कमान
जगत्
स्वदेशी
गंगोलीहाट
मोड
##धना
##ांडा
स्टोर
एजेंस
वायुमंडल
इस्तीफा
खैर
जेस
तिव
नवा
बर्न
##वर्ण
सेतु
##ापनों
पुर्ण
बहुल
विकृत
ब्रह्मांड
कुत्ते
उजागर
पिथौरागढ
अज़
##लत
##नेड
##वाट
दक्षता
आपरा
संख्याओं
चीजों
सफाई
आयरिश
कस्बा
##िंटन
##्टे
गैले
##जो
##ne
फ्लैश
विद्यालयों
कश्मीरी
गे
नित
कहल
बेगम
भाषी
प्रगतिशील
##खल
##निव
##नेस्को
##ादित्य
अनू
##स्ट्री
##ोपा
दोस्तों
जनसांख्यिकी
कैबिनेट
खनन
चेक
डॉन
##डू
##pt
##राग
प्रदर्शनी
1936
परीक्षणों
नाइट्रोजन
शान्ति
कच्चे
आघात
लगाई
##िश्र
##गुण
लाइब्रे
अनुप्रयोगों
चोर
##दानी
##थित
राजशाही
आपराधिक
इम्प
डिफ
##बंदी
##घन
साफ़
पीप
असंत
##ater
सतपु
विद्यार्थियों
##बेथ
ऊंचा
घटित
अजमेर
स्थिरता
चिह्नित
हड्डी
अपनाने
सिडनी
##ET
##ड़ियाँ
##ावट
##डीह
देखरेख
अकार्ब
##II
प्रयाग
सिखा
दुर्भ
नियत
वाशिंगटन
इलेक्ट्रिक
##प्पल
ईसापूर्व
घूमने
विफलता
खपत
दया
##वाहा
लेफ्ट
##विंग
स्तूप
इंगित
निर्णायक
##विद्या
मेहता
##ढ़ा
पर्याय
पर्वतों
वास्तविकता
निजाम
कंब
ज्ये
धान
प्या
रत्
वादा
हवेली
निः
उपजा
श्रमिकों
विशेषज्ञों
कारखाने
न्यूज़ील
अकार्बनिक
from
गोक
झग
दायर
फास
##सीड
रामपुर
भरने
आगामी
अस्थिर
तिलक
अजी
खन्ना
मूर
##धिर
सकने
दिखता
कानूनों
पूर्णिमा
द्रो
पहलवान
गुर्जर
चोपड़ा
आक्सी
३६
##िकाल
##त्तियों
नामी
उतनी
अव्य
स्थापत्य
बढ़े
भावी
समर्थित
बोला
एचआईवी
आत्मक
टो
सीन
##डिंग
##्टर्स
भीतरी
मुखिया
पीपल
भूमिगत
ओडिशा
निषेध
at
इंक
##िनेंट
##देवी
नाते
शाका
बजाए
##सिस
##सागर
##वृ
##िकियों
##ूर्त
##स्तान
कैट
एलिज़
बिलारी
खोजने
अवयव
##cl
##लाप
चौब
रोकथाम
प्रोग्रामिंग
तलाक
तेलंगाना
94
##11
दोबारा
##क्सन
असल
##मांसा
दोपहर
##कै
##ौदा
बीबीसी
जुट
विराज
सुरंग
बैक्टीरिया
82
##डि
समित
हक
८०
##नामी
अरुण
कपास
सांता
भविष्यवाणी
हल्द्व
##कूट
##शित
मरु
नजदीक
##ेश्वरी
ओमान
दबा
बान
##सराय
##io
##ूद्ध
उन्होनें
क्षय
##फ़्ट
पीट
आरक्षित
अनुयाय
उर्जा
नूर
पोषक
##yn
##मिया
भारतवर्ष
विश्वनाथ
सपना
सिक्के
संप्रभु
छिबर
बताने
कैमरा
आयुक्त
तन्त्र
बुरा
##ृश
##िल्प
##ावती
##र्तित
पंथ
आँखों
##ack
चांदी
ऑटोम
तिवारी
इक्व
जोग
वल
##्ठ
##र्वाद
प्रवासी
##ांडर
##ज़िक
##र्गन
##ेम्प
असंभव
अब्ब
नींद
पिघ
जगदी
##चयिता
चन्द्रमा
इलेक्ट्रॉनिक्स
पूरक
उर्वर
मक्
##ोच
##ॉइड
क्षम
##ंत्रिकी
##ुलित
कहाँ
मध्यकालीन
छिबरामऊ
Am
##ram
##जारी
##ँक
कोमल
कमांड
पूजन
सूरी
मूलभूत
##व्यव
तैर
##संचार
भक्तों
हल्द्वानी
79
एरिक
वाई
##ुना
##कृतियों
पतली
झूठ
लियोन
अंटार्कटिका
यी
४५
अलगाव
तान
##रख
##देन
##ोलनों
##कोण
रक्तचाप
दुबारा
नदियाँ
पूँजी
स्पेक्ट्रम
हदी
##कारियों
सील
बनना
स्कैन
##ेक्शन
एस्प
मत्स्य
अस्पष्ट
किंग्स
उज्जैन
##ee
##यात्रा
विन्यास
संकु
##कीर्ण
खुलासा
आर्ट्स
उन्नीसवीं
##शेखर
ड्रामा
col
इंत
रचयिता
सैंड
मामूली
तेज़ी
बरकरार
समुचित
आशय
मशीनों
औरंगजेब
पुरातात्विक
01
घूर्ण
यकृत
विले
कुवै
उमर
##रायल
स्राव
अध्यापन
विज्ञापनों
फोटो
ढल
##गामी
निर्वाह
सुन्नी
मेयर
श्रीनगर
रेस्तर
एलन
खरीदा
खगड़िया
टेक्नोलॉजी
जवान
नन्द
लिस्ट
##्रह
##ेटेड
संगत
बरस
मूर्तियों
ठहर
पला
परश
पीड़ा
पुत्रों
फीचर
घटकों
##ave
अनुशासन
जागरूकता
नासा
##कर्म
विश्राम
##ज़ाम
सामान्यत
बसने
बहुधा
पोख
##दृश्य
मेघालय
सद्
##दर्स
##काया
ब्रिज
अतरौली
विषम
भरपूर
जाएंगे
नारद
इलेक्ट्रॉन
१९८०
पुनर्निर्माण
नजदीकी
प्रविष्ट
दयाल
##य्य
अनौ
##ाइप
##ब्दियों
अरुणा
रैंक
सम्भ
पचास
तन
लायक
हिरण
##ुका
किम
##ाग्य
पशुप
रावल
कॉमिक्स
जितने
मेजबान
शिमला
रेस्तरां
ऑटो
बॉल
##शिला
एकदम
##िम्म
समाजशास्त्र
हेक्टेयर
##िनीत
द्रवि
1939
##ther
सोलह
गिनती
तद
शाल
अनो
कॉम्प
बिलबोर्ड
साइड
बोले
विनोद
कटौती
कस्बे
##ॉयड
डीवीडी
CH
आकलन
ठे
नरेन्द्र
##ण्डी
विरूद्ध
##यंती
पर्यवे
उपायों
दाँ
शॉट
##ss
##्रोप
कारी
सर्किट
बालों
संभाला
कालीन
pr
घिर
##फेस
##ातु
##मान्य
अभिनीत
सूजन
वृक्षों
रच
७०
बाएं
मिठ
रोका
विमानों
युवाओं
चढ़ाई
ال
इधर
ज्वर
नर्स
रिल
##बाज
##ex
किशन
उनपर
सामंत
संतोष
टैंक
पायलट
थराली
##र्फ़
कोर्स
##नीत
##स्थापन
सामग्र
ब्रदर्स
सूखे
गीतकार
भावनात्मक
भोजपुरी
जॉर्डन
डूब
पण्ड
##तना
##18
जोन्स
द्विवेदी
स्विच
कमांडर
ब्राउ
भाष्य
एथलीटों
डेक
कास
मनाने
बांटा
जलप्रपात
नाद
स्या
##मै
##sp
निंदा
##ातों
पाश्चात
प्रधानमन्त्री
वाहक
दरवाजे
##भ्रंश
लाइब्रेरी
जगदीश
अंडा
डैन
प्रसं
##्चर्स
##ढ़ियों
##ुल्य
बैंगलोर
##ंजर
175
मोटी
गायब
संरचनाओं
व्याख्यान
क्रिसमस
फतेह
आवं
##ाभ
##पो
महेश
##ेटिक
##म्बल
संकलित
गर्भाव
सम्भावना
दुःख
अँग
कछ
भगत
मलय
##ौकिक
पेशवा
उपभोग
दुर्भाग्य
##३०
##स्थानी
##च्चय
##ance
##टाखाल
आसन
क्यूबा
गर्भाशय
चौबटाखाल
##शेर
##राइट
हीरा
##ज़िला
पौधा
आखिरकार
कश्यप
##टिंग
राघ
लिखना
##iss
गोल्डन
शर्तों
एयरलाइंस
रूढ़िवादी
बर्तन
योनि
##ग्ल
##िसा
170
वरुण
सभ्य
विंडोज
शंकराचार्य
##ystem
un
गड
फ्रेड
सख्त
##तृ
परमा
जागीर
##रेपी
स्टेन
कालिदास
पदार्पण
महासचिव
आंखों
खां
वक्ता
##मोर
##ालिया
विचल
##केज
1900
##एफए
श्रमिक
विघटन
आत्मकथा
ट्यूब
केबल
##ब्ध
प्राचीनतम
आदर
पुण्य
झारखण्ड
बिस्म
आशीर्वाद
अठार
नीर
संवेद
##ert
नाडु
इंकार
घंटों
प्रांतों
डेनमार्क
res
हाँ
फ़ाइल
माहौल
अनुपस्थिति
अभियांत्रिकी
ac
ind
वंचित
##डान
भागवत
पीला
ज्यामिति
ढूंढ
पाश्चात्य
ठिक
९०
##ium
कोली
अर्द्ध
दस्तावेज
गोविन्द
रेजिमेंट
एलिज़ाब
me
कूप
तेंद
रूट
##वियों
प्रहार
उत्पर
##ाबेस
डेमोक्रे
भली
##ड़की
मेहन
##िगो
समानांतर
##संहार
सम्बंध
चिड़िया
१८१
ब्रह्माण्ड
मान्यताओं
फ्लोरिडा
गर्भावस्था
##्वान
##ालन
अपेक्षित
शिष
बीमारियों
गार्डन
डोमेन
उधर
प्रभा
प्रकाशक
रायगढ
पर्यावरणीय
शुरूआती
नवीनतम
मणिपुर
हाइड्रोकार्बन
टाई
##र्धा
राष्ट्रवादी
पूर्णतः
गोपनीय
पहने
##ल्ले
पड़ोस
पूर्णतया
मदर
आर्थर
वीरता
कब्जे
केशव
वृत
##ेक्स
##CA
प्रस्थान
##टीसी
चौख
रॉकेट
##ाइल्ड
टैक्स
अग्रवाल
राजनयिक
परशुराम
CO
दर्पण
##बान
##बाग
##्रू
##ांक्षा
##ुरत
##जन्य
सिद्धार्थ
##ition
बिल्ड
बाजारों
वाटर
नाभिक
धमकी
89
अण्ड
चाप
प्रसि
राजेन्द्र
सुदृ
##्यूशन
##erv
मार्गों
बचत
मॉर
##ations
भूतपूर्व
गोविंद
बेरीनाग
इब्र
उधार
बगल
३४
उसपर
ज़ोर
ऑस्ट्रिया
1937
१९९८
हस्तांत
विद्वान्
एन्
फौज
##जनों
##han
##राट
राजस्थानी
अमिता
दूरसंचार
##न्सन
##ोदर
खुदरा
वस्तुएँ
बंधन
अन्वेषण
दिमाग
##वारा
##टेल
कुमारी
सरोवर
रेत
मध्ययुग
नीला
नरसिंह
मंत्रियों
परम्परागत
रिवाज
निष्पादन
शरद
पाम
पोत
रब
रवी
वल्ल
##भक्त
##यां
अनुभूति
##ंतुओं
स्पिन
उद्गम
##ास्केट
हिन्दुस्तान
ज्येष्ठ
E0
लाप
विंग
आधी
1931
सराहना
एलिज़ाबेथ
गाव
झलक
मॉल
##क्षीय
1919
नाभिकीय
प्रतिरक्षा
##भद्र
कोप
हिंसक
उत्प्रे
श्रंखला
विल्सन
लक्ष्यों
परमेश्वर
हरिद्वार
विंडोज़
बलिदान
07
he
##pp
केदार
##स्के
ऊंचे
पॉली
प्रिंट
##फार्म
महामारी
कॉर्पोरेट
रिजर्व
प्रमेय
##ाचार्य
फ़ुट
१८४
राक्षस
चौदह
बास्केट
लची
##याँ
कार्न
मानवा
राठ
कैलाश
क़ुर
रेड्डी
स्वाधीन
वांछित
मुजफ्फ
नर्मदा
Con
घेरे
नसी
##ूपी
असमान
वनस्प
बिजनेस
१९४७
सुप्रीम
मलेरिया
चोल
बंबई
##फो
##ॅन
##र्ता
##ाज्ञ
विकलांग
पीस
यूक
महानगर
##महल
सीटें
समृद्धि
इण्डिया
##हसास
बरेली
भती
##कवि
##गिरी
##ांचल
##ाइज़
अनुचित
कपड़ों
सारणी
05
आर्मी
उष्मा
गर्दन
पग
##मास
##बीले
श्राव
विजयी
यूनान
##्कोहल
टि
टिम
तां
फोर्ड
जोसेफ
##बीए
कपिल
आँक
चांद
जवाहरलाल
बलात्कार
क़ानून
पागल
अनौपचारिक
द्रविड़
DV
डाई
##चों
समू
##नीति
##सीए
##ंत्रण
बिख
बेचा
हिन्दुओं
##icro
प्रवर्तन
##एमएस
चर्चित
म्यूजिक
भंडारण
पिक्चर्स
गुरुत्वाक
हार्मोन
संज्ञानात्मक
पुर्णिया
अन्या
##डों
##हो
##मानी
##25
राजभाषा
##नियाँ
##ाइटिस
1941
1932
नेटवर्
श्वास
स्पेनी
##िकाएँ
##ुकुल
प्रश्नों
समझना
फारस
गर्भवती
मिथिला
इन्द
एटी
छठे
##mp
##मूर्ति
ब्रायन
भूरे
##फीति
चौड़ी
गतिशील
शताब्दियों
हल्का
अमृतसर
कामयाब
अणुओं
ओब
##्कर
प्राग
ग्रीस
डेल्टा
छोड़ा
ढ़
बगी
##ंसी
रूपरेखा
देरी
टेबल
जोड़कर
शोधकर्ताओं
रिश्ता
आजीवन
उदा
नास्त
शत
##्कन
सीडी
मैदानों
अकेला
प्रामाणिक
एहसास
जज
राज्यसभा
भूख
पुनर्ग
इंडीज
घने
##AN
कोस्ट
मन्त
योगी
पत्ते
पोलैंड
घुड़
ऊतकों
छन्द
ल्यू
उत्तीर्ण
आयतन
##जरत
अभिव्यक्त
ड्राइवर
अनुयायियों
टोर
दाग
##जिकल
भूभाग
जिंदगी
1924
कराची
पादप
कारावास
कतर
सवाई
सूरत
##रसन
##हीर
ग्राउंड
##क्टिव
##यनगर
परिष्कृत
१९९९
संश्लेषण
##टेनमेंट
##बंद
##दत्त
प्राइम
लेजर
क्षमताओं
po
ऑप्ट
झेल
बरो
##डाई
जिसपर
फिल्मांकन
##वाहक
कपड़ा
आदम
समर्थकों
रायपुर
पाठकों
अध्यापक
मांसपेशियों
पल्ल
कोले
अनिल
जिनको
1928
इमेज
मियामी
##रु
##यता
##शक
##पाद
##ॅल
यहूद
##ेलखंड
##ेटिव
सबके
अभिन्न
##निहित
पांडे
##जुए
नायिका
ओस
बन्ध
##बेल
समलै
क्षै
##र्टन
नागर
सौन्द
पेपर
विधवा
मंजिल
इंसान
ab
धा
पीत
वक़
##ेक्टर
##ाँसी
##ागरण
कुशलता
नमूना
क्वालीफायर
इव
गेम्स
##ंज़
##ध्द
##ual
##िपत्य
जनन
बताई
##ट्टा
आलू
##ome
टेलीफोन
छुट्टी
क्लाइ
स्पर्धा
डीसी
##ाइडर
बदलते
पुर्तगाल
बुखार
कुवैत
गिना
रिफ
##ya
प्रकारों
श्रीम
फ्रै
पंचम
किताबें
हार्डी
##ट्ठ
निरूपण
परमार
20वीं
पुष्ट
आधारभूत
क्लार्क
रिकॉर्ड्स
ग्लास
ठाकुरद्वारा
सच्चाई
सुनील
मुगलों
घोट
##बस
##काम
स्विट्
भागने
रखें
न्यूटन
प्रतिपादित
700
ग्व
##्रिया
उत्तरदायी
##ata
फ़िल्में
रामनगर
पदो
##वाहन
मैनचेस्टर
मधुमेह
सूचकांक
प्य
सिन
##धक
##रेस्ट
गुट
दीवान
##led
बनीं
लाभदायक
समस्याएं
चक्रवर्ती
फेस्ट
आदिवासियों
एम्प
लय
सराय
##ाड
##शान
##ांज
##ोपर
सदृश
##गणित
##स्वामी
चमत्कार
##संगत
धड़
रिम
##टने
##आउट
करीबी
क्षतिग्रस्त
तेरह
बहरहाल
बाजी
लंग
सवारी
##रियों
##उड
##ुअल
काफ
सुविध
प्रमुखतः
अरवि
CD
ad
चाली
फिली
भूप
मरण
##ाधिकार
##सिल
राजेश
कुंजी
लेक
राश
##वेज
उत्पी
बाबर
संरचनात्मक
१९६०
##रखाव
##हू
##दो
प्रात
कांडा
कोक
हुयी
##र्मित
पीसी
तराई
भित्त
##ail
##दीना
भागी
रखरखाव
विधाय
विद्रोही
India
##तिया
##uk
इसमे
सिंगल
महाप्र
एयरपोर्ट
बुरे
बाइबिल
पंजीकरण
सुसज्जित
अवलोकन
उड़ा
घोर
दह
मकर
##ld
##दै
कराई
##कारक
पुजारी
रेलमार्ग
बैठने
दिशाओं
अनुभवों
सिद्धान्तों
घुट
पेल
##मणि
##वर्तन
दीपक
प्रायोजित
मिर्च
क्रियान्व
वायुसेना
जिम्ब
##यानक
क्रान्तिकारी
डेवलप
बाली
कमला
कैमर
##amp
रोमान
जयसिंह
१९९१
पत्तियों
सावधानी
चूह
नृ
##धाम
##वली
##OS
करन
कराता
द्विप
##स्थता
पूर्वजों
उत्थान
ब्राज़
##ork
##ार्द्ध
समीक्षकों
वरन्
धरम
विमर्श
आम्ब
##भक्ति
##्रित
##ाहित
##ंटो
शैव
सुलभ
क्लासिक
Mar
ऐड
##ire
पैकेज
यूनेस्को
##चालक
शनिवार
अफ़ग़ानिस्तान
तम्ब
##uct
अपशिष्ट
अनुभ
क्षमा
चुप
संवत्
##िज़न
सहयोगियों
फिलिस्त
खोलने
पण्डित
Sc
डिस्ट
ह्व
विनिर्माण
##तिज
लेबर
सिर्फ़
स्टे
परिदृश्य
विषा
यूट
सम्पत्ति
तोड़ने
अमिताभ
##नेश्वर
होस्ट
##ियन्त्र
साइकिल
टाइगर
प्रयोक्ता
दावे
पीपुल
cl
सरा
##िकेशन
##ोग्ल
अल्ट
क्रो
बॉन्ड
पहनने
वोल्टेज
उपजाऊ
ई0
ऑक्साइड
रुख
##हता
##शंस
##ोलो
सूट
फ्रंट
सोमवार
रेशम
National
नर्त
म्या
३३
##ाकर
##साल
##फेयर
मेक
##पूर्वी
स्कूली
ट्रिपल
नवजात
इरादा
दाहिने
स्नेह
##िन्
##स्मिक
विचित्र
संचरण
अनन्त
बीटा
पारसी
कालांतर
उद्धरण
एजेंसियों
08
धर्मा
##ुनी
##60
##12
अनियम
##ंख्य
चौड़ा
वर्णमाला
लैंग
मौलाना
उपभोक्ताओं
वयस्कों
सतपुली
जयंती
##ym
राजू
ट्राइ
##एससी
1935
केन्द्रों
गैसों
डायरे
त्रिपुरा
04
##िष
परास्त
##क्षात्मक
स्वतः
##ann
उदास
बंदूक
प्रोफ़
फायदा
कॅ
कूल
चेर
रक्षक
शिरा
##gl
संदि
संपी
##ेलर
##ोरियल
##प्रद
वैसा
दरभ
कहानियां
सनातन
घोल
भास्कर
##बेक
##गना
##AM
अपभ्रंश
##कार्ड
जीवनकाल
##ानुभूति
खंडों
मरीज
जिम्बाब्वे
विषाक्त
गवाह
##योग्य
इनपुट
सहकारी
खेली
निकलते
रेसिंग
लेफ्टिनेंट
##दय
मैदानी
पाण
दूरदर्शन
प्रथाओं
it
इथ
भन
भयानक
हमी
##ओसी
सेठ
##ायु
विक्रय
##माना
##र्जित
लौटे
int
प्रतापगढ़
गेहूँ
##िप्राय
यहूदियों
##पंच
प्रदाता
कराना
दुक
चलन
विद्यु
1944
सुधारों
इंडियाना
फीफा
सौन्दर्य
अनियमित
##pr
काबुल
सेवक
##ans
मनोहर
##जलि
##ोत्तरी
अछ
भजन
संध्या
##ेरिया
##र्करा
चार्ज
130
सेंटी
विशेषज्ञता
कर्णप्रयाग
##15
##िम्प
##धिष्ठ
##ari
फैक्ट
निरपेक्ष
लेनदेन
अधिवेशन
पाना
बोन
यंग
##ौं
यहा
अलै
सहारे
निकली
##यरस
स्पाइ
कलाओं
भगवती
त्रिश
शोभा
पूछता
उपजिला
ऊन
##बरे
##ङ्ग
##र्लिंग
राजग
##ern
18वीं
बहुता
अभिनव
समारोहों
चीजें
आस्ट्रेलिया
गुरुत्वाकर्षण
cent
जर्सी
##वाइ
##ोलियन
##ीयू
क्रूर
ख़िला
१९७०
सुंदरता
हिल्स
उपरान्त
वक़्त
दरभंगा
ओज
नियन्त्र
कास्त
कुट
विक्रमादित्य
1918
कॉमिक
खुराक
##स्राव
अद्य
##वकों
##लीम
उपक्रम
सहस
उदाहरणार्थ
रोचक
निपटने
रोबोट
सत्याग्रह
03
उगा
मजा
सर्ग
##ुर्
##ोभ
परिम
##कोष
1938
1934
शिकारी
कोशिकाएं
डाउनलोड
दिलचस्पी
प्राइवेट
जनजातियों
चाइ
बतौर
##TS
##ओँ
##IV
व्याप्त
निकलकर
प्रतिनिधियों
रोटी
हदीस
सुदृढ़
चैल
चश्म
नें
बडी
सस
हिप्प
##ारोपण
गुम
न्यूट्र
मतों
##बिंद
रोहित
टोक्यो
व्यंजनों
टोनी
##ाख
##वो
##वस्तु
##दूरी
##ैग
##सेसर
##्लोर
जीर्ण
कमेटी
जुर्म
लीप
##are
A4
गह
छीन
धरात
युर
##मित्र
##्वर्ड
##नाट
मुन
पाकर
स्टोरी
लाओ
प्रत्यय
भुव
मैनेज
डेमोक्रेटिक
एडी
दिक
वर्षो
##धारक
##प्रण
आरती
##निर्देश
नक्काशी
निवारण
घी
जलीय
##िवर
सर्वथा
##ash
##oll
रेडिय
डालता
भवनों
न्यूज़ीलैंड
02
ऑड
ढेर
##ड़ने
गुणा
##स्कोप
##परक
##टाउन
पहुंचाने
पद्धतियों
मुद्दा
सब्ज
घूर्णन
दुकानों
तंज
रिए
४८
##कथित
##ाषाण
१९९६
शुक्रवार
##ound
राइफल
त्रुटि
फ्यू
सन्न
##ुंग
##ँस
##ासपुर
स्थाई
##ोटाइप
##धारियों
##ोडिया
##ोत्प
एंडरसन
विपक्ष
भेड़
गंभीरता
##rans
सार्वभौमिक
फांसी
##कली
##तिप
##िशर
मिलन
स्टैन
वैशाली
##ोनियम
##int
##विकल्प
समुच्चय
प्रशंसक
अफ़्रीकी
अभियानों
##निरपेक्ष
गॉ
बूट
भद्र
रां
लघ
##तार
##ood
##ुसार
##जित
सीआई
##िपु
सार्थ
इंडस्ट्री
##क़ी
सातवीं
वरदान
1922
मानसून
टेलर
फ्रांसिस्को
त्वरित
विराजमान
पें
८८
##िलर
सीने
##ोमन
हिन्दु
भरोसा
लड़कों
1921
##ows
कवच
खेतों
सिन्धु
भिक्षु
सामग्रियों
06
कदा
७५
##ोंट
##नाद
चुनी
खिलाफ़
विजयनगर
पिप
फो
लोप
##ech
##ोफ़
##एक्स
##र्ल
भीषण
##विश्वास
सहभाग
ग्रै
##erg
शब्दकोश
प्रणाल
किलोग्राम
१८३
साइन
१९५०
पिशा
##रथ
##PA
##्रेशन
पीर
गुरुद
दाएं
1929
रिहा
विज्ञानी
दायरे
कैप्टन
पाइप
गारंटी
कुत्तों
गुज़रती
प्रकोप
##चिकित्सा
पारिस्थितिकी
धाग
##जुट
##शिव
होश
##काण्ड
द्वाराहाट
पुकार
मारिया
मुख्यधारा
##att
रिक्त
एयरलाइन
अस्थि
शास्त्रों
चयनित
बसाया
हार्डवेयर
व्ही
मध्याह्न
शिष्यों
Pr
ऑडियो
३७
##ाठी
अभिप्राय
दीं
टीमें
२०१९
चीफ
संतुलित
ओल्ड
निरन्तर
डालते
नागरिकता
अग्रसर
वाइरस
दृढ़ता
अलेक्ज
आम्बेडकर
भाद
वॉन
सांग
विश्लेष
अभिकल
उपलब्धता
लगीं
अवशोषण
चतुर
पलायन
घृ
थल
फीस
##डेट
##ांजलि
##्यांश
##ाइज
स्वे
जबलपुर
शिक्षकों
##िगम
ख़ुद
आलम
दिनांक
कौश
ध्वस्त
हिस्सेदारी
##able
टक्कर
न्य
सास
##रचना
##१०
राज्या
##सत्ता
रोमांटिक
##बूझ
##ock
अवार्ड्स
कोयले
एटा
बर्क
म्यु
शोक
##गिल
सुई
कैम्ब
कामना
एलिजा
नारियल
सुलझ
फॉक्स
शीतल
चैंपियंस
आउटपुट
##बेरिया
आराधना
Pl
Sp
se
तार्क
सजीव
उपस
##्बर
१९९२
साधारणतया
##rad
##पेयी
लुईस
शाहजहाँ
बहुतायत
डिब्ब
फ्ला
वेध
इनमे
##ट्रैक
परिश्रम
इंजीनियरी
ph
sc
नकल
पंज
हॉप
हजरत
पराव
जोकर
##ोपै
असंख्य
रेसल
उद्भव
ग्रेड
मास्टर्स
अयस्क
मछलियों
दीर्घकालिक
उन्मूलन
कंट्रोल
सब्जी
मेमोरी
भैरव
ऐन
जस्ट
मुझ
पाटी
बिन्द
दर्शाते
आशंका
यंत्रों
बहिष्कार
उपेक्षा
##वांशिक
एकादशी
उ०
##ंछ
##नाल्ड
एकजुट
##ीनिया
गाँवों
कॉपी
एलिस
विचारक
डाले
उपन्यासकार
दिखाए
##एफसी
##क्ष्मी
कराते
परिपूर्ण
टॉवर
##भिषेक
ड्यूक
सीबीएस
ऊर्ध
छाव
##पाली
##्टिक
विशुद्ध
##ंबल
##ष्ठी
1912
चैनलों
विशेषताएं
जटिलता
नेपोलियन
मैथिली
सीकर
क्वार
भेजी
आयरन
##ध्यापक
चंदौसी
cont
ब्रजभाषा
समायोजित
स्प्रिंग
क्षैतिज
मदीना
लद्दा
केप
##लेखन
ज़िम्म
##िस्टिक
श्रवण
सुविधाएँ
अरबों
इकाइया
##ार्टमेंट
फाइबर
अवयवों
घुम
तंग
फोर्
लोम
शर्म
सिग्न
युधिष्ठ
प्रवक्ता
आंदोलनों
इलेक्ट्रान
इज़राइल
त्रिपाठी
ऑक्सफोर्ड
एप्पल
कड़
##az
##लू
##पल्लि
##णता
##ठित
परवर्ती
जाएं
##्मरण
##ंदे
फ्रें
पालतू
झीलों
किताबों
स्कॉटिश
आज़ाद
मजदूरों
हंगरी
DVD
Ph
##्ते
मुक़
कामों
पर्ल
न्यूज
##पालन
##पाही
##कुंड
क्वांट
१९८९
स्टेट्स
सच्चे
पेट्रोलियम
खलीफा
ख़िलाफ़
टावर
फेल
##रॉन
##ुव
##वॉ
##पोषण
सेम
##न्दगी
##पुरुष
मेहरा
##िप्स
##ors
ग्राम्य
कविताएँ
गेंदों
वादक
सांख्यिकी
##ाविज्ञान
प्रसंस्करण
बडे
सरी
##कांत
##चन्द
##फना
##MA
प्रचालन
##सेक्स
##क्षमता
तथाकथित
अलौकिक
कार्यकर्ताओं
##ुकता
##ुटिया
भगवान्
पांचवें
1914
दोस्ती
उभरा
पैनल
जनसांख्यिकीक
ब्राज़ील
अनुभवी
पाव
##्राह
##ेंजर
परजीवी
##िसू
निज़ाम
उपज़िला
महिमा
##ज्ञानी
##ंकृत
बदलती
दानव
कब्ज़ा
अनुकूलन
टेलिव
पीएचडी
सीईओ
मेहनत
लता
##ोले
##वर्स
पराग
##ालियन
सूरा
स्पेश
##ates
दिलाने
##ेंटल
क़ब्
मुरली
जायेगी
पुरातन
बैटमैन
नाइजीरिया
गाइड
##ोष्ण
##ेबल
##ानगर
प्रोप
सिंघ
सबको
बैडम
स्थानांतरण
परिधि
क्वीन
विवादों
दस्तावेजों
क्वी
खाई
##िन्स
##डियों
##ral
अंगूर
मीरा
लेखिका
##ोत्क
नाच
1933
मंत्रिमंडल
सल्ट
स्क्रिप्ट
घुड़स
ईमेल
डील
पंक
मसल
सोप
##ूच
##ग्रेड
##४०
##ास्क
##ड़ो
युन
दरअ
लक्ष्म
आश्रित
कार्यालयों
मैकमोहन
गोपी
##जीवित
स्वयंसेवक
संदिग्ध
चिली
##िं
##हु
##yl
##तावास
##काई
सीखा
पुरोहित
आईबी
बदलता
स्मार
विषयक
1943
लाभकारी
रिपब्लिक
एवम
फाइल
मिस्टर
##पार
##माउथ
##ज़ार
पूर्वक
उल्लिखित
सम्पादक
मापने
विक्रेता
फेस्टिवल
चालीस
दरअसल
क्रीम
बाला
##नारायण
##वचन
##्विक
निपु
रचनाकाल
आरोपों
फोटोग्राफी
मोर्चा
गिरी
लुक
याचिका
प्लस
केंद्रों
सम्पादन
आकस्मिक
मुद्रण
१९८४
संकल्पना
गोरखा
मीनार
डीडीहाट
लाना
##oh
##ॉफ
संक्रामक
##स्टोन
मेग
पिच
किरणों
फरी
शेल
शिप
सग
##ुकी
कीटों
##िसिन
पाचन
विभेद
दुष्ट
अर्थों
द्वितीयक
##ree
1925
लड़ाकू
तत्पश्चात
परमात्मा
##ोन्म
##मनी
##गिन
क्षुद्र
मार्वल
निकाली
##म्बा
##ative
##मितीय
ब्लॉग
हार्वर्ड
##ियोग्रा
##roup
निवेशकों
##शास्त्रीय
रमेश
श्रद्धालु
ऊष्म
हें
६५
##कां
निमित
##्लाद
सीमेंट
##िटिक
##क्सप
अराज
##ोनेट
इन्टर
1917
##दायित्व
दांतों
अंप
दरों
##इंट
##ियोल
समाहित
लेडी
लेबन
वाल्मी
क्षी
जीने
कैंप
लीटर
##hem
विलास
लौटा
##भाषी
आप्र
गन
गड़
गामा
शाप
##गें
##way
##ाविद
सिपाही
बहाल
कॉफी
सातवें
गैरसैण
##दायिक
१९७१
डिवा
ज्वार
ताइवान
शाकाहारी
अरुणाचल
per
ढाँ
मॅ
लाला
##णीय
##न्सी
##िलों
मुना
125
शेयरों
बास्केटबॉल
युधिष्ठिर
भाट
रेम
##ax
##fer
##ालयों
होम्स
लेट
##जातीय
धर्मनिरपेक्ष
यूरेन
शुभार
नरसंहार
चक्रवात
वाक्यांश
खिंच
उत्तेजित
षड्य
शर्करा
##हंस
##yp
##शैली
##DA
##नांग
लेप
१८२
आठवीं
1926
सम्राट्
##रीबन
##र्याप्त
नक़
##्तर
उपनगर
ब्रिग
##म्मा
मतदाता
दर्शाती
उछ
कर्क
चाम
ताँ
दहन
बोह
बोत
##डेन
##झी
##६०
##ियट
संकीर्ण
##्याल
जोन
उपवास
रहेंगे
स्टेज
जन्मदिन
जानेवाले
##यन्त
मंदी
उदाहरणों
वापिस
परिसंप
सलमान
##ब्बे
नॉर्वे
मकबरा
गंत
पंप
लास
सँ
##फरी
प्रिया
रामचंद्र
दूरबीन
संतों
प्रोटेस्ट
मूवी
कर्तव्यों
४२
##ोक्ति
##गारी
##BS
##ालो
##ोग्र
##विग
सीएस
##ोटी
##ोटो
वैल
##ank
153
डेविस
गुरुकुल
दूतावास
सिखों
दस्तावेज़
मंगोलिया
प्रतिस्थापन
काद
##ंडन
लेस
##ोस्प
यूई
प्लेयर
भावों
आगम
बोलचाल
सन्देश
निभाते
परेशानी
फूट
हत्य
हैल
##याप
होगन
पार्थ
बद्री
जहाज़
ट्रक
कोश्या
ऋषियों
प्रोडक्शन
not
द्य
##िजन
##कने
##ole
##पंथी
##छी
सूख
बलिया
##०००
पहुंची
१९९५
टैक्सी
##त्यक्ष
चिकित्सकों
गुर्दे
us
छल
##फुल
विय
निदेश
मुआ
वेने
चेष्टा
दुर्बल
टुकड़ों
एयरलाइन्स
टकरा
पीपुल्स
900
Cl
ताजिक
धीर
##ox
##IS
बनवा
युवक
उत्तरदायित्व
बुश
##ुटोली
१९९४
व्यवसायों
अभिषेक
अनुपम
महाद्वीपीय
फेफड़े
बुंदेलखंड
तार्किक
खाया
घटा
जिक्र
फोर्स
योर
यजु
##डक
##ेना
केन्या
संचित
प्लेस
मॉडलिंग
सफर
वेंकट
साम्यवादी
रग्बी
चौर
डब
ताना
लीन
वादी
हिटल
क्रय
सहार
ग्रा
संगमर
फिरोज
शाखाएँ
ड्रग
खंडन
##दर्शक
संस्कारों
पराजय
रिश्तेदार
गोलाकार
एलिजाबेथ
डार्क
बियर
५२
संकर
सामरिक
प्रतियां
यूरो
यूरोपियन
मरीजों
##ँकुटोली
कोश्याँकुटोली
##oy
##ख्ता
##16
धारक
घटनाएं
निरोध
1908
##ेंटीना
संतुष्ट
छान
डीन
थर्म
बछ
मारी
##ook
अपर्याप्त
##लीकरण
राध
धर्मशास्त्र
##नाथन
नमाज़
नरम
१९७२
लेनिन
गेहूं
इष्ट
जंतु
फू
##पल्लॆ
प्रम
औरत
बीत
अल्कोहल
स्टाइल
स्टाफ
गुहा
ग्रिड
जुन
उदर
कलम
लिबर
कौटिल
विशेषताएँ
अपराधों
पड़ेगा
स्वाधीनता
##थिक
##याव
##िलिंग
मैल
सूबे
नियोजन
##enc
वस्तुएं
मित्रता
शेक्सप
चूना
##ार्जुन
डिप्लो
स्क्वायर
चौखुटिया
बैडमिंटन
गोग
स्ला
##लता
##पुत
वर्च
##विता
महत्वाक
दिलीप
बाब
मिनी
सपने
महासभा
मूर्तियां
हिमन
##ement
नाकाम
आश्वासन
एनिमेटेड
mer
कच्छ
##्ख
सेर
होल्ड
अपार
##ज़ो
जैक्सन
मिलना
##प्राप्त
बाधित
जानबूझ
राष्ट्रवाद
##द्वाज
आदिम
उपलब्धियों
माइक
हल्की
काटकर
कोंक
which
कोहली
कास्त्रो
छेड़
दां
मला
हिप
भीष्म
सुश
##स्से
सिद्धि
##ेंट्स
प्लै
सौदे
एडम्स
##चुम्ब
झुकाव
हिटलर
dis
ट्वे
दही
##िंक
निष्ठा
मुर्ग
लेखांकन
चौकी
अप्रत्यक्ष
हेग
तीर्थंकर
१९४८
इमारतें
बहुमूल्य
मार्क्सवादी
ह्रास
निमित्त
Micro
डुम
धुन
बेड
##्निक
##TV
##फाइनल
काँग
##कारिता
दक्षिणपूर्वी
स्पाइडर
सालाना
लिथ
अन्तरराष्ट्रीय
प्रेमिका
##तन्य
रेखाओं
गवर्न
औषधीय
चाँदी
संगमरमर
जन्
टरब
यमन
##मतों
##श्न
##ha
##ारिया
##िसिस
कैफ
अगला
जमाने
बोझ
बिताया
##ount
टेम्प
##ैं
##CC
प्रतिल
##िक्षेप
आरक्षण
सर्वत्र
विलक्षण
बॉब
१९९७
कर्ता
मापा
भरतपुर
मृग
उत्पीड़न
क्वांटम
par
##ुवा
##पदी
##भूषण
##SP
मुड़
##ंजलि
डेली
धन्य
प्रसव
कैथरीन
अवशोषित
विवेकान
देहांत
मुकदमे
सोशलिस्ट
नॉट
##डिश
##०४
##ोगिक
अनुभाग
पैतृ
जिन्होने
बिलासपुर
##ोफोन
चुनौ
चट्टग्राम
दाखिला
छावनी
कौटिल्य
क्य
पित्त
शतर
सिए
##ूरा
##भट्ट
मैट
##फ़ील्ड
तैरा
पालि
बसें
गुजरती
मध्ययुगीन
धरातल
le
गोड
पेस
लोड
##्मन
##लेम
दोहरी
वहन
जैसल
##ॉल्ट
लीज
सेवाएँ
दरगाह
गिरोह
प्रदर्शनों
140
नरेंद्र
मूर्तियाँ
जॉनसन
##ute
प्रतिस्पर्धी
तरंगों
सिक्कों
ताम्र
ट्वेन्टी
कं
ज्यों
टोपी
##ावरी
सुक
कमज़
ग्रंथि
मूर्तिक
##ंवद
एंजाइम
फिलीपी
उज़
एली
कतिप
गत
जंतुओं
रीत
शंख
सघन
##हेल
##लम
एक्से
करवाने
वीर्य
पड़ाव
लॉक
नाटककार
यांत्रिकी
वोटों
हफ्ते
खातों
भवानी
##ंय
##te
##ृप्त
अपघ
लगाये
सीक
##स्टार
अलं
अलंकृत
##ाजीपुर
प्रतियोगी
1905
ग़ैर
राष्ट्रमण्डल
यूईएफए
ओप
नाह
##ुई
##ुङ
##यक्त
##र्ज़
इस्म
##सीएल
सिप
विकृति
##ुल्ला
एडिन
डालकर
उपाध्याय
पटिया
चिकित्सीय
पादरी
नकली
बिशप
खड़
बर्ग
##माय
##मापी
##ौना
##ओल
किंवद
##ंधा
दुर्य
बुजु
क्लिक
सौदा
लॉर
##नुसार
आश्चर्यजनक
फेफड़ों
मन्त्री
कतिपय
रिब
स्थूल
##माया
##धारकों
महाप
वृत्ति
नैशनल
समर्पण
ज़रूरी
WWE
आस्त
इगल
मृद
##रोग
काॅ
##तिन
जोस
कार्प
होतीं
सरस
नागरी
बॉडी
अध्यात्म
खैरा
नामीबिया
टेर
ढोल
##त्थ
##शियन
##ॉडी
##ीयों
##वत्
##वादक
समाजों
बचाया
धाराओं
डिस्प
##चुअल
ज़रूरत
हाइपर
अंतर्निहित
रघुनाथ
त्रिभुज
ठंड
तित
मच्छ
##ओन
##कार्य
पुरा
##श्चात्
अर्चना
डेढ़
चैतन्य
1911
गर्भपात
जलाशय
मृदा
खलनायक
एपी
बड
शॉप
##द्म
##लीला
##ापा
##न्दी
राख
कमर
##प्रति
वर्णक्रम
आधुनिकता
आरम्भिक
##ियानो
अर्जेंटीना
असमिया
ऐल्बम
म्यूज़िक
अहिंसा
लिनक्स
भनोली
आख्या
चिट
चचे
जड़ी
पेड
बित
यूस
##धियाँ
##िष्णु
##ारीय
##भीत
ब्रु
##म्फ
समझाने
##डाउन
अफवाह
110
1927
सेंसर
अस्त्र
मिलेगा
मराठों
उपग्रहों
वृत्तचित्र
स्वच्छता
सेमीफाइनल
वन्यजीव
खस
रबर
##दस्त
प्रतिज्ञा
फ़ै
अवधी
स्पैन
रेलगा
मिलाया
आह्वान
मेगावाट
फास्फ
स्पेशल
पैतृक
अहीर
कंड
##ोपुर
##न्धान
निग
मानकी
फ़ते
##फ़र
जिज्ञ
आधिपत्य
टेप
##संघ
चेहरा
कृतियाँ
पॉटर
निरूपित
स्पीड
बुजुर्ग
गेज
ड्रे
माइन
##बेन
##ैगन
##इर
संस्थ
कार्यात्मक
पाट
##वराज
108
बालू
कॉर्पोरेशन
हड़ताल
वरीय
##पै
##ौनी
##िराज
कॉमन
समाजवाद
त्रिव
खुफिया
पहचानने
##प्पी
अपराधियों
##ime
१०००
अल्बर्ट
ह्रदय
एंटरटेनमेंट
अब्बास
चयाप
ढाई
##23
##ियन्स
##ावस्था
##ाहिम
##रेब
अभिम
स्थानिक
चैत्र
क्रमिक
चालुक
विस्फोटक
टकराव
बिस्मिल
गर्व
चाव
हौ
##नार
##घोष
एकेड
जबर
अलाउद्दीन
बुन्द
गैंग
सकेगा
##ूषा
उम्मीदवारों
##ब्बी
राजपूतों
प्रासंगिक
अद्यतन
am
आला
ऐनी
##मठ
##्रास
संवर्धन
अनवर
मानती
##eral
##ोमेट
गोले
विधिव
चेयर
खंडहर
मूल्यवान
क्वार्टर
फर्श
##िकार
काच
##नाभ
हैंड
##राबी
कुक
बिछ
सत्
##जरलैंड
##ose
आलोचनात्मक
ज़्यादातर
व्हिस
वास्तुकार
फेसबुक
वृत्ता
बिल्डिंग
भित्ति
डिप्लोमा
एम्ब
गेल
बृ
मता
सज़ा
##्पा
होनेवाले
मालदी
अभिनेताओं
महानगरीय
विशिष्टता
होंगी
हिमाल
किनारों
१९८५
##ट्ठी
उन्मुख
साउंडट्रैक
दुर्योधन
cod
ओह
ठहरा
डिट
ध्य
##साम
##ढे
##IA
कांठ
##ालपुर
##ासिक
बालाजी
निर्वाण
कॉलेजों
लैंगिक
##टेकर
चिकित्सकीय
पत्तों
##क्कन
अनुमोदन
वनस्पतियों
टर्ब
डाट
नशी
नायर
हीन
##सीआई
अमे
##िंगर
जनित
##ंजस्य
जरुरत
प्रान्तों
१७९
परमाणुओं
पृष्ठों
बिंदुओं
पनडु
##विकल्पी
कैम्ब्रिज
वाल्मीकि
UK
टूल
नाज़
##िल्ल
##देशीय
मौके
##ark
##पेरा
पुनर्जीवित
तत्पश्चात्
एथलीट
सल्फेट
बस्तियों
ब्रिगेड
ड्रा
ढी
सई
५५
##हां
##सद
##70
##र्कों
##्मत
##सेवा
अपूर्ण
देवल
##स्ला
##डीपी
वर्णों
##ाउंट
##ular
सुनवाई
प्रतीक्षा
निकटवर्ती
बर्फ़
सोमेश्वर
बेसिन
जूते
इगलास
अक्त
एनाल
ऑस्कर
##ुमा
##पक्ष
प्रता
कास्ट
परोप
लाकर
स्तुति
रामकृष्ण
बताए
चलाते
कठपुत
1910
क्लबों
फैलने
टेक्सास
फेडरेशन
उत्परिवर्तन
आवा
आलेख
गॉड
मंडी
##डीन
हैमिल
संब
विक्ष
पीढ़ियों
##ोतक
##ुपयोग
154
गोल्फ
आपातकालीन
घोड़ा
चूर्ण
लक्षित
हवाला
##ञ्च
##्स्ट
अलवर
सुरेश
भगव
तुल्य
साबुन
तुम्हारी
डिज़्नी
निचली
ब्लूज़
निस्स
जरूरतों
अमान
ऑर्डर
दयान
भद
रियो
##जियम
##ोसे
##24
किण्व
प्राध्यापक
##anc
पत्न
##ुपात
155
174
166
पश्त
१५०
रावत
1916
सिनेमाघरों
प्रतिरोधी
तुलसीदास
फर्स्ट
वाजपेयी
यूरेनियम
मालदीव
टिका
फोर्ट
मवेश
##ाधिक
##cess
साठ
##कावट
##ायंस
समझे
##ूतन
तटस्थ
वज्र
मनाते
अवस्थाओं
मुद्रित
पुनर्गठन
आक्साइड
एंथ
बर्मी
##क्यू
##ियास
विराट
##ाद्ध
बैनर
निर्भरता
१९७५
गर्ल
निशाना
मालिकों
फोटोग्रा
घोड़
दत्ता
फेम
५१
##़ा
##form
काण्ड
जाओ
##राशि
मुस्त
यातना
अंतत
प्रमुखता
कॉरप
##िजात
सौते
इलाका
प्रधानता
अच
##ंझ
##जाल
##ॅट
##िलीन
##ाम्ब
##िएंट
##हीम
सामंजस्य
सहानुभूति
भाषाएं
नागाल
##ानुमान
१९८६
तीर्थया
गृहयुद्ध
श्रद्धांजलि
अजीब
इब्राहिम
MS
Or
फाइन
रवाना
##बर्न
##pur
##13
##ाप्र
बीर
मेहर
हरित
##ंशी
रैप
मूसा
भ्रष्ट
बेरोज
सांख्यिकीय
चित्तौड़
निलंबित
भैंस
कट्टर
समलैंगिक
पाणिनि
लेबनान
Ex
आति
सोह
३८
##व्स
##AP
##्सर
##कीर
तकरीबन
कामक
##orld
एलजी
महिलाएँ
उच्चतर
सितारों
अनुसन्धान
१९९३
1923
बेल्ट
गैलरी
अंग्रेज़ों
यूट्यूब
वेधशाला
आख़
दिश
दाता
मण्ड
##यस
##टू
##uch
##्रीकरण
##ावार
##ाइलों
मिलाने
सूअर
मनोज
ज़रा
जलस
बलराम
दरिया
प्लान
वायर
आर्यों
##सैनिक
फैलाव
स्टीफन
आज़ादी
वर्चस्व
जैसलमेर
ध्येय
ऑब्
छद्म
##pg
##गेट
कोरो
देसाई
स्वय
वैचारिक
लिखकर
सिल्वर
डेटाबेस
गुफाओं
अब्दुल्ला
चिन्तन
मिठाई
क्षीण
सहारनपुर
qu
टाय
दाने
बम्बई
मर्या
रकम
वाइन
प्राप
जात
किन्
फ़ोन
इंजनों
align
शेखर
पांडुल
आक्सीजन
sub
आण
घे
घुल
टेट
धुरी
४७
काइ
##सेट्स
कुलीन
हीम
जन्त
पुरस्कृत
पीली
##ene
##esh
समझाया
रोनाल्ड
नाराज
रीम
##ower
चतुर्भ
दस्ते
अड
अजीत
नृत
##़ी
##ोत्र
##ैनी
कोला
महेन्द्र
परिच
आयोड
दूरस्थ
लड़ते
स्के
##सूत्रों
छिड़
धमनी
संभालने
पार्टियों
भण्डार
मैनेजमेंट
फिलीपींस
एरिया
गाज
गिब
बक
##नल
##टेक
##्वारा
संव
थीम
##मानस
सूडान
##िगन
##ायीं
तेरे
प्रेरक
चमकी
गाते
प्रौढ़
साधक
तालिब
##ung
आकाशगंगा
उठाए
तुम्हारा
नज़दी
ईथर
ठंडे
##tm
##र्वा
व्यर्थ
सहस्र
इंजेक्शन
वार्नर
##eth
चमड़े
कैमरे
गुलाबी
जादूगर
कंक्रीट
##यक्तिक
Wind
वाग
##फ्ल
बहनों
कम्ब
प्रवर्तक
प्रायोगिक
युगांडा
शोथ
चौथाई
सिगरेट
इक्विटी
##ोग्लोब
ख्व
डब्लू
नमी
लटका
##विले
##वाचक
रूपांतरित
विकारों
मैत्री
घरघ
इरादे
अद्वैत
कंधे
समितियों
चैलेंज
मसलन
350
अचल
नबी
लुट
##शहर
##टके
##पश्च
##ैच्छिक
केम
जाहिर
जनमत
निकासी
आरएनए
क्लोर
श्रेण
##stit
मित्रों
प्रेक्षण
पहनते
इजरायल
प्रतिद्वंद्व
शंकु
लोहाघाट
##र्वेदी
झरने
साजिश
गैलेक्सी
हस्तांतरण
##स्केप
He
ओड़
नह
नाई
पन्ना
मोज
४१
##रियर
##िंस
##तट
##ys
##ँवर
विवश
##ुरू
##ायोटिक
रूपये
करनेवाला
वाल्व
##ेरियन
प्राप्तकर्ता
वैश
##बीआई
वर्तनी
अधिकांशतः
महासाग
रिपब्ल
दिखाते
सेकेंड
कारखानों
कठिनाइयों
वोल्टता
मधुमक्
नगला
पाउडर
संवेदना
सिग्नल
bl
लड
##िंद
##तानुसार
##ौत
काक
कोठ
कुआ
##्रेम
मानो
प्रतिबन्ध
दुष्प
##्गोर
##ese
उठता
विपक्षी
बैठकर
##्रियल
जोड़ती
कटाई
##ution
मेटल
विद्रोहियों
दर्जे
प्रतिबिंबित
सार्थक
Ad
Re
खासी
दादी
##हारा
##खियों
##ोक्त
कीमतों
करों
परवर
भारद्वाज
कैंट
मूलत
जानना
##ान्तरण
जीवंत
ओलि
##बेरी
उठाकर
जौनपुर
बेंगल
पुनर्जागरण
इथियोप
अराजकता
शेक्सपियर
आक्र
आन्त
ठंडी
##तालों
कोस
##माता
##ज़ीन
माओ
बेला
दक्षिणपूर्व
##any
कृप
लगाता
हेली
दिखाता
कन्नड
मैनह
कवरेज
चन्द्रगुप्त
जागरण
गोंड
हिंदुस्तान
मॉडलों
बाजीराव
भुवनेश्वर
घनिष्ठ
तले
##ुअ
##14
अब्राह
1500
गिरि
प्रतिष्ठान
मापद
प्रेसीड
स्वर्गीय
हज़ारों
इन्स
थकान
हिस्ट
##ोड़ी
##ियनों
105
सांप्र
शरीफ
१९७७
##कोटा
हटाकर
##ake
एंड्रयू
टरबाइन
NBC
अनाथ
धमा
बहा
बहाव
मादक
##िंघम
##र्टी
प्रेष
संजीव
##ामित्र
##्सल
उस्ता
लेग
##त्ते
ख़ु
169
विध्व
सितारा
##रावस्था
##raph
१९८३
उलझ
वेस्टमि
स्ट्रोक
रहस्यमय
तस्वीरें
टैगोर
दाँत
##प्रणाली
CE
पिर
यन्त्र
##ix
केविन
हैँ
विस्थापित
संन्यास
##िसार
मुठ
##म्बो
156
बॉस
क़रीब
कार्बो
विवादित
मन्दिरों
रणजी
पद्मश्री
पीड़ितों
कंट्री
elect
इतर
नट
९८
##िफ्ट
##वास्त
##पतियों
काश
##ंदरी
##ापूर
विशाख
उत्
गुवाहा
फिल्मफेयर
वैभव
##बीस
मिशेल
मल्ला
कर्मियों
नारंगी
##ोफर
तल्ला
कराती
प्रोसेसर
कप्तानी
प्रबन्धन
निकोलस
पैगंबर
तम्बाकू
तिम
बकर
##समी
##वर्थ
##ांकी
##कात्मक
बीबी
नीम
कलाम
नियोजित
##टावा
प्लांट
आत्मसम
मास्को
पहुँचाने
##own
प्रचारक
१९६२
सजाया
मुलायम
रणनीतिक
अवशेषों
पूरब
आभूषण
मेमोरियल
co
उब
##तन्त्र
##कर्मी
##ier
##ूती
##26
##ोंक
परित
जोड़ों
##माइ
##inal
जीववैज्ञानिक
चिह
विधियाँ
विरोधियों
मोशन
लाइनों
रीढ़
ड्रैगन
लुइस
हेल्थ
चेतन
उपनिवेशों
औषधियों
दामोदर
जेरिको
गुवाहाटी
fl
ड्रीम
६४
##ाए
##्गा
##य्या
##ानो
##ियांग
बहुप
पूर्वानुमान
सर्दी
श्रीनिव
संपदा
त्रिज
संग्रहित
168
मुद्रास्
##idian
अनुवादक
जीनोम
अभिभाव
साइटों
हड्डियों
##ोपाध्याय
सीनियर
पिशाच
शतरंज
हैमिल्टन
एंव
गली
चलाई
ताजा
लार्ड
शम
सोर
क्रिप्ट
गुंब
अभय
##ana
वृह
159
मुस्लिमों
विनय
छात्रवृत्ति
गोदावरी
सुगंधित
फिलिप्स
##हाइड्रेट
##soft
HIV
इड
चेन
नाईट
८६
##विष
निर्मल
प्लूट
जॉनी
##ियारपुर
सुनाया
कॉलोनी
इंस्प
लिटिल
पोखरी
शटल
सलीम
##िह
##ायती
सीए
अल्
क्रिश्च
बैरी
सूखा
सूखी
##ीरियल
##ेशनल
विराम
लड़का
स्वीकार्य
गिरफ्तारी
यूसु
आत्मसमर्पण
RF
have
ईसी
कन्
भटक
शॉर्ट
४६
##बारों
##यड
##पाई
##ेनिक
##िएन
##मात्रा
##ीनगर
##ाइक्ल
##विज्ञानी
##ेट्टी
##्यूड
##ale
##एसई
पंक्तियों
दिखती
ब्लड
रोमां
लैस
प्रेमचंद
ग्लेश
जायेंगे
स्ट्राइ
आभास
बगैर
निष्पक्ष
षड्यंत्र
मुद्रास्फीति
NH
याम
९९
##बील
##खाने
##्जन
##्युद
##िनस
##लीफ
कुतु
महेंद्र
##ुलेशन
फ़ॉ
##ंबंध
##च्छादित
##ani
मध्यकाल
प्लग
एनबीसी
##्कीर्ण
अभिलेखों
कुंडली
प्रजापति
डिवाइस
कमज़ोर
रिपब्लिकन
IP
नानक
ब्ला
५६
##स्टिक
रहेगी
मिश्रा
छाती
प्रेरण
गौड़
बुद्धिमान
thumb
पलट
अनुकूलित
##्शियम
अंगूठी
गोपनीयता
म्यां
स्वेच्छा
अरा
इब
४९
##ोमी
##27
##EC
किड
##ोकस
कार्यो
##निर्मित
बढ़त
नियोक्ता
##्युम
दशरथ
चित्रकारी
१९८२
१९५६
विद्यापीठ
चतुर्वेदी
##र्घ्य
दरवाजा
ढांचा
##बैजान
नियामक
फ्रेडरिक
एफ़
गाल
जहा
निक्षेप
प्ला
फिक
६१
##जै
हैदर
प्राद
##िनिक
सूच
##ons
महानि
संस्मरण
##ivers
अधिवर्ष
ऑपरेटर
##ड्रिड
बंगलौर
स्पैनिश
टार
तस्म
बटन
सत्त
##थान
प्रादेश
जोश
रूपी
महाय
##ानाथ
##ंचन
अन्तः
राष्ट्रीयता
क्ले
अथर्व
रोमांस
१७७
१९८८
सप्ताहांत
##्यूटिंग
उठाते
मज़बूत
कार्यान्वित
इच्छुक
Microsoft
एएम
चो
ट्रा
तने
नग्न
पंत
मण
हता
##कॉ
##शियल
##AR
विनिर्देश
समता
द्वंद
कमाल
स्टै
भाषाओँ
##ंहिता
##कोड
लाती
निर्देशांक
16वीं
एनरॉन
सितारे
##क़ात
बहुविकल्पी
मोटा
1915
संयम
##emb
आपातकाल
jpg
इफ
धौ
बिस्त
बडा
##हानी
##शियम
##गां
##17
कुम
प्रदत्त
##दान्त
दर्रा
कथाएँ
1906
मैकड
द्वारका
कक्षाओं
सेवानिवृत्ति
निःश
क़ब्ज़ा
म्यांमार
system
ओक
चाण
दोग
फंस
वु
##ंकों
##जतन
##चर्य
##व्यास
##गर्भ
विश्वामित्र
पैद
जिन्ना
शकु
164
अप्रत्या
स्मृत
खुर्द
द्रौ
लौकिक
बोस्टन
सचिन
बिकने
comm
यूनिवर्सल
मातृवंश
खनिजों
हावड़ा
##फ्रेंस
उदासीन
बेश
लात
सस्ते
हिस्ट्री
४३
७२
९१
##बैक
##ल्ला
##दपुर
##श्रम
##गुआ
##MS
संच
##र्मन्
ज़माने
सोया
##hed
173
कर्मों
अंकुर
भाषाविज्ञान
गौण
##भाग्य
1904
राजनय
परिप्रे
उपनगरीय
सिंधी
टूटने
पीटरसन
आस्ट्रिया
अनावश्यक
##ोपरांत
राज्याभिषेक
meridian
इमर
औजार
बायर
४४
##ंन
##ुता
##ैका
##ुरूप
##िलाई
##िटन
पैक
एसटी
17वीं
रुधिर
डालर
##rac
किशो
सावित्री
समीकरणों
वुड्स
नवाचार
अन्याय
अक्तूबर
आवागमन
can
कबीले
टिन
दफना
६३
##्हन
जीएस
##मानों
मैड्रिड
##र्थ्य
उत्कीर्ण
स्टाल
दर्शाने
पेशी
बोलियों
पढ़े
अकादमिक
1901
सजावट
नलिका
चिंतित
##राष्ट्रपति
नतीजतन
पशुपालन
आब
४००
##डोल
##शोथ
##ोंड
##नेडी
महत्ता
सिवाय
प्रयोगात्मक
डेस्क
डॉग
सलाम
##oci
प्रयोजनों
जड़ें
मानवाधिकार
टेलिविज़न
##वास्तव
द्रौपदी
चप
चेल
नस
नर्तक
रचा
##AC
##र्धन
समीर
##ायतों
##जीर
##हारण
##्गो
मीठे
शिवजी
१८०
मजदूरी
यादृ
हिम्मत
ड्रॉ
साक्षी
##ास्का
मुकुट
घूमते
मकबरे
व्युत्पत्ति
किराए
डॉक्टरेट
चाइना
कड़ा
##खान
##hi
संचय
अमरेली
##चेत
ओलंप
पहुँचती
डिजाइनर
अधीनस्थ
आईएसओ
किशोरावस्था
उमा
गम्
जड़ों
डेर
लड़ी
लपेट
##ंजा
##टेड
##याना
प्रपात
परिल
##ड़ियां
अपरि
##स्तू
विशेषण
श्रीवास्तव
सूर्या
गाए
मांगी
दैत्य
कैरोल
अवधारणाओं
##जयगढ
##य्यद
एडिनबर्ग
कस्ट
क्यो
फॉल
शिथ
##ैनिक
प्रदीप
##्टो
##विश
अधिकता
भूवैज्ञानिक
बैग
बेली
लोकगीत
##ेक्चर
##ator
अर्थशास्त्री
पतले
पूर्णत
बिल्ली
चलाता
पालिका
सूर्यवंशी
जमश
##शिष्ठ
व्यवसायी
गरुङ
रियासतों
00721
पराक्रम
विनियमन
नवीकरण
आन्तरिक
खोद
नॉन
नम्बर
फास्ट
बश
००
##खम
##फाद
कोच्च
वर्क
उपराष्ट्रपति
स्वार्थ
##ुल्लाह
उदहारण
उत्पादकता
##जेक्ट
165
चलाए
उलट
फ़्रेंच
जुलता
पढाई
सीक्रेट
Windows
चर्म
शेन
६६
##बाह
##्योर
##िलो
किट
##ावास
##ाइस
##ुलिन
१९वीं
हरिव
##ick
ख़राब
##edia
अन्तरिक्ष
गाड़ियों
युवावस्था
मधुब
निभाता
बिगड़
निकायों
मर्सि
मैनेजर
सुविधाजनक
क्षुद्रग्रह
एम्
त्स
भड़
लाये
शृंगार
##वित
##ैले
जैम
सीप
##डीज़
खेलना
अरस्तू
स्वीडिश
ग्रेटर
प्रतीकात्मक
प्रशासक
श्रीलंकाई
वसु
इमामगंज
शारदा
प्रतिबद्धता
अप्रत्याशित
High
dist
टा
ताद
नशे
हनी
##ॉन्स
##IC
सेक्टर
##ावी
विश्वकोश
बेड़े
तेरा
पढ़ते
लैंस
बोइंग
1913
१९८७
##्शे
बतला
तरंगदै
अठारह
center
नियन्त्रण
नं
##फर्ट
परेड
देनी
हीर
स्विस
##फ़ान
मौन
आपे
लीड्स
हाश
कैल्शियम
मदुर
एक्सट
पकड़ा
घाटियों
ऐल्कोह
आँखें
गड्
अंपायर
##मयी
##ेन्स
##ण्टर
##ोलिया
स्कॉ
अपनाई
सांप
जीतकर
समीक्षक
साहेब
अग्रिम
बांट
सुखोई
पिघल
यूक्रेन
कर्ज
कन्व
गगन
मरे
लाज
##बुद्ध
##out
##विर
प्रीत
##िस्ता
##रीना
राकेश
मेथ
अभूत
अन्तर्
दिखायी
तरीक़
मोटाई
शोधकर्ता
लिखीं
पत्ती
प्लेटफार्म
वासुदेव
सोनिया
##विदों
अंजाम
इलाक़े
प्रतिभागियों
फतेहपुर
घृणा
मुठभ
ईश्व
छाल
ढूँ
तंब
पेंशन
श्या
८५
##ोत्तम
##शिल्प
##िल्ला
रूपक
##्चरल
सिवा
##िट्यूट
फिल्मी
मध्यवर्ती
##वासित
न्यूक्ल
विरोधाभ
क्वाल
आठवें
फिलहाल
वॉशिंगटन
शुक्राणु
किस्मों
वैद्युत
पितृवंश
प्रवृत्तियों
सिलसिले
रांची
यजुर्वेद
ओलिंपिक
उस्ताद
कार्बोहाइड्रेट
ओट
कंठ
जप
बिम
##मंद
##्लर
हीरे
सुमन
##योगी
माघ
अभिर
सर्वस
##ूँगा
बढ़ाकर
##ल्सन
मुलाक़ात
संवेदनशीलता
##कथाओं
##श्रुत
घरघोडा
अखंड
चिंग
छोड
पारा
पिराम
मच
सोर्स
##गाम
##भवन
निख
दोहरे
सींग
बेचे
##ोसोम
रामचन्द्र
श्राद्ध
महावृत्त
104
आदत
पंचांग
इंटरफेस
साइबर
महासंघ
निवेशक
जुड़ने
5000
कारखाना
निपटान
थ्रिलर
सिखाया
डेवलपमेंट
अब्राहम
परिप्रेक्ष्य
लड़े
५४
५३
##डार
##ोत्रा
##फेर
##इज़
##िकेश
जादु
##्कल
वेर
##प्राय
वैश्य
घराने
सौभाग्य
163
खोजा
पहुँचते
मौजूदगी
प्रौद्योगिकियों
१९६५
पेरू
विकल्पों
उभय
भूकम्प
उत्तेजना
अनुमोदित
विचलन
आइट
##ीता
##टॉप
परदे
तोमर
कैदियों
पूंछ
विभव
सम्मुख
##eng
वीज़ा
जीवाणुओं
अखा
पोर
पोषित
वसू
वफाद
##ढू
##नाय
##ागार
##साचु
कहां
हिज
युवराज
मारकर
अन्ततः
असें
कैल्स
बिली
स्पष्टीकरण
##old
सुलतान
१९७३
संगठनात्मक
शुद्धता
हटाया
घूमती
उद्यमी
all
डब्ल्यूडब्ल्यू
आवंटित
घोड़ों
अज्ञान
कनि
गभ
नारा
बराब
##शों
##पाट
सेन्ट
कोत
राजेंद्र
कुम्
कुंभ
मुस
लेनी
##ाइकिल
ब्रित
##क्रा
##न्ती
जानकी
प्लाज
कांगो
सिरों
आइलैंड
##भूतियों
सच्चा
##angu
हावी
क्रूज़
एंग्लो
नेटवर्किंग
htm
जया
डल
तख्ता
पिस्ट
##चिन
##ोता
निम्
उतने
मनमोहन
चलना
विचारकों
सुधारने
##ब्रू
बाँटा
१९३०
कागज़
खण्डों
धोखाध
तदनुसार
प्रसिद्द
कुतुब
IV
इले
जुर
हब
##नै
##sc
##ैंग
##और
विस्थापन
संवेग
##त्रेय
सुशील
व्यू
बीटल
टीबी
हाथियों
##amm
निकालकर
##ांडू
पिछड़े
सिलिक
मुद्राओं
डाक्टर
निराशा
हिन्दुस्तानी
डेबिट
चतुर्भुज
अभूतपूर्व
has
गला
पच्च
##्प्र
सामर्थ्य
सरसों
सूक्त
गतिशीलता
##ents
दसवीं
दबाने
प्रतिक्रियाओं
शिशुओं
परिलक्षित
अन्ध
जना
तंतु
धनात्मक
लह
सॉल
##बाज़
##ton
##गृह
##ौजी
##28
##ॅक
स्थगित
अनुपालन
बीए
##िपूर्ण
स्टर्लिंग
##ंबी
फ़िल्मी
बाड़
महाकवि
१७८
अंदरूनी
पापुआ
##ैप्टन
चिड़ियाघर
सूबेदार
चाणक्य
कंग
##धातु
##गैर
##फेल
मीमांसा
इन्हे
नियंत्रक
रस्सी
1909
पॉवर
पहुँची
हाइप
धुंध
पूज्य
गोकुल
जमशेद
De
छठ
बोट
बर्ड
३९
##ाधीन
##rip
केक
जासूस
##ंडलीय
स्वराज
अंगुल
चार्टर
आपत्ति
संगीतकारों
डीजल
दिखते
अंकन
प्रशासित
महादे
फैलाने
##क्को
बेसबॉल
also
पनप
Indian
शिथिल
NA
div
गन्ध
गिने
जता
##ान्
##िकट
##्रमुख
##ीयर्स
गुआ
अभिस
##िक्षण
रेती
पत्रकारों
पतला
अफसर
पाठशाला
##ब्रह्म
1907
प्रोसेस
गर्ल्स
नकद
मनीष
एलेक्स
व्हिस्की
क्रिश्चियन
दंगों
नोड
फेयर
हाय
##धीर
##ta
##land
##शस
##णे
##SA
##ासाह
विशेषतः
समझता
आसमान
मामा
##ड्डी
पहुँचता
चालित
कैमरून
पूछताछ
चयापचय
धोखाधड़ी
आद्य
ज्य
दन्त
दर्जन
सूप
हन
##म्र
##्यम
##्वार
विवाहित
फ़ैस
बिच
पतंजलि
गुरुआ
119
मोटरस
पकड़े
रैखिक
बांग्लादेशी
सक्रियता
डायरी
1896
गुजरता
##ific
स्तंभों
नदियां
##चिकित्स
##echn
गढ
##ईस
काव्या
##ोगी
कुंवर
##पीएस
लिह
सौराष्ट्र
उठे
बसंत
बजाने
##ोफिल
हजारी
उत्सर्जित
##unction
चुनने
तिरुप
प्रजातियाँ
बाँस
कठोरता
पाठ्यक्रमों
गरीबों
पाण्डेय
वेश्या
मुजफ्फरपुर
वरीयता
बराबरी
trans
एना
एबर
एस्ट्र
एआई
हर्ट
##बेट
##नें
##गपुर
##०I
##ان
कुचल
मेनन
कपकोट
एसयू
बालकों
गुणसूत्र
##िज़्म
शाहर
##नेटिक
अय्य
थाईलैण्ड
मैक्सिको
वानस्प
कनेक्शन
उस्मान
ओष
गेर
डेड
##बानी
##एक
##ृता
##ML
कोन
##िस्म
सीनेट
अमित
##ोपड़ी
रामेश्वर
मीठा
जानकार
निमंत्रण
स्केट
आकांक्षा
बढ़ाते
किरौली
दोषों
आतंकवादियों
शेरशाह
गिलगित
गुज़रता
गड़ब
इंस्पेक्टर
जार्ज
दिने
वाइल्ड
श्लेष
हकी
##गाव
काँच
समरूप
क्षरण
निकास
विशेषाधिकार
अरु
कुलपति
शैतान
निर्देशों
दौलत
रीड
जमैका
व्यवसायिक
ऋणात्मक
सचिवालय
धरमजयगढ
जस्टिस
प्यू
भस्म
वश
##au
##िसे
##्सिल
157
निकालना
अदृश्य
##पलट
आंकड़ा
3000
आईपीएल
कारीगर
समूचे
ससुर
जानबूझकर
सांप्रदायिक
त्रिज्या
यादृच्छिक
पिरामिड
टायर
डोर
नाज
माग
रज्ज
##ंताओं
##रूम
##ru
विंध
साढ़े
देगी
##ज़ोन
ब्रूस
सहिष्णु
आजम
##ica
ख़री
मानवों
रॉबिन
छात्रा
पसन्द
१९७६
तुरन्त
ज़रिये
चाहा
##ude
स्काई
नासिक
लॉर्ड्स
क्रोधित
दुरुपयोग
रिज़र्व
टोरंटो
युरोप
आणविक
##साचुसेट्स
उध
उखा
एग
कवक
डॉल
पाषाण
##साइड
##कांड
##ऐं
समत
##लील
कुष्ठ
वेदान्त
##स्टाइन
मेज़
फ़ी
जन्मजात
##वेरी
जुड
चारो
##ुमन
साहित्यकारों
सन्धि
##यार्क
चिन्ता
मिर्
उठाना
##पाठ
संचालक
##सूसी
बुद्धिम
##नुमा
मसाला
भट्टाचार्य
खिलजी
अवरुद्ध
यीशु
प्रेसीडेंसी
जादुई
ओवरों
ओपेरा
चादर
६२
##ंसे
##man
##FA
कुम्भ
राउ
कार्यशाला
आईं
नागा
परिणत
क्रियाकला
बसों
ताड़
वायुयान
पकाने
अफ़्ग
पोलिश
##ोनाल्ड
मंगलवार
मिथ्या
पंखों
खिड़की
कुरुक्षेत्र
संकुचन
निपुण
द्योतक
एकेडमी
मर्यादा
pol
sup
ईद
कस्त
खदान
थ्री
##oid
कांड
मिलर
ब्रैड
सर्जन
स्क्वा
सैर
पिंक
inter
पकवान
जोड़ते
##्हे
##्वाधर
विजेताओं
अंडरटेकर
00720
सुलझाने
इवान
एस्क
नां
पिया
बख्त
##बोन
##जीन
##ृष्ठ
##NS
विड
करनेवाली
##िंगल
ग्रांड
कॉर्
हराने
पश्चिमोत्तर
श्रृंगार
ट्रान्स
गिरती
जेफ
जमींदार
##िश्रण
फिलिस्तीन
वानस्पतिक
part
tw
छु
डुब
तनु
वड
६००
##जाने
दोहराया
##ेडा
देखती
कॉन
##चेतन
सांसार
##ानुक्रम
आर्द्र
आदर्शों
मेडिसिन
ईस्टवुड
असफलता
आभासी
गेट्स
जौहर
प्रावधानों
747
कार्निवल
फ्लाइट
एमी
जिया
पावन
यक्ष
वशिष्ठ
##पट्ट
##गली
##LA
##िकर
काया
हुमाय
लेह
महज
स्वरों
पुकारा
निकोबार
##ग्राफ
मौसमी
सतर्क
##ूमत
एमएस
जनसंघ
कोलम्ब
गोलार्ध
अध्यायों
अस्पतालों
काउंट
जुलती
कैपिटल
दिग्ग
अनावरण
इंतजार
सेंटीमीटर
Ab
Wh
इति
घर्षण
दाई
ब्यू
लोधी
##सिंग
##oth
##फिल
##भट
जासूसी
अनार
##लेटर
लगाव
सुष
##ंधर
वैधानिक
दूरदर्शी
जीवविज्ञान
##reat
रोजर
सोचने
जॉर्जिया
अश्वेत
नमूनों
पेंटिंग
एस्टेट
असंतोष
घिरे
सभ्यताओं
चचेरे
ऐं
छवियों
पों
पिय
हां
##एएस
##अस
कीटना
##ालिक
##िनिया
ज़ोन
लाते
हरद
पौत्र
सम्बन्धों
ग्लू
बाँट
न्यायाधीशों
कमजोरी
मॉनमाउथ
प्रशस्ति
इथियोपिया
गभाना
equ
ब्य
शायर
##yd
##मू
##CO
प्रक्रम
विप्र
##न्नति
##हरि
##ंबन
##वादा
कॉर्न
भूमिकाएं
आलोक
##पाती
साइबेरिया
मिलेगी
चरित्रों
छत्रपति
ट्यूमर
स्टैनफोर्ड
चुनौतियों
द्वंद्व
गम्भीर
Man
माइल
लोर
##वेर
संबन्ध
##ायड
##ंदेह
दुग्ध
क्लीन
न्यूयार्क
साधारणत
हस्तियों
१९६३
आर्कि
सुखद
गर्भग
विधाओं
स्विट्जरलैंड
निःशुल्क
जार
डोग
तब्दी
प्व
पदा
लक्
##जिंग
##्जर
##यानी
स्वैच्छिक
##ेटा
क्राइ
##ोधित
##धिकृत
##चेरी
गोबर
पहुंचते
घटनाएँ
##amb
##rop
##eld
रोकना
ईसाइयों
मसाले
खतरों
कांति
ऑटोमोबाइल
फ़तेहाबाद
##ोग्लोबिन
सांसारिक
एब
झुक
टाल
डैव
तांत्र
बाम
७७
९५
##सनी
##ैम्प
##ण्टी
इसरो
##वाड
##वाक
##ेरो
विक्टर
अमूर्त
माथ
##फ़ेयर
##ोप्ल
##वेस्ट
##द्रिक
बढ़ाना
सामान्यतया
ख़िताब
##ोरीन
सुपरमैन
सम्मेलनों
तिरवा
बंधक
इराकी
##ubl
बजाया
जोशीमठ
काठम
Par
झांसी
डेस
फर्ग
##लिया
##थ्य
करम
परतों
सीपी
माफी
संगणक
पारदर्शी
चार्ली
दर्रे
पहुंचती
149
मोहित
रोकता
##ूषक
शक्तियां
मजबूती
१९७९
वेस्टर्न
जुड़वां
मंडप
one
वामन
Le
गवाही
बकरी
भांग
सख
सत्रों
##pen
##खास्त
##मंत्र
##मोन
##तांत
##्लिया
##्पर
मुकेश
##स्तरीय
जानेवाली
वैली
खिलाडी
श्रुति
वृन्द
कपाल
पिण्ड
पहुंचता
क़ी
इन्ही
आइं
१९७४
गृहस्थ
वस्त्रों
यूनिक्स
अँग्रे
दिनेश
Bh
चढ
पेंस
पटल
लत
##शासन
##नेन
##्वित
##तीकरण
बहुरा
##द्युत
बेकार
रेणु
बाएँ
राष्ट्रभाषा
ब्लेक
प्रतीकों
##न्यासी
रणजीत
##ट्रिक्स
यथार्थवादी
सीमांत
खैरागढ़
गर्भगृह
कन्ह
डोल
पम्प
शर्ट
शिष्ट
७३
##पल्ली
##ॉक्साइड
संध
संक्र
##ेलियन
प्रतिहार
प्रतिफल
मैके
ज़िम्ब
पासवर्ड
##मेन्ट
##urn
पोते
रिह
अनुराग
कॉमर्स
गतिविधियां
टुकड़ा
घुमाव
पांडवों
वेगास
छुट्ट
गान्
अल्फा
लद्दाख
पटियाला
चालुक्य
राई
##सृ
##ेण
##ेशियाई
क्षित
##किंस
पारस
ट्रांज
रचनाएं
नागार्जुन
युगों
लैब
##रावती
नीलामी
डाइऑक्साइड
फिनलैंड
मुक्केबाजी
वल्लभ
असमानता
नास्तिक
As
Cent
आड
ऐश
ओएस
टोट
तैल
मंस
106
167
जेने
सूचनाओं
निभायी
जूना
मोरक्को
आनुवांशिक
पराशर
प्रभाकर
##िपुत्र
Ac
कृत्य
जश्न
८३
##साह
##व्यू
प्रॉ
##हीरो
##मेंस
कार्यभार
पीड
वैवाहिक
##ोर्टर
##परिवार
टेरी
गैरी
12वीं
निर्णयों
काउंटर
कालाढू
वाइस
संप्रदायों
बाधाओं
विनाशकारी
वाद्ययंत्र
विधायिका
शुभारंभ
असेंबली
एबरडीन
गम
घना
भान
मित
एकाग्र
अनूप
##नीकृत
कुत्ता
##गराज
##बीएस
##डीआई
##कलिन
दरार
वास्तुश
148
अश्ल
एजु
सूक्ष्मदर्शी
नाइट्रेट
प्लेटफॉर्म
क्यूंकि
मैथ्यू
कब्रिस्तान
##फ़्तार
एंटीबायोटिक
पंद्रहवी
Col
अज़र
डिए
मिज
राँ
सिक्स
##ient
##०म
##र्नी
##ादपुर
##ष्कर
विश्वव्यापी
बनर्जी
गुस
##वेत्ता
गोवर्धन
158
बंगला
महान्
पढ़ाया
रक्तस्राव
##ild
रैली
मुहैया
प्रचारित
जटिलताओं
क्वालीफाई
डार्विन
It
आबाद
भृ
वज़न
##ma
केंट
सेब
करुण
अपोलो
बहरीन
अमीनो
हिब्रू
##ग्रन्थ
कालक्रम
प्रबंधित
मिसाल
कम्पनियों
##एनएस
बीजिंग
this
परम्पराओं
ज़रूर
बुराई
00719
उतरने
शहद
रोमानिया
उषा
रिले
##ंस्टर
##एडा
##घरा
##पिंग
##आइ
अपूर्व
##ापर
हील
##ोरियन
टीके
शैवाल
ब्लेड
वंशजों
टुकड़ी
प्रतिभाशाली
कल्पित
छपाई
सम्भवत
सगाई
संस्थागत
दुष्प्र
numb
कफ
छे
दुखी
वसी
शील्ड
##मेशन
##ाजित
समांतर
जब्त
##िपति
गुम्ब
आवश्यकतानुसार
बालिका
चिंताओं
गुणन
वारिस
##रावली
१९८१
ग़ज़ल
विवेचना
##थेरेपी
पोर्टल
क्षतिपूर्ति
यूएसए
उदारता
सतीश
अरविन्द
दारा
शेड
##डिय
##सिन
##पोत
##पत्रों
केसर
प्रांग
##केत
##केतु
##ाइनों
भूरा
##िक्षा
बेताल
मौद्रिक
##ins
शिक्षाविद
लीड
##ोडो
बसु
तटों
मगरम
रोलिंग
आचार्यों
सार्वभौम
भतीजे
कोच्चि
बहुराष्ट्रीय
km
एलेक्ट्र
क्ली
खानों
चूक
थाना
दफन
फिज
मंथ
##ध्रु
##्ज़ा
##एशिया
##भाजन
साग
कुंज
मुस्क
##ाइंट
##विद्
क्षार
##िलाडेल
सुधा
जैत
मैसाचुसेट्स
आमिर
##िस्ट्रेट
पदवी
चौड़े
हाउ
103
##शीर्ष
डेथ
विधायी
सीमाएं
तुमने
1902
1890
१९२०
##संग्रह
उत्कृष्टता
ज्वाला
मानदंड
वर्जित
##छाड़
बाराकोट
आईबीएम
गंतव्य
तब्दील
SO
अंस
डो
बची
लामा
##बॉक्स
##कोल
##ूज
##ौकी
##भूषा
##र्विज्ञान
##्वारे
विधिक
##स्टा
कमाने
##ंची
हरिश्च
##arb
कलिंग
आईओसी
जानकर
निमोनिया
चिकन
129
145
फलत
फलक
आर्द्रता
गुजरने
इंस्टिट्यूट
साँस
दिलाई
सराहा
ग्लेशियर
मोटरसाइकिल
Bl
ठुक
तिमा
बघ
मट
शिन
सल्ल
##रर
##खाना
##्हार
##्शा
##व०
प्रया
संको
##ुराह
राजतंत्र
सुखा
सर्च
वैयक्तिक
आईसी
हाफ
वीणा
आसीन
धीमा
पढ़ना
##ड्डा
खोले
न्यायालयों
शांतिपूर्ण
क्रिस्टोफर
उभरी
सावधान
साँप
ज्वालामुख
फेंकने
त्रिकोणीय
इशारा
लचीला
स्मारकों
उत्खन
मगरमच्छ
अघ
ऐश्व
जहर
फट
फिक्स
##बैंड
##चारा
##ग्ग
सावर
निर्वासित
अमीन
बारूद
प्रतियों
विशेषत
पर्दे
##वासा
सैंट
##lex
##स्पेस
क्रमबद्ध
क्रियाएँ
शक्तियाँ
बाग़
##्हण
गांधीजी
१९४९
##हीनता
##संख्य
सरदारों
क्रांतिकारियों
पहचाने
दीपावली
फुफ्फ
##च्युत
विक्रेताओं
Comp
मरुस्थल
क़ुरआन
सब्जियों
अश्लील
NET
फूड
मोग
यूपी
लांच
वॉट
शाय
सस्ता
८४
##दनी
##ृहीत
##29
##CW
##्वत
परगना
##वायरस
##िपा
##ंबा
बैले
टीले
शाखाएं
सिकन्दर
##कृष्णन
खुलना
बूंद
छुटकारा
मैग्नी
कच्चा
फ्रैंकफर्ट
त्योहारों
जुर्माना
विशाखाप
यूसुफ
शाहरुख
Co
आफ
खेर
टाप
फत
##िगर
##कास्ट
##ey
##ूर्वक
कुर्सी
##ावटी
लग्न
बीट
मेडल
अवां
मीणा
बुर्ज
##्युट
ज्यामितीय
महानतम
रुझ
यादगार
लोदी
मांगा
शिलांग
सुपरहीरो
१९६१
आतं
मनोरंजक
पिक्चर
ट्रेडमार्क
पूँछ
साहसिक
फिजी
कृषक
ईस्टर
ओन
घाना
धकेल
##भद्रा
करौली
##ांगी
जोहान
कुं
##ागिरी
सुदर्शन
मैर
##मीर
जन्मी
फिल्माया
##र्निंग
लिंकन
एसएस
मल्ह
उठी
गढ़ी
१९४०
इच्छाओं
पत्तियाँ
जूझ
समन्वित
भयभीत
नकदी
##ादेवी
तुर्कमेन
केदारनाथ
ज़िम्बाब्वे
mod
गन्ना
टेड
५९
##चौ
##वद
##्सिया
अधिकाधिक
मुखर
##म्बली
बढ़ाता
##ara
##न्द्रनाथ
पेरी
115
##कर्मा
##ेंसिक
पदार्थो
फ्लेम
लिपियों
बर्बर
१९५७
##oph
पुनर्वास
हल्दी
प्रीमियम
वसूल
इजराइल
संयंत्रों
बाघों
फ़्रांसिसी
आंग्ल
उत्प्रेरक
घुटने
क्वींस
मर्सिडीज
For
ईयर
कंद
खर्
तारक
लेंगे
वहा
शेट्टी
##िंदर
##लिक
##ोशी
##वमेंट
##RS
##ँख्या
##LC
##ार्ग
##्युर
काष्ठ
##ाल्ड
##िलन
##ासर
##्लू
भारते
##ंतुक
##्बों
सुवि
##स्टी
कैस
पूना
##ोपोट
##दार्थ
रेस्ट
करतीं
बलूच
##ेंटाइन
##ोतरी
107
##िनेशन
पूर्णता
एनएच
एंडी
१७६
रणवीर
फैलता
एथेंस
दार्शनिकों
बमबारी
जनसँख्या
विनियमित
झरना
कदाचित
कठपुतली
BM
अयोग्य
झंडा
##हों
##ानुक
प्रोम
काई
##ादों
अनन्य
निर्म
सुमेर
उत्तरप्रदेश
निर्माणाधीन
परिधान
##alle
रामानु
आयत
बलोच
बॉबी
बीजापुर
1880
शौर्य
यथार्थवाद
यूनिकोड
निर्दोष
पीतल
कोरोना
रोमांचक
em
आकृत
इनाम
गोर्
छी
शशि
##छनीय
##ानिक
##िक्रमण
##िरल
##ेट्स
मारवाड़
##hel
109
जेरी
ब्रह्मपुत्र
बैठकों
##ब्रिड
ब्राह्म
संयोजित
निष्कासित
मसौ
रजनी
अवतरण
str
पाण्डवों
शिलालेखों
मार्केटिंग
##पोलिस
सिलसिला
फैक्ट्री
सईद
श्रीनिवास
मुठभेड़
ब्रितानी
तांत्रिक
मिग
##रंग
##खला
##२७
##्यायन
##ेशंस
देवा
मुज़
बीजों
ज़िक्र
कलाकृतियों
वृंद
तुगल
डिज्नी
अशुद्ध
कनाडाई
१९६७
चढ़ाव
इण्डोनेशिया
दावों
लिवरप
पठान
प्रातः
खड़गपुर
बिस्तर
चिम
मर्म
माली
शॉन
९६
##कप
##णाल
कोइ
संन्यासी
##नीर
##राश
सिमर
1800
नाड़ी
सांद्रता
##ार्जन
गलिय
१९७८
वेल्श
कराए
माइक्रोफोन
नीलक
हरिहर
##ार्जिलिंग
अत्याधिक
अधिवक्ता
तस्वीरों
तिरुवन
ओबामा
ऑप्टिकल
ठुकरा
एस्टर
डिब
धै
ध्या
पठन
##oog
##ोकर
##na
##तीर्थ
##ांक्षी
अनगिन
मुबार
मिल्व
अवकल
बैंग
ओरिएंट
##जनित
##ina
अर्पित
101
चित्रकूट
##ited
एडवें
आयुर्विज्ञान
एयरबस
##व्रत
१९६४
हवाओं
rec
रजिस्टर
लोहिया
शत्रुओं
पुनरावृत्ति
भागीदार
आतंरिक
आदी
ऑयल
तिक
पियानो
फेन
बर्त
लाद
सगर
##हिरा
##वु
परवाह
अप्स
मुहर
##ानेक
महलों
सामयिक
मैनु
कार्यक्षमता
ब्राय
##भावी
फ़िल्मफ़ेयर
शाश्व
पेशावर
श्रृंखलाओं
यात्राओं
सुनते
विमानन
जिमी
वेदांत
सड़कें
बीजगणित
१९५४
खरीदारी
मस्जिदों
सिंधिया
शुक्ला
बटालियन
एकाधिक
उभरते
१८५७
बुधवार
दुल्हन
एंटीबॉडी
##व्यवस्थित
द्विपक्षीय
शॉपिंग
महानिदेशक
कैल्सियम
अकार
एबी
घेरा
चांस
हड
##ैतिहासिक
##DP
प्रवी
##ियाल
विचरण
निषि
रहस
##वीवेट
स्ट्रीम
बार्सिल
जातीं
लीवर
बदली
तेरी
अम्बेडकर
वेशभूषा
कासिम
हिमनद
प्लाज्मा
कसम
पात
फाँसी
लां
६७
##िद्र
##ुवाई
साड़ी
##ापे
उसमे
##द्धार
##ावक
##विशेष
कमिश
सरोज
देशांतर
सूत
##शीद
रचनाकार
मालिश
पंचमी
संभोग
रुपया
##ages
बर्बाद
१९६९
१९४५
धारावाहिकों
काशीपुर
##outh
चुंबक
कहलाने
वियना
कालाढूगी
अनगिनत
बार्सिलोना
अरावली
तदन
फिलाडेल
बांड
##फली
करिश
##तिमा
##थाइल
सिंथ
गुच्छ
##वेदी
असं
आवृत्त
प्राचीनकाल
##als
लड़क
मॉरी
वंशावली
संग्रहण
जरुरी
गाये
##भाषिक
बर्खास्त
पथरी
अमृतपुर
तात्काल
कनेक्ट
##earch
कहलगाँव
बरसात
ठेके
धन्यवाद
बेरोजगारी
Mah
des
ऐक्ट
ओवेन
कड़े
मदि
##aus
##चर्या
विखंड
विस्म
समाक
##केर
थापा
##वाडा
##्डन
##्रेषण
सुर्
##मीमांसा
कंपन
रामगढ़
नागौर
##िब्र
रॉस
##omet
चैर
बोल्ट
साम्राज्यवाद
निरस्त
तत्स
##भाष्य
ग्लै
##ंघाई
फिल्टर
प्रीति
अंशों
म्यूजियम
शेफ़ील्ड
प्रभारी
दीवारें
संहिताओं
छिपा
वायुमंडलीय
दलितों
उर्वरक
अलेक्जेंडर
बद्रीनाथ
AD
आंब
कर्ट
कभार
गंज
घनी
जेड
वत्स
##ैना
विन्
##्था
समालो
किन्न
##ाहिर
जनजातीय
##ating
आसवन
##itt
न्यायपालिका
भेजता
मनोनीत
पवित्रता
आकाशवाणी
नक्शे
टीकाकरण
##rib
स्तनधारी
ललिता
##विलास
घुसपै
हुक्म
उखाड़
Cor
his
आर्च
एलेन
चुरा
झड़
टर्नर
बन्दर
७६
##tic
##मोह
##ST
##ेंगी
##र्स्ट
कोकेन
विच्छेद
निवेदन
##सीया
स्तोत्र
धर्मशाला
कलश
##िनेस
धनराशि
माधुरी
ऑक्सीकरण
सीरियाई
मजाक
ताजिकिस्तान
गुंबद
क्षितिज
डिएगो
लिवरपूल
घण्ट
हैस
प्रह
परो
##ादान
राजक
अधिष्ठ
##्डर
कम्यु
मार्स
पारि
##र्सन
##वार्ड
शीश
शासकीय
विशालकाय
##धरन
तत्पर
मायने
आपूर्
डगल
रमन
##बहार
##खलन
##्रक
कुच
मैग्
##ोधक
##atic
##पीए
##ions
त्रास
विजुअल
दिव्या
साइमन
##etw
##आरआई
##oss
छात्रावास
वॉर
विवरणों
जमाव
मछल
खगोलशास्त्र
बारीक
WWF
##व्यवहार
डैनियल
बिन्दुओं
सिपाह
घेराब
निषिद्ध
Ag
अन्
आरेख
मद्य
रवै
वू
८१
##बाज़ी
##घाती
सेवार
उनमे
द्वाद
मुश
बहू
फ़ैल
गुस्से
पार्टन
चलाना
कालान्तर
प्रत्यारोपण
पंक्त
एमटीवी
##्फिया
##स्वरुप
मूर्ख
प्रोटोटाइप
##irst
१९६६
गरुड़
१९४२
##्वाडोर
सीखना
स्वादिष्ट
हिरासत
नतीजा
पारिस्थितिक
ब्राउज़र
मिल्वौकी
जट
दूषित
दार्जिलिंग
नकार
येल
शंघाई
९७
##गोन
##ौटी
##ियाबाद
होटेल
राखी
बीघा
##वेज़
##ery
सदिश
प्रणाम
निष्कासन
परीक्षाओं
##लेटिक्स
कोशिकाएँ
उभरे
ईमानदारी
श्रद्धालुओं
तख्तापलट
घुसपैठ
function
डेनिस
ताई
न्यु
व्लाद
##बूल
##कॉम
##por
##ii
##दर्द
##ंगर
कारगर
सक्से
मानों
##्नि
##ान्तिक
चौबीस
##चित्य
नाख
सीमाएँ
##ural
उड़ने
अहमदनगर
जागृत
बोतल
मूर्तिकला
वसूली
HD
इटावा
धवन
हठ
##जना
##ॉर्न
प्रेत
संहार
##ांडी
##ोट्र
बिज़
##ाटे
रामदेव
डेव
पानीपत
पहुंचाया
संतृप्त
प्रशिक्षक
अक्षम
संविदा
डायल
1899
बतलाया
##पेटाइटिस
टेक्स्ट
डॉक्टरों
गोमती
फीसदी
घुड़सवार
काठमांडू
##oogle
आमा
उथ
घोंस
चारा
पसी
मांड
##ele
##जेशन
##ेंशियल
##ामिया
महाल
सबका
होनेवाली
##ेनस
पैकेट
##ुकु
पहुच
##गण्य
साइप्रस
गुरुवार
तंत्रों
साहू
दवाएं
प्रोफाइल
1870
पुर्तगालियों
पार्कर
चीज़ों
ढाँचे
ऑब्जेक्ट
डगलस
आसि
ईथेन
ओरे
छठा
नफ
पडा
वुल
##ti
##फिन
##भू
##अन
##ेंसर
प्रभार
प्रज्ञा
मुहा
लेब
लेगा
##िवि
महि
प्रतिमान
##ुलकर
जनवादी
बैच
जुडी
##ala
##ान्ति
कोशों
विलायक
144
आत्मनि
मिलीमीटर
##ॉप्टर
अशु
आदेशों
श्वेता
ट्रेनिंग
रेशे
अपरिव
चटर्जी
वर्जीनिया
भुजाओं
मुआव
वास्तुशिल्प
Is
उक
फोरम
##ंर
##पिता
##ाजत
##ोग्य
मुंशी
सिंक
उतारा
उत्तरोत्तर
##गाथा
लाता
नीच
दरबारी
खोजों
हॉस्प
रसायनों
मिशनरी
बुल्ग
360
1860
स्तनधारियों
उदारवादी
प्रतिभागी
तरंगदैर्घ्य
इण्टर
मद्द
हिला
७४
##हट
##शोर
##टाइम
##con
##ईसी
नेल्सन
##स्थली
##स्कूल
अस्व
लीबिया
माध्यमों
मतानुसार
कैलिफ़
नरक
मोना
करोड़ों
सोचते
मिथुन
बंदरगाहों
बाईं
नुकी
दिलाया
डायरेक्ट
सहस्रा
प्रोटेस्टेंट
मताधिकार
वायरलेस
हीमोग्लोबिन
वेस्टमिंस्टर
तिमाही
भारतेन्दु
बध
वूल
हाम
##डियन
##ोत्री
##BA
विव
##िस्क
##्लि
सुगम
कार्यक्षेत्र
##टरियों
चुक
वैंक
अतिशय
##ूमन
बताये
तैम
##ाणुओं
न्यास
मिज़
गल्फ
मूक
सिस्टम्स
चढ़ा
१९५५
श्रेष्ठता
शल्यक्रिया
समायोजन
श्रीमद्
codice
किन्हीं
तालिबान
शाश्वत
आउ
तुक
नूतन
पन्न
##ेसी
##२९
##ऊं
हैः
##नेगर
##्वाक
करुणा
साध्य
जोड
कुख्यात
सिरा
स्टेम
वैक्स
##ाटक
अमेरिकियों
ट्रेलर
##कलैंड
##ंतुकों
संग्रहीत
मेट्रोप
##्वेस्ट
हमलावर
चढ़ने
शेयरधारकों
संदेशों
पुस्तकालयों
शत्रुता
ऋषिकेश
मॉड्यूल
निर्वासन
एनीमेशन
एशियन
घोटाले
##गांठ
पैदावार
मल्होत्रा
Kh
id
so
उभार
किय
गियर
चिट्
तौ
शील
##oz
##TP
##gh
हैम
प्रच
##न्को
विन्स
##ाम्
साख
कुंडल
महंगा
पुत
बहराइ
##ोटीन
##जीवों
##िटक
कहावत
##ोर्क
##ise
वार्म
बौद्धों
साइं
झीलें
१६८
रिहाई
उल्टी
तर्कसंगत
1903
१९५२
माधोपुर
मंडली
कीर्तिमान
Comm
पूर्वाग्रह
##ternational
संकुचित
रिलायंस
कोलेस्ट्र
महापौर
right
चाक
झटके
फाउ
##ध्व
##बोर्न
##हिया
##शक्त
##शतक
##ारो
##ताकार
##्याग
##ापत्र
सीढ़ी
बीएम
##्यूं
मारना
देशभक्ति
##ature
##ali
अनेकानेक
128
छोड़ना
116
बॉयल
सचमु
कृत्यों
एथलेटिक्स
1858
पापों
##que
खिलौ
##ization
मेसोपोट
अन्वेष
मोर्चे
शूद्र
विध्वंस
अल्जीरिया
ne
pre
आटा
कंज
जरा
टोप
थोक
##लोग
##दाई
कीड़े
कात्या
जाटों
दुम
बेज
पैट्रिक
आवर्त
पर्दा
अर्ब
बेटों
विनम्र
रिपोर्टों
चंद्रगुप्त
पॉइंट
##कुलम
##वर्षीय
इसीलिये
सुगंध
योद्धाओं
फेडरल
चंपारण
पुनर्जन्म
प्रोफ़ेसर
प्रांगण
Sch
name
ऐप
कशेर
मून
मूँ
रमा
रोप
##िडी
##डोस
##ूमा
##्शी
##प्रमुख
##ियोट
निशा
अधिश
पुट
पाटल
उत्तरार्द्ध
दुर्द
कलन
##ान्तरित
बदलना
उठने
##ely
बैठते
लाइक
लौटते
गरिमा
चमकदार
दायित्वों
छंदों
##ोपैथी
##पश्चिम
स्क्वाड्र
वृंदावन
सक्सेना
सचमुच
out
असे
अख़
इंप
ईर्ष
खड
फ्लाई
##हेड
##हौला
##af
##२५
##IT
##ावे
टीपू
कल्चर
बोलता
ग्रीवा
कार्बोनेट
भुज
खाती
रेखाएँ
१२०
संघर्षों
एवरेस्ट
अवतरित
नोएडा
भ्रमित
इकोन
एकाधिकार
इकट्
कंकाल
कट्टरप
हुकूमत
सहभागिता
उपसर्ग
तैराकी
फिक्शन
पाला
माद
हक़
६८
##उदी
##हटी
##सारी
केली
##लाय
अनजाने
देहा
सुले
जीभ
##ोनियन
रामचरित
ख़बर
चिकनी
लैं
क्वा
सॉफ़्ट
छिपे
##ण्विक
इंजीनियरों
प्रागैतिहासिक
एक्सेस
जबरदस्त
BC
New
खट
धक्का
फेलो
योजन
##रहित
##षाण
##्रिप्ट
##ार्म
काज
निर्धन
##फ़िक
हम्म
जलाल
सतही
हिसार
##ोबिया
हारने
पढ़ी
दर्शनशास्त्र
स्टार्ट
1895
समीक्षाओं
##मोचन
खींचा
This
मोंट
Univers
जुटाने
बगीचे
चूहे
कॉपीराइट
बिताने
जिज्ञासा
सिलिकॉन
फिलाडेल्फिया
gen
चुर
जाली
सस्ती
७९
##कौ
##ेन्ट
##रेक
सीआर
अन्यत्र
##फ़ेस
बेकर
समझकर
पतंग
वायरल
सनहौला
द्रुत
बहुवचन
महीन
सलामी
ब्राह्मी
ध्वनियों
१९५९
प्लेटो
अदालतों
सच्ची
खींचने
जुलते
ख्याल
कोंच
अनुसूची
इलाक़ों
शाहजहां
बिखरे
रिएक्टर
##ोग्रुप
लॉरेंस
नशीली
पनडुब्बी
दफनाया
हरिवंश
Ge
new
गंड
चंदन
छिल
माज
यदु
##खले
##ऑन
##्युलर
##न्टन
विदा
सावन
सीक्व
सब्स
##पुरं
स्टेर
अभ्य
फिल्म्स
निर्वात
आग्ने
मॉन्ट
खरीदी
१९६८
उन्नयन
मैगज़ीन
मयूर
प्रतिबिंब
रत्ना
ऊर्ध्वाधर
गान्धी
but
अँ
रश्म
सनी
##केंद्र
##ओवर
##यानों
प्रिक्स
परोसा
उपभाषा
मिलिट
स्कन्द
फ्रॉम
चिद
प्रायश्च
मॉर्गन
कथाकार
मोटर्स
विश्वासों
सभापति
मेटा
संभावनाओं
वॉच
##दर्शिता
जुलूस
प्रयोगशालाओं
##सूरती
बिताए
ईंटों
अनूठी
पर्यवेक्षण
html
अका
टिप
तना
त्रे
फोकस
वक्ष
सों
सला
८००
##वला
##ject
##ामन
##कारिणी
##वाकर
##साधन
##ोलोजी
मैक्र
अलास्का
विश्वकर्मा
कैसा
##बीज
मध्यस्थता
सारांश
##ings
पांचवीं
गोलियों
बराम
पहुँचकर
उल्टा
अम्लीय
सत्रहवीं
हाइब्रिड
##ange
शौचाल
स्पीकर
मालाबार
प्रविष्टि
ज़िन्दगी
डिस्ट्रिक
उगाया
तंबाकू
कैलिफ़ोर्निया
langu
इकल
पील
रेक
##यरी
##ोचित
##दीन
##्रिक्स
विथ
अनजान
महाजन
दोहा
जैकी
##वनि
##ंजित
असु
पैग़
जलन
आमेर
अर्ल
एल्गोर
##पीसी
यूटीसी
१८वीं
प्रायोजक
खोजी
धनबाद
##िकल्स
रोमांच
ध्वन्या
सोमनाथ
मांसाह
डोमिन
##नांकित
##किटेक्चर
मानदंडों
नासिर
डेब्यू
उछाल
डेस्कटॉप
विरोधाभास
पेंसिल
उत्खनन
बहराइच
आवेग
##घूर्ण
##ॆं
##यामी
##र्ते
कामा
##ाँग
महंगे
सुव्यवस्थित
वर्षगांठ
##प्रधान
##म्मी
सैट
##ूतों
123
118
नाटो
क्रमांक
उड़ानों
##irc
##ope
1898
मगही
जोरदार
पोर्टलैंड
गोलीबारी
बड़ौदा
लाओस
फोर्ब्स
रीमेक
जूनागढ़
सावरकर
imp
आंत्र
छपी
टोब
डोप
हत
##सिक
##ool
##HO
हैपल
##्मृति
##स्फ़
मिल्क
कैश
कैसल
अवॉर्ड
धर्मसूत्र
श्राप
पुनर्म
पिताजी
डॉट
आगंतुकों
आधुनिकीकरण
चैपल
क्रियाशील
##ज़रलैंड
सपाट
१७५
##ारोहण
ग़लत
चतुर्द
शौकिया
शरणार्थी
पदोन्नत
युनिवर्स
मदिरा
अरे
अचार
किक
ट्री
नंदी
##नित
##एट
##TA
##ौम
कोट्ट
सीटी
##ेनियाई
##ंकित
देशभक्त
##स्करी
स्पॉट
लावा
अबुल
##orth
##स्थानिक
मिर्ज
मिसौरी
रसोई
एफबीआई
टिप्पणियों
##प्लिन
##ोइक
क्लाइंट
सरीसृ
डिस्प्ले
चेयरमैन
##संख्यकों
सिपाहियों
घेराबंदी
हैपलोग्रुप
AC
ब्रेड
मझ
राइन
##जिये
##्नाव
##RP
##१२
कोम
##्वेनिया
##रीज
##ातंत्र
पाटिल
कहें
##ेनर
तरुण
##ोपनि
##स्कोपी
कल्चरल
चौथ
गुणांक
भगवानपुर
खुदा
1894
शौक
महाद्वीपों
##ोवाकिया
खजुराह
##मूलक
मांसपेशी
##ारूढ़
ग्राफिक्स
नैनो
क्रियान्वयन
प्लैटिन
पिस्टन
धैर्य
ऋत
चांग
टोल
तर्ज
पक्की
बफ़
रॉल
लांग
##SE
नेविग
##ाहट
##साध्य
अमोनिया
स्ट्रे
अवगत
अभिजात
वैसी
हालात
खेलती
राष्ट्रिय
##ेदिक
ख़ली
139
##els
फ्लैट
निगमों
प्रत्याशी
आयुर्वेदिक
वार्तालाप
लिट्टे
वैधता
##्रूख़
कैफीन
अलंकरण
बृज
प्रादेशिक
HT
##गड
काबू
सुश्रुत
कमरों
प्राणा
##प्रस्थ
पीएस
बेक
कॉफ़ी
बाक़ी
बलुआ
15वीं
##िगुण
127
##शाख
चरित
बाजरा
एल्बमों
उत्कर्ष
1885
खुलने
Instit
ग्रीनहाउस
प्रशंसित
फसलें
स्क्रीनिंग
उत्साहित
विश्वसनीयता
क्लाउड
##िगोचर
poem
रेडियोध
क्योकि
दुष्प्रभाव
आरण
आजीव
गोट
##ोय
सम्य
उपवि
##ाईल
##ीराम
संख्यात्मक
124
त्राव
पुरुषोत्तम
14वीं
सुधारक
शक्तिपी
##ograph
फ़र्रूख़
रेखांकित
निशाने
बुलंद
##वेल्थ
पहाड़ियाँ
नालंदा
स्टीवर्ट
एस्पिर
अप्सरा
सॉफ़्टवेयर
Ed
अता
अमा
खंभ
दंप
नू
रान
शब्
##डेंट
##ोदा
##प०
##Hz
##नातक
एक्व
##्यांग
द्वित
पुरु
कैरी
बारहवीं
सूती
##कोस
##म्पसन
##देड़
जगद
एमए
१७३
ग़रीब
पॉलिट
1887
एप्ल
मातृभूमि
##नकपुर
बढा
किरणें
शरणार्थियों
गंधक
राघव
इस्माइल
ओड़िशा
##नैशनल
संकोच
Hind
XX
cal
उंगल
उष्म
ऑग
खोने
टमा
पाँव
बीन
याज्ञ
रशीद
शूर
सचेत
८७
##यर्स
##२१
##२३
##फू
##SM
जावेद
नेम
समेट
##्लास
अधी
कुन
महिल
सिम्ब
सीना
गुदा
##ंजना
प्रशा
जलने
कॉन्स
##arg
रामा
महायान
संघों
##ict
जहांगीर
नौसैनिक
जहाँगीर
प्रबंधकों
रुकावट
संभाली
##्सेल
दसवें
मनोरम
तपेदिक
मकसद
##नाशक
घुमा
वॉल्ट
सीबीआई
उस्मानी
त्रिशूल
मुझसे
काँग्रेस
रेलगाड़ी
नफरत
app
over
कॊ
कली
क्यु
चों
मति
मोत
हंट
##धुनिक
##la
##्दा
##वर्मन
##ृष्टि
##गुल
##भंग
##ैब
##AL
प्रलय
##िलियन
कार्गो
##ागास्कर
पुष्य
##मान्त
अभिक
बेची
विकासात्मक
बाउ
##ाइनरी
श्रुत
##चलित
इंडो
घटनाक्रम
लाभप्रद
विदेशियों
बेहोश
गायों
हजारे
सिकुड़
##ज़ाख़
##चित्रों
हस्तशिल्प
प्रेसिड
कस्बों
डाॅ
कुशीनगर
हावर्ड
फ़िलिपी
क्रान्तिकारियों
मॉरिसन
राशियों
चूहों
एजुकेशन
मुबारक
प्लैटिनम
आटे
ममता
##चेन
##िनर
##्पी
##ागम
##ोकन
ग्रास
अंतरिम
वृष
ज्ञाता
पितामह
ब्लॉ
संयोजक
तलहटी
दृष्टिगोचर
शिवा
अखबारों
गूढ़
उन्ही
मंचन
##ध्यायी
ट्विटर
क्यूब
कोणीय
नायडू
गोंद
चिल्ड
बापू
पिल्ल
कामयाबी
अंडमान
अस्थिरता
मक्खन
श्रावण
प्राइमरी
धागे
थर्मल
हीलियम
PC
उर्व
चूर
पोली
बिम्ब
यांग
लास्ट
##शू
##गू
विंस
##िस्ब
##ड़ला
##नीज
जोएल
अधिसू
##द्धति
महंत
##ाईन
##ोजकों
सीओ
अमल
क्रिट
पैड
पैल
##inc
##ंद्रा
तबाह
क्लैप्टन
आदिल
स्केल
आत्मस
आत्मविश्वास
निकालते
##पाडु
फॉस्फ
कैमरों
उपनिवेशवाद
हरेक
ISO
कायस्थ
स्याही
रिवाजों
राठौड़
##ुर्भाव
रुझान
ag
up
झी
राइड
७००
##ैटिक
मुनियों
##ावान
##न्दे
अम्मा
कैटल
##प्रवाह
बढ़ोतरी
त्रिन
##स्वत
##ग्रीव
१७०
वेदव्यास
दैवी
सत्रह
सोलोमन
आतंकी
एवेन
उद्धार
स्त्रियाँ
पट्टिका
बगदाद
दाहिनी
दुश्मनों
वेनिस
द्रोण
हिप्पोक
डुमरिया
इमरान
तात्कालिक
dif
पका
भलाई
##iod
##TC
कीर्तन
##्डा
सिगार
सीसी
अल्फ़
##र्शी
जनम
अंतर्व
##भावित
भूविज्ञान
जिनपर
क्लोरीन
##जेप
पेप
13वीं
कैलगरी
अलीगंज
परिसी
सप्तम
अहंकार
सूर्योदय
एचडी
##आरडी
ग्लेन
बिक्रम
कोरियोग्रा
बेसिक
डिफ़
उपनिषद्
अंधा
सज्जन
मोनो
आज़म
नारीवादी
आख्यान
##जैविक
Highway
ऐल्कोहॉल
अफ़्ग़
तुगलक
कम्युनिक
अनाम
गाजीपुर
ड्रेस
बसी
वादन
स्ली
##ाकार
##aur
##जनात्मक
##्गी
##मण
##शूट
##bit
विगत
संचिका
##िनम
जोली
कुस
##विद्युत
प्रतिब
नाबाद
138
11वीं
कोल्हा
पेशेवरों
प्रतिरोधक
प्रारूपों
अंजलि
उदात्त
कामकाज
प्रादुर्भाव
स्टालिन
पच्चीस
सहिष्णुता
आवेद
उबर
टोन
राल
वंडर
##जली
##र्बी
सेक्शन
##राइड
वर्दी
##विट
क्षारीय
तोड़ा
मार्ज
अतुल
जिंदा
पूर्णांक
##टेलाइट
रस्म
##आरसी
def
चुम्बक
श्लोकों
त्रुटियों
ईमानदार
आश्वस्त
फ़ैसला
बलूचिस्तान
टमाटर
आच्छादित
टेन
ठं
पिक्स
मशी
वज़
##धीय
##ूबी
##ूंगा
##मिक्स
##फोल
##OL
थेर
थेरेपी
##दिनी
कैरेब
##ेनहा
नीली
नियता
देवों
##न्सिल
##र्भर
दर्शनों
पेशियों
ट्रेनों
अल्पसंख्यकों
##सैट
चूने
##ोलॉजिकल
बहादुरी
यशवंत
डिपार्टमेंट
बेनो
अष्टम
उपासक
वियतनामी
३०००
तांबे
जन्मा
परोक्ष
डिस्ट्रिक्ट
Res
एह
ओब्ल
औचित्य
कटे
डिली
बंज
भूर
##सस
##साद
##सास
##खोर
##वारे
काटा
सेने
सेले
कोष्ठ
अनुग्रह
बहार
चुनि
सर्बिया
पर्सन
बुन
102
पूर्णकालिक
नौबत
चैप्लिन
दाऊ
लाभांश
१५५
डायोड
आर्यन
1891
यथास
dev
अंधेरे
वानर
##वर्गीय
प्रोडक्
फ्रेंकलिन
पंकज
गवर्नमेंट
निम्नांकित
two
फ़र्रूख़ाबाद
ग्लाइ
नोव
भानु
लैन
##तत्व
##स्स
##ied
##air
##ुज़
##ward
करवाई
##ांकों
याक
मैट्रिक्स
##स्का
जन्मस्थान
अभिगम
असंग
मध्यस्थ
##कृतिक
खेलता
अगुवाई
##ingh
बोलती
##एमए
सिक्ख
स्नायु
कर्त्त
गंगाधर
संकटग्रस्त
दशाओं
प्रक्षेपित
दुकानें
नौकरियों
कूच
किराये
असीम
बांसुरी
आवंटन
##जुएला
क्रियान्वित
भाद्र
निस्संदेह
मॉरीशस
450
rel
खोपड़ी
ज्वल
झाँसी
ढक
थान
नवल
भर्त
यार
लाम
सत्तर
##ंके
##२४
##गाद
##ैला
##णित
##PM
##्लेव
##ाइजी
बादलों
सुहा
##ुत्थान
##स्ट्रा
मैरा
##त्म्य
सरकारें
पदभार
अर्हता
1200
तापीय
बहुमुखी
डालना
टैब
चालकों
नेताजी
##मलव
सम्राटों
स्टार्च
स्पेक्ट्र
प्रिंसिपल
खजाने
हड़प्पा
हफ्तों
पीटर्स
नर्तकी
इकाइयां
परित्याग
कटक
टनकपुर
थें
थिर
धमन
नगरीय
पन्द्र
मख
रश
सटे
##ress
##ैद
कीबोर्ड
##िस्मा
किर्ग
##कीपर
स्विफ्ट
वेट
##िक्षित
हमे
##ोमणि
मौतों
आयकर
ख़़
126
114
इंजिन
मजिस्ट्रेट
निराला
प्रतिशोध
गायकों
प्रस्तावों
वेल्ल
हटकर
##ists
1889
तृतीयक
वक्तव्य
फेरारी
##र्धक
श्रोताओं
संतुष्टि
प्रेषित
मधुबनी
सीपीयू
तादाद
ब्रायंट
खजुराहो
अमाव
छड़ी
जख
डोनाल्ड
रचे
वराह
सरे
९४
##चनों
##चुरी
एक्यूप
##ाजों
##्मे
##ायुक्त
##्क्य
पुंज
क्राय
##फ़्फ़
अस्सी
जिहाद
फ्राइड
पिनांग
मॉस्को
लाभों
मोहिनी
प्रतियोगियों
प्रमाणों
बराक
कॉमन्स
वाक्यों
सांसदों
लहरों
सन्तान
अपमानजनक
असुरक्षित
केसरी
आंगन
कंबोडिया
जगदीशपुर
प्रणालियां
दयानन्द
##क्राफ्ट
मिर्ज़ा
सेवारत
प्राणायाम
tr
°C
इश्क
कण्ड
घा
छतर
बर्मन
रॉन
ल०
हबी
##िंह
##ुचि
##लित
##एड
##पंथ
##भाजित
होप
##क्ष्ण
राजमहल
जैंती
सीत
कार्यप्रणाली
##िपाल
बिखर
##गीता
##ino
अतिस
##ोडे
छोड़ते
गिरता
##row
संकेतक
संस्थाएं
खंडित
सिलि
आरोपित
१९५८
##ब्बर
##जीवियों
कसौटी
रिसेप
ज़रिए
मिथक
कक्षीय
बाइबल
रिश्तों
कारागार
##रबंद
ढलान
आंबेडकर
ईर्ष्या
आजीविका
ed
other
थाम
भ्राम
मंज़
यों
९३
##जर्स
##वध
##ng
##Cl
##IN
##ारियो
प्रखर
एकांत
##िलिन
##ूपुर
##िटिव
जबरन
हिजरी
##ीलों
रेज़
##्साही
संगीतमय
जिन्हे
एमआईटी
मिशिगन
मालवीय
##शाखा
मुराद
संभाग
१०८
विश्लेषणात्मक
१९३६
१९३१
एवम्
खूबसूरती
मठों
उत्तेजक
अल्बानिया
वेनेजुएला
Ig
खांसी
ब्री
मोक
रत
शराबी
##ध्वज
##हृत
##हमी
##ूवर
##ner
##ियॉ
होज़े
##लेक
वर्त्त
##ीनारायण
फ़ॉर
##फ़ोन
बिजन
मनुस
जुआ
##ane
जलाने
आयताकार
##ंशा
##ities
सपनों
मुहाने
फ़्रां
सोचता
भरतनाट
ट्रैफिक
पोटैश
##hys
जेसन
##वृद्धि
आँकड़ों
इन्टरनेट
मच्छर
जमशेदपुर
तुर्कमेनिस्तान
पाटलिपुत्र
its
इयान
नंदा
पनामा
मम
वाइड
शकी
##ाश
##रिस
##बाला
##हिक
##कास
##काली
##log
##yc
##खने
##मुक्त
##२८
##ble
##्रि
कोर्
अनैतिक
##ज़ेब
सुत्त
माउ
स्टॉप
##सिफिक
बेखम
बुलेट
सतल
##म्मति
डेप
##ाइट्स
आगंतुक
##बाब
their
##आईएल
##uld
##चिह्न
तुमसे
घटती
अल्पकालिक
१९२१
सदाबहार
पट्टे
मर्फी
भिक्षुओं
दाखिल
राँची
आमाशय
हॉस्पिटल
AM
क्रेन
मल्ली
सय्यद
७१
##२६
##ER
##अमेर
##vent
##्ति
##तिर
सीमान्त
प्रतिभूतियों
कैदी
कैनेडी
बिठ
बढ़ाई
शिक्षाओं
ख़ाँ
सदस्यीय
117
##कर्णी
डालती
१५६
शोधन
मांगने
हस्तिना
इराक़
मुल्क
बेंजामिन
कॉम्प्लेक्स
पदोन्नति
महत्वाकांक्षी
चिह्नों
अज़रबैजान
und
ईश
ओझा
जताई
झंडे
थ्य
बोग
रसेल
विला
##हिल
##मण्डल
##शीत
##घ्न
##९०
##वाची
सुद
##स्टेट
##िप्शन
पुरे
गुन
बिड़ला
बैन
##eric
मीट
##क्से
प्रवृति
##सनर
बॉण्ड
हेस्ट
आनेवाले
इंटरफ़ेस
साम्राज
##पात्र
सिक्का
साहसी
लुध
ग्रामीणों
१९५१
१९५३
##एचओ
हटने
1897
मंजिला
भोजपुर
सीताम
पिकनिक
सैद्धान्तिक
इलाक़ा
महाप्रभु
मुक़ाब
उज़बेक
टिकाऊ
कॉरपोरेशन
स्केटिंग
वृन्दावन
man
अ0
कगार
गोह
बाट
रीस
रक्षात्मक
लूप
लटक
हँस
##ीनी
##ज्जा
##एसी
##टम
##ॉनों
##ule
##ारित
कावेरी
##नेई
##ियोजित
##ंगो
अपडेट
कुषाण
सुचार
बहाने
बीएस
विश्वभर
बारबा
##ोप्र
बिंब
##ंकुश
लिफ्ट
पुस्तिका
##सरत
न्यायमूर्ति
रजिस्ट
२५०
द्रव्यों
गुजरते
इजाजत
लापता
इन्दौर
विषाक्तता
न्यूट्रॉन
इकाइयाँ
महायुद्ध
माथुर
गुम्बद
आपूर्तिक
हस्तिनापुर
आपरेशन
डाया
रची
वली
##ूचक
##्युल
##न्धि
कारगिल
द्वेष
पूर्वार्ध
पाताल
गुज़
२०वीं
देखो
वृहद
फ्रेंड
दशमलव
नवरात्रि
मृत्युद
134
##elop
१७४
अग्रदूत
सिलेंडर
आर्किटेक्चर
त्वरण
१९३५
किशोरी
स्टीवन
म्यून
संवाददाता
मैडोना
विलेय
हैसियत
वर्त्तमान
MTV
Ne
we
आकृतियों
छोड़ी
बूँ
मऊ
हवन
##जेट
##जवान
##शरी
##र्भाव
परास
साकार
मुंडा
##ाइयाँ
##्यूसन
##ंबुल
मनोक
बढ़ना
रेव
##ुआँ
एल्ब
महाकल्प
यूनी
नवाजा
बाल्य
##यार्ड
137
पांचवां
नमस्कार
लॉग
हिमानी
उड़िया
बर्फी
स्टारब
प्रतिबंधों
गिल्ड
अश्विनी
धोखे
हिरन
ग्राफिक
डैनी
अनूठा
Ass
अज़ी
ऑर्थ
छोड़े
जस्टिन
टिम्ब
दंगे
हँ
##ूफ
##चर्स
##दयाल
करत
संज्ञ
कारप
##्कम
उपमा
##ोल्ट
प्रतिभूति
उत्साही
##जाबाद
यूथ
##ूदित
मतदाताओं
मिर्जा
##िदाद
ब्रह्मचारी
##ull
##round
लैक्ट
निरंकुश
##adi
रिसाव
कॉलम
cons
00722
झाड़
सुगमता
लैंडिंग
क्रीड़ा
##ugh
मरणोपरांत
ज़िम्मेदार
प्रतिद्वंद्विता
कमिश्नर
fil
गॉर्डन
डैम
पते
पख़्त
पनीर
बग़
वीन
##चू
##भ्य
केट
कीच
##ांटा
निबन्ध
##्सबर्ग
##ागा
##ूराम
##ोल्यूशन
##िपल्लॆ
अंतरण
ग्रसित
पैसों
स्पै
लीडर
जिह
##ेतन
##its
##िबद्ध
##िबन्ध
##विकास
पहाडी
हलके
##ility
रीडर
##सूची
१६०
संदर्भों
समाचारपत्र
reg
बचाता
प्रसन्नता
असहयोग
अय्यर
सम्भवतः
बेतालघाट
बफ़ेलो
Institute
Be
Raj
ओवल
कनक
जमान
तस्करी
दवाई
दुरी
बॉन
##हनी
##२२
##OC
##न्क
विष्ण
संवर्
##वाती
##वाक्य
##ायित्व
##त्तु
##विदा
##ष्का
बार्क
बैंगनी
##यन्ती
गणपति
एनएस
तुंग
##एमएल
चमगाद
कहलाए
घटाने
अम्लों
##ब्बा
आत्माओं
घूमता
कैप्स
बन्दी
मैरीलैंड
कोलंबो
निसान
अंटार्कटिक
प्रज्वल
पैराशूट
फायदे
##णकोर
लुप्तप्राय
##हादुर
ऑडिशन
##लूगा
अर्बुद
750
ईगल
खाम
डिम
बपत
भेष
मक़
##तरा
##बद
##जिस्ट
##शासित
##छे
काजल
##नेज
अनूदित
##ोगे
अधिगम
नाममात्र
अंतरा
अवल
##हरान
##ont
आमदनी
बुनाई
##वान्
पुनर्व
147
रहनेवाले
##गुना
ग्रेजुए
बरौनी
##एलसी
रैड
समुद्रतल
##rav
१६७
डायमंड
अख्तर
चोटों
निरंतरता
अविश्वास
नाभि
नाविक
पालीगंज
ठिकाने
इंडस्ट्रीज
मदुरै
तिरुपति
कोलेस्ट्रॉल
मेसोपोटामिया
चबूत
टोड
पवार
मर्द
मोद
हवाले
##बहादुर
##ान्ट
##नाड
##ामना
कुर्द
लेड
##ंतपुरम
सुम
मानसिंह
बीवी
सूफ़ी
आधारशिला
वीजा
##िग्स
परीक्षित
गुणात्मक
ब्लूम
योजनाबद्ध
##ulation
##ार्ज़
वित्तपोषण
प्रस्तावना
वॉटर
मसालों
सिखाने
१९२८
भीमराव
वेबसाइटों
अंग्रेजो
ताजमहल
इंडोनेशियाई
स्वायत्तता
##रूआ
अल्फ्रेड
देवरिया
##्लोरर
मुरलीधरन
##ency
##चिकित्सक
समतुल्य
दिग्गज
आइंस्टीन
ख़़ुदा
And
CS
Pol
im
थैली
नौर
नवर
हाद
##सिम
##र्के
प्रदाताओं
परमान
पराब
विन्ड
जोनाथन
कुटी
महंगी
##िपियों
##टीए
पार्ष
##ेड्रल
बेत
स्पिर
ज़ेन
ट्रिब
बाहु
##ट्टम
गिरिजा
महानदी
##गुइन
इंटरनैशनल
चरक
सुल्त
आक्रमणों
##प्पन
कुरै
पॉलिसी
शीघ्रता
##मेनिया
जाएँगे
वाटसन
श्रोता
संप्रभुता
अनोखा
नसीर
महादेवी
प्वाइंट
फर्ग्यूसन
OS
ओत
चंदा
फर्क
##ंक्स
##तरे
##rol
##शरण
##RA
##थु
##ारसी
कीन
समेक
##्मय
##लेटिक
##्डेम
##ेलखण्ड
##साया
##किन्स
##िशिंग
सीएन
पाश
सरो
विभूषित
पीपी
स्पार्ट
जुटा
##परि
पासपोर्ट
ट्रां
लिब
देवगन
##ision
प्लास
एडव
समस्याएँ
दिवालिया
लॉजिक
पहुँचाया
##ेयर्स
प्रशासकीय
कलेक्टर
१९३७
चैम्पियन
डिंभ
बायो
अनुबंधित
डिप्टी
भावा
नहरों
समाविष्ट
ऋषभ
साम्यवाद
##ग्राही
काफली
तीर्थयात्रियों
सर्वसम्मति
गुस्सा
भृगु
टापू
मिर्जापुर
बेनोइट
Qu
आओ
इको
एतम
पदान
##शन्स
##ण्ठ
##35
सेमिन
समकोण
##सेन्ट
स्थलीय
विशद
अमृता
फ़्री
वैराग
##द्रोह
##द्रव्य
बेद
पर्ण
##ल्लू
जलमार्ग
##िजनों
एससी
नौजवान
फलतः
बेटियों
धनरूआ
पढ़ाने
बरन
गढ़ा
मरियम
##ानुगत
सतहों
##गोवि
स्ट्रिप
सेनानियों
अकेली
अविश्व
छापा
रियलिटी
देवराज
ख़लीफ़ा
त्रावणकोर
एस्पिरिन
Br
Dev
World
first
were
चिश
चाकू
जठ
जस्ता
हला
##port
##लिस
##पर्
##गिर
##ण्
कोबेन
इसराइल
##लाव
##सेवी
मुसी
बीड
##ंचरण
##ंक्चर
स्पेंसर
##फलक
फ्रायड
संगीतज्ञ
जीविका
एक्सरे
आकारों
व्यवहारिक
मिसिस
बोवी
##गढा
इलेक्ट्रोड
##भागवत
कथक
रिपोर्टिंग
पैराम
तूफ़ान
निचला
किस्में
झुंड
सल्फर
रिटर्न
इंटेलिज
आयामों
भट्टी
क्रोएशिया
अंसारी
एडवेंचर
अफ़्ग़ानिस्तान
स्टारबक्स
more
एने
खत्री
चीर
छड़
जक
जगा
डक
डब्ल
पक्का
बर्म
##िएशन
क्राउन
##ोपरि
भागीर
देशमुख
प्रमुखों
##परिवर्तन
अर्न
सत्स
डीप
##ital
प्रक्रियाएं
##आईएस
क़स
##ोदरा
आयुध
पोर्श
प्रमाणपत्र
फ्लू
नेपालके
##agn
उल्का
##पुस्त
##भुज
##बूतर
ग़ज़
आखरी
1882
सीतापुर
अनुशंसा
इकबाल
कार्तिकेय
उपेक्षित
अठारहवीं
एटीएम
गहने
मैकेनिक
एकाग्रता
त्रिनिदाद
Me
met
इक्की
ऑस्ट
ग्रेस
टच
ट्यूर
पप
मिक्स
रज़ा
##ेग
##BN
##यात्मक
##ान्वित
विज़
होन
थाइ
##िनिस्ट
रूपांतर
देय
मुमता
##ावाद
##न्दरी
मैंगनी
स्टुअ
कैड
आमने
आयोजनों
विरूप
वृक्क
सोची
##ेसिस
शीट
भावुक
गिरते
व्यवहारों
एयरवेज
##ानिर्
##ade
१९४६
सन्दर्भित
Int
प्रतिकृति
निषाद
सीरियल
शिविरों
##ission
इमेजिंग
चांसलर
विखंडन
तैमूर
एवेन्यू
मनोकामना
File
HS
cor
sm
इयर
ऐक्शन
चंग
भट्ठी
यरू
लाय
##भिक
##38
##१५
कराटे
जाग्र
वर्ड
##माथा
ब्रू
मुखौ
भूगर्भ
प्रकाशनों
##ars
##ान्त्रिक
##ुमल
डेरा
एनडी
146
बसपा
व्यवस्थाओं
रूक
वाच
##reen
मशरूम
मूंग
मूत्रा
तीर्थयात्रा
जायें
१९३९
फ़ार्म
इंसुलिन
टुडे
Engl
अल्ट्रास
जीर्णो
लुकास
धमाके
पोटैशियम
MP
अ०
एग्री
एन्ड
एबीसी
गदा
दांव
##ज्य
##ियता
संथ
##ासे
##ाइंग
बादाम
सिट
अमूल्य
अस्म
##र्डन
दरम
प्रवचन
सन्यास
पक्षपात
सम्पदा
लगेगा
##क़ा
साम्राज्यवादी
मिसाइलों
उत्सुक
उत्सवों
गौरा
##पिंड
१६६
कंप्यूटरों
1888
1884
बल्लेबाज़
बोधिस
१९१९
खरसीया
गिद्ध
डाकू
निष्पादित
##rict
खालसा
प्याज
धाबी
दिक्
सोपान
निदेशालय
दांते
क्राइस्ट
मनुस्मृति
खादी
जंजी
टाइल
ढका
धोनी
पछ
रिड
लोट
शाद
##बॉय
##ration
##्जी
##वहन
##RI
##गार्ड
विसंग
जाइ
साझे
किग्रा
##काव्यों
##राक
राजपरिवार
##ोको
##टरों
गुयाना
##लयन
बैज
बैरल
रेफरी
##िजय
बाउल
इंते
इंडेक्स
विजया
करेंगी
शाहिद
रीवा
नेटस्केप
प्रमाणन
सॉसेज
१६वीं
##ंघा
आर्के
चिकित्सालय
##गोश
निष्कर्षों
देहान्त
spec
पुनरुत्थान
सूरीनाम
हेगेल
विवेकानंद
प्रीतम
##बेटन
बुद्धिमत्ता
number
आत्मनिर्भर
Se
no
अष्टा
एएस
चॉक
तक्ष
भुट
सता
##वृत
##टर्स
##प्रे
##फर्ड
##duct
विडियो
##ासु
##ोगा
कुँवर
##विवाह
स्विंग
राज्यकाल
कम्यून
विकी
बीता
मेड़
फ़ि
फ़ॉर्म
सहर
दुआ
##णाचार्य
प्रभावशीलता
धर्मार्थ
सैंक
ख़ै
घोषण
बिल्ल
इंगलैंड
चलाये
दिवंगत
जयदेव
##ets
अदिति
जोड़ना
१२५
लौटकर
दुर्गम
मैनपुरी
1893
##ough
छापाम
रॉबर्ट्स
स्वच्छंद
दीपिका
फिटनेस
स्टैंडर्ड
डेक्कन
विचलित
डायरेक्टर
विश्लेषक
सूर्यास्त
कोलम्बिया
प्रवीण
बपतिस्मा
स्टुअर्ट
IC
hap
val
गांग
जेक
ट्रम
पॆ
शश
६९
##होम
##ोदी
##पर्व
कीपर
##ाल्ट
देओल
पहियों
सकेंगे
##ोज्य
सीखी
राही
कारणवश
दुबे
##वल्क्य
लाश
##ink
बुझ
विभिन्नता
हिंदु
कोशिक
हेपेटाइटिस
##urr
##त्नों
अहसास
ब्रह्मचर्य
जयप्रकाश
प्रेमियों
पिछड़ा
सूर्यगढा
क्वार्क
अशांति
चुनावी
पकड़कर
मनोरोग
हरियाली
समीक्षाएं
तोड़कर
आविर्भाव
##प्टिक
प्रत्यावर्ती
पांडव
इन्दिरा
धड़कन
##ोभित
खिंचाव
विधिवत
किण्वन
गड़बड़ी
कट्टरपंथी
उबाल
एसीसी
लिली
##धाना
##बों
##ीपुर
##ल्ट
##ग्रेन
##ितिक
##नाइड
एकांकी
परव
##राँ
वाल्टर
पुर्व
##न्नार
बीम
बीपी
प्रतिजैविक
##रणी
फ़ौज
सरयू
अभिल
असंगत
स्पार्क
कलाई
वीक
यूएन
प्रणोद
दिखलाई
मृतक
##ट्टन
चीता
अगस्त्य
##शलम
##olution
नमकीन
पोस्टर
##आरएस
बेलन
फीड
युक्तियों
गोल्डबर्ग
प्रभात
रेशों
रुक्म
तत्त्वों
औरंगज़ेब
##िअस
लघुक
अपघटन
पत्नियों
टायसन
ध्वन्यात्मक
अमावस्या
थ्योरी
बारबाडोस
काफलीगैर
मूत्राशय
एएफसी
ओश
तव
नारे
पब्ल
रक्ता
##ोन्स
##uth
##gan
##िक्ट
##्थी
अपार्टमेंट
##करों
कार्स
पहेली
##िश्क
सीसा
फ़ोर्स
देशो
ज़बर
आईडी
आयसीसी
श्रृ
##ुपद
दिखे
मानविकी
किलों
सुनहरे
मिलीं
चक्रों
खरीदे
फॉण्ट
१३०
गतिविधियाँ
घाटे
एथिलीन
1886
१९३८
पोर्टफोल
सौंपी
बायोम
##ुलनशील
नाइट्राइट
##ोपीडिया
कूटनीति
चतुष
क़ानूनी
नैनोट
आदमियों
प्रोफ़ाइल
चश्मे
गुरुद्वारा
चैरिटी
फ़्रांसीसी
म्यूनिख
एतमादपुर
इक्कीस
On
अर्म
ईएस
ऐम
टंडन
पिस्त
भड़क
वंद
शां
##धु
##धव
##ाकि
##px
##वर्मन्
##िल्या
##वाडी
स्थायित्व
देल
मुद
##िमर
पुष्कर
1850
रामदास
##ोबल
शिवालिक
मिलीग्राम
incl
साइक्ल
##etic
ताल्ल
बल्ले
बंधे
1881
१९२७
१९२९
प्रतिमाओं
प्रत्याशा
किशोरों
आनुवंशिकी
माउंटेन
छुपा
विद्युतीय
अभिकल्प
मापदंड
विंध्य
हुमायूँ
स्क्वाड्रन
भरतनाट्यम
Per
time
खेम
जामा
त्यों
धृत
पेनिस
बिएन
मिस्त
०१
##कुर
##ield
##शब्द
प्रथ
काटे
सेफ
परस
##रीज़
निद्रा
##्ची
##ोरियम
##जाक
प्राच्य
अतिक्रमण
विरल
दशम
इंटी
नागराज
स्कार
मालव
आयामी
##iver
टेलीग्राफ
##ode
१९३२
कल्याणकारी
अनुपस्थित
टिप्पण
दुर्घटनाओं
डेनियल
गिटारवादक
एडमिरल
राक्षसों
टोय
अण्डमान
##ergy
ज़िम्मेदारी
किंवदंती
परोपकारी
नज़दीक
##बाहु
ढूँढ
बाड़मेर
मंथन
कोल्हापुर
एक्यूपंक्चर
बिजनौर
पख़्तून
Gl
Open
UN
गमन
चन्दन
छलांग
टर्न
धब्बे
फाई
बचना
श्म
सउदी
##शास
##ेंचर
##नाब
एकरूप
##ंगली
निगल
उपद्र
##्बेक
##ब्ज
##जीविता
कार्यपालिका
सरहद
बेनी
बढ़िया
##न्ति
लोकपाल
क्लॉ
फैजाबाद
बाल्टी
त्रिक
डॉक
आएगा
नीतिशास्त्र
स्वरूपों
श्वार्ज़
स्ट्रॉस
सुल्तानपुर
अत्याधुनिक
खुशबू
विघटित
पृथक्करण
सीरम
कचरे
मुजफ्फर
कॅरियर
हमीरपुर
परिसंपत्ति
मानकीकरण
मधुमक्खी
इब्रा
प्रतिबिम्ब
साम्राज्यों
220
चाला
झों
झटका
फौ
##ंहा
##ाचार
##संद
##ुच
##ताली
विनायक
##ियोन
नेचर
##केला
##ायकों
माउस
कैच
जन्मभूमि
अभिश
अभ्यार
कामुक
असत्य
##धिकारों
##्लीकेशन
रहीम
तीक्ष्ण
महापुरुष
##ाज़े
एनटी
हार्बर
लिप्य
ग़ुल
डेटिंग
अर्थव्यवस्थाओं
पूछने
बँट
ठहरने
अनोखी
##मास्टर
कॉर्नेल
मद्देन
साइंसेज
##्डेमॉर्ट
वैराग्य
तल्ली
धोने
नॉक
नवनि
यास
##ेकर
##AD
##र्टा
कोचीन
##नाकार
संवेदी
##िनिटी
लेसनर
माननीय
प्राधिकार
##ेनियम
##ati
पड़ताल
सभाओं
##मेंट्री
मार्गरेट
##urg
##ract
अड्डों
कैथेड्रल
निभाए
लूथर
चिन्हित
आइसलैंड
अपमानित
डिब्बे
नागालैंड
आइटम
वफादार
मैनुअल
बुल्गारिया
खिलौने
नौबतपुर
ख़ैबर
कक
खिस
चीत
चॅक
तख्त
थार
धुर
फाइट
भयाव
##ाही
##डाइ
##सीन
##ोया
##दुर
अनशन
##सेप
##द्घ
रूपए
##िवी
##रेसा
सामी
अवज्ञा
पर्यन्त
##ines
नियमन
##uring
दाएँ
inf
लॉयड
दिखाती
१५४
##ंजीत
सदाशिव
कबीलों
बाराब
पिथौरागढ़
ठेठ
संतोषजनक
लापर
टिहरी
रिमोट
पेंगुइन
महासागरों
बेशक
ईश्वरीय
कांतिमान
मछलियाँ
University
पदानु
पोर्टफोलियो
sec
गर्ग
पक्षा
वेंट
##द्या
##टूर
##RC
##war
इस्ता
##ंगिकता
नितांत
अधिर
महिष
##विजय
सिद्दी
तोपों
स्टंट
गुटों
##्नोई
##वन्त
मुख्यतया
##ोनियो
##ंटा
हालिया
##ग्रो
##ग्राह
ट्राई
गोरी
निर्देशकों
सौम्य
छोड़ो
##ures
विपुल
उद्योगपति
साहनी
ट्रेक
अशर
मात्रात्मक
१९२२
##खेड़ा
स्लैम
आविष्कारक
only
काराक
मैथुन
सवालों
सिन्धी
कतार
इच्छानुसार
क्रोमियम
ठिकाना
विकलांगता
प्रणालियाँ
नक़ल
सुशोभित
मवेशी
कस्टम
प्रयागराज
बर्तनों
सहस्राब्दी
लैंलूगा
La
कनिष्ठ
टकर
टॉड
तस
रयान
##कोर्ट
##षित
##ैंगनी
प्रवाल
##नाइ
समस्थानिक
##सेल्स
द्वापर
बीजा
अमरावती
कार्यकारिणी
रामलीला
कलर्स
आईएम
##िस्ट्स
एसए
एमबी
एमपी
वायसराय
##lement
प्रस्तुतियों
सिरदर्द
१५७
परमहंस
पॉलिन
जुड़ाव
1872
##राहट
अविष्कार
नोटिस
सफ़र
हाइड्रोकार्बनों
लिबरल
कोंकणी
विवेकानन्द
छुट्टियों
अविश्वसनीय
GE
Tr
ob
अंडों
कटा
जयर
फायद
फिशर
बेम
बायीं
भां
मोस
##रोट
##रक्षक
##तम्
##red
##oot
##वियर
##११
प्रोग
समोआ
##्यान्न
राजसी
कारें
कार्टर
सबक
##्यूरी
अभिला
##श्योर
जुडा
अंतरंग
कंप्यूटिंग
##चलर
##म्भव
अधिकारिक
136
##आईसी
##त्रीकरण
मलेशियाई
##वर्धक
मूर्त
मिटटी
दुर्व्यवहार
डायना
मसौदा
राजवंशों
रिश्वत
प्रिंटर
##ोग्राफ
बूझ
सजावटी
##दुर्ग
मतभेदों
एजेंटों
स्कीइंग
निर्दलीय
अव्यव
स्विट्ज़रलैंड
ड्राफ्ट
ससुराल
फ़िलिपीन्ज़
इंतेरेस
AL
Car
Gen
ऐक
घिस
पले
बत्त
रडार
##ES
##्रियन
##ारोही
प्रेय
##्वेज
समान्य
##ावादी
##दाश्त
गुंज
संगो
##ंबू
पीना
वैट
बेदी
पैरो
##र्त्ता
सम्मलेन
##्वीकरण
बदन
युद्धपोत
दशहरा
##ाणे
तुझे
योजनाएं
##कुण्ड
विदर्भ
रनवे
संशय
वेदना
मस्तक
त्यागपत्र
सुन्दरता
1848
छतरी
स्काउट
चौदहवीं
परिपक्वता
अरविंद
ग्रैमी
एनालॉग
डैविल
वैंकूवर
सीताराम
wik
year
कड़ियों
खाप
घंटी
दक्कन
धना
नगण्य
पण
बँग
हाट
०६
##िंज
##बन्द
##ten
##मरी
##पानी
##uction
कोका
परिर
संलयन
##्सु
द्वैत
कुली
कुपोषण
लेज़र
स्विट
##जीय
मैग्न
अवे
##र्षक
बेबी
चाहें
स्तिथ
लोकों
परिच्छेद
बाथ
##ाक़
राष्ट्रकूट
बलदेव
वृहत
लिच्छ
गतिज
##isc
विज्ञानों
खेड़ा
ग्रंथियों
मिश्रधातु
सलाद
१६५
कटु
सिल्क
हथेली
प्लेटों
बताना
फ्रेंचाइजी
रोहता
राजनेताओं
प्रक्षेपास्त्र
बजाते
खुराना
मज़दूर
लियोनार्ड
अंडाकार
हत्यारे
करिश्मा
मांसाहारी
WCW
कान्त
जले
रघ
रोधी
हाजी
##och
##yr
##पोषित
##१९
##्यन
##नेवाले
स्थला
कुबेर
अधिकरण
जीप
पूर्वांचल
##्यूस
स्टेप
बैड
ज़मी
प्रकाशीय
##एंजा
सम्मिश्रण
##ेसिया
पिंज
जिन्होनें
डेयरी
फलित
क़िले
शासी
ग्रेनाइट
इस्लामाबाद
समुद्रतट
##वैगन
कवय
ग्राहम
रेखीय
नीलम
एथलेटिक
कोरोन
ट्रेनें
वोल्डेमॉर्ट
International
दमिश्क
फ्रैंकलिन
नक्षत्रों
सर्पिल
तीरंद
ऊर्ध्व
ब्रुनेई
परिचायक
सत्तारूढ़
अथर्ववेद
रेडियोधर्मी
CP
Mus
bas
end
डकोटा
दफ़
फिस
बस्तर
मिक
शिब
##िंडा
##बिट
##भक्षी
सेके
##न्स्टर
हुगली
उनह
लगान
सिह
सुमात्रा
जीरा
आवर्ती
ज़ां
कलर
##orn
लिखता
संघटन
एनर्जी
143
##्फा
##कुला
मरते
अनुवादित
उड़ाने
एफएम
तेजस्वी
##रत्न
संस्थापकों
नीलगिरी
1892
##टिनेंटल
पूछे
1861
दुर्घटनाग्रस्त
रोहिणी
झुका
सज्जा
रणनीतियों
चिप्स
सर्विसेज
मोंटे
कुण्डली
फोरेंसिक
पल्लव
फिलिस्तीनी
रेसलमेनिया
कॉमनवेल्थ
चेल्सी
आरण्यक
El
Ma
la
जेम
थाने
धम्म
बरी
भुम
##डस
##एए
##RM
##ve
बीसीसी
ग्रांट
स्पीयर्स
स्कंद
लेखनी
चौरा
कानों
तुग़ल
ज्ञानपीठ
अहिल्या
महीना
कम्प्यूट
##टिलीन
तालुका
१९३४
१९२५
मंगला
एंजेल
रिव्यू
लिविंग
फर्नी
किराया
स्फटिक
मॉनिटर
झगड़ा
तानसेन
ढूंढने
जुनून
सिएटल
जन्तु
तरीक़े
शौचालय
एप्लिकेशन
लुधियाना
पराबैंगनी
AP
Div
IN
do
kn
अर्क
ओंकार
चिम्प
पकाया
मटर
लों
लियो
##हृद
##विस्त
##टोन
##ञ्ज
##िलिक
होट
समयाव
##लेक्स
देवन
##त्तन
अम्म
कार्यकला
##िप्रे
सहकुंड
कैंटर
##फ़े
मारता
सर्ट
##ॉल्ड
फ़िल्मांकन
सारण
नौट
कैलोरी
कुमाऊं
हल्क
बैठता
##ett
##ays
धरहरा
अश्विन
डब्ल्यूएचओ
##ever
been
मानवतावादी
गुड़गांव
कूपर
क्रूरता
स्प्रिंगस्टीन
कृपया
मैनहटन
विन्डोज़
तक्षशिला
नैनोट्यूब
9वीं
Act
FA
IB
आभा
एटल
चह
चरा
जों
डराव
लोल
शख
##डियम
##ुम्ब
##ोर्म
##शुदा
##पद्धति
##ैन्ट
##ानुपात
जाड़े
राजपुर
वर्चुअल
लेआउट
##ोजेनिक
पीजी
स्थानान्तरण
##ोन्य
##र्तनीय
सर्वोपरि
उत्पादकों
##देही
##संख्या
विलीन
उद्दी
##गुड़ी
जेली
कौल
भाषाव
##शिअल
मिटाने
ध्वनिक
रातों
गैसें
किंगफ
अधीनता
1876
क्रिस्टी
##दृष्टि
सटीकता
दिलाता
माईस्पेस
वाटर्स
RFID
इफेक्ट
मंसूर
मिज़ोरम
स्टेरॉयड
शब्दार्थ
चोंच
भ्रामक
ट्रम्प
टोयोटा
4000
System
Techn
खिज़
गन्ने
जियो
धंध
हासन
##डमी
##ुले
काजी
##िस्थ
##रेज़
अभियोग
वैक
बेय
आरोह
कालोनी
बुढ़
भरकर
वनवास
मिच
कोल्ड
१५३
##ada
जीनों
मिशनरियों
बूटी
जलाकर
केल्विन
मिडिल
ब्रॉडबैंड
कॉन्फ्रेंस
अनिश्चितता
झगड़े
##चुम्बकीय
वृत्ताकार
दिशानिर्
अभिभावक
हरदोई
ग्लूको
ज्वालामुखीय
तिरुवनंतपुरम
differ
कीचड़
काराकोरम
east
mon
##चाई
##ोऊ
##मोल
##एर
##ेदी
##१८
##१३
##केतिक
अनिय
##्रेसी
स्वंय
##ोजेन
##िटिंग
##ोक्ल
##दाब
##मेकर
डेविल
त्रिवे
133
मिडल
वंशानुगत
बरत
तटवर्ती
१५८
रैम
##rag
जोखिमों
पोलियो
१९२३
अनुपयुक्त
अविवाहित
जमीनी
खजूर
चिल्ला
अनुष्ठानों
चट्टानें
ज़िंदगी
दारुल
इवेंट
बोनस
मृदु
प्लूटो
अँग्रेजी
दिशानिर्देश
Si
इग्ल
एज़
खोली
चना
ड्व
पधार
प्यास
पञ्च
वलय
वांग
##संहिता
##मिशन
##गुप
##der
##अंद
##१७
कीमो
विस्क
##्रीकृत
उपशाखा
##विहीन
क्षणों
बहता
तोर
अमास
##ुलम
ब्रुक
लगाती
नैना
विषयवस्तु
पालक
उठाई
ओलिवर
##एलवी
करीम
240
११७
सूत्रपात
हाईस्कूल
1883
रास्तों
##ife
##इयाँ
माउंटबेटन
वामपंथी
वर्जिन
बॉयज़
जमींदारों
ताँबा
हिमालयी
परवरिश
##ासाहेब
आजमगढ़
क्रियाकलापों
कात्यायन
अल्फ़ा
BBC
hai
ईट
एजी
ऐस
गदर
तरा
पिस
भगा
रैंड
शेंग
षष्ठ
##बिर
##कोर
##गों
##आंग
##SC
विम्बल
जाँ
##िएर
##क्षिण
##ाइश
दोहन
सुंदरी
##ोलिन
##र्गी
माणिक
स्ट्रेट
स्टडीज
परिवर्ती
##ल्लम
एलर्जी
##्लाइड
सांकेतिक
वर्गीय
नैस
आकृष्ट
बोलना
##ुद्धार
##ides
पाँचवीं
जुड़ता
मौलवी
कमाया
बृहत्
पाण्डुल
कच्ची
भूमध्यरेखा
शनै
कांची
##वृक्ष
ओजोन
रेसलिंग
क्वालिफ
कोतवाल
मसौढी
इकट्ठे
हम्मीर
कर्त्तव्य
स्पिरिट
act
ईकाई
कबूतर
नानी
बर्ट
रबी
लस
##ren
##ms
##्कार
##योजन
##cc
काब
काफ़
सेबी
कराये
परिक्षण
##त्रु
##्स्की
पहिया
##ागोस
##िरसराय
सुखी
सुग्रीव
सबकी
उतरा
ब्रै
अवहेल
युवती
##ोपदेश
जुडो
जहरी
यूए
पिंडों
##रोवर
रॉकी
सीमावर्ती
112
हेयर
रोचेस्टर
##्रुति
निरर्थ
वाङ
कहलाया
मनाई
##agar
उलूम
तर्कशास्त्र
मशीनें
निभाती
##ावतार
मेरिल
वासना
अर्धचालक
चक्रीय
1865
नेहरु
ऑफिसर
मरीज़
00718
चीज़ें
होलकर
गोंडा
अटकल
All
निर्विवाद
##कर्मियों
##बाजार
सीनेटर
परिसंपत्तियों
डाटाबेस
वैश्वीकरण
##०मनि
कदाचित्
गलियारे
व्लादिम
हिप्पोकैम्प
श्वार्ज़नेगर
फर्नीचर
किंगफिशर
खिज़िरसराय
विम्बलडन
Bi
DNA
cap
west
भला
रक्ष
रिवर्स
सोडा
##eop
##्फी
##चरों
##ोनों
##RE
##ग्रे
##MI
परफ
##ास्वामी
##ोगो
भार्ग
स्वन
सुवर्ण
##िमोव
सामवेद
##स्खलन
##फ़ज़
##क्सान
##क्स्ट
१९००
##erc
कॉन्ट
विरह
देवकी
नवज
##ट्टे
##स्पियन
मलबे
दलद
अभीष्ट
##समाज
##एलए
न्यायशास्त्र
१६४
लौटता
१४८
##रोधी
मापी
अस्थाई
१९४४
सोमालिया
मानसिकता
आर्यभट
बढती
नोट्स
अंधकार
इण्डियन
हरीश
छत्रसाल
गर्भाधान
हैरिस
कैटरीना
तेंदुलकर
कार्पोरेशन
मानकीकृत
##स्लाविया
वैक्सीन
धमनियों
Med
TV
एमा
ऑक्ट
चाइल्ड
तिन
पिंग
बेंच
यथे
##ि़
##सो
##इक
##AF
काको
##्स्क
राजभवन
उपहास
बीयर
बीहता
ब्रो
२०२०
##ering
प्रवर्तित
भगवत
सम्बोधित
सारंग
एमबीए
##let
##eter
सपोर्ट
शोभ
##देवता
१२वीं
बागान
अल्पाइन
तृण
1867
कन्याकुमारी
रमण
##मीनियम
ताजे
कार्टूनिस्ट
द्रोणाचार्य
पांडेय
पश्तो
मवेशियों
सौतेले
अशुभ
##ेनहाइट
सत्संग
बीसीसीआई
KM
gov
ke
ऐर
घों
दासी
पेंच
##oo
##gram
नेक
##क्षरों
राजम
##स्ति
जबड़े
फ़ीट
अविक
##क्सा
##वेन्द्र
##ेमंद
##ोधरा
असंतु
ज़ाहिर
लाउ
सदनों
##atch
पुनर्स
नवमी
गुरुओं
1600
एनए
उठती
off
बौध
रीज
ग्रामों
मिटा
अध्याप
व्याख्याता
प्रतिष्ठानों
हस्तलिखित
चोटियों
संचारित
दर्दनाक
१९२४
धारणाओं
खींची
स्तनप
प्रियंका
उर्फ़
एनिमेशन
खाद्यान्न
पर्यवेक्षक
used
चमकीले
कन्वेंशन
परिसीमन
मैराथन
जीर्णोद्धार
Google
med
उंगली
ऍन
फव
फिंगर
फकीर
वासी
८९
##घट
##याई
##तावाद
समष्टि
##लाट
##लाका
##ापक
तकलीफ
निर्गुण
##वंस
मार्मिक
दुष्य
##बीटी
##ats
सिंहल
जिने
##ंभू
सर्वनाम
##ुआन
ट्रू
पिज़
सांद्र
मिहिर
हेले
क़बीले
स्पष्टता
मोहाली
करीना
मंत्रों
समुद्रगुप्त
दैव
##ike
शीतला
वॉकर
कैरिब
गिराया
1878
##ove
दिग्व
पोटें
ट्रेडिंग
परिमित
आप्रवासी
महत्वाकांक्षा
##प्राप्ति
फास्फेट
ख्वाजा
##ोपनिषद
अधीक्षक
बाराबंकी
##श्योरेंस
अवहेलना
SW
अफी
ऑर्ग
गें
छुआ
डेंग
ब्रेट
सले
##बोली
##बरेली
##ius
##een
##िकाव
प्रलेख
##ंगार
वर्धित
उपरी
व्यभि
##स्टेन
सरपंच
युवकों
बैचलर
##0000
वैशेष
पर्स
दौरों
जलो
अबतक
एसपी
नवरा
अफस
तुला
प्रायोजन
##त्नी
धनु
पढ़कर
एचएस
१७वीं
मशीनरी
##क्कड़
बहनें
पांड्य
शर्तें
नौकरशाही
ह्यूमन
जसवंत
बर्नार्ड
प्रयोक्ताओं
छेड़छाड़
##ाइक्लोपीडिया
कस्तूरी
फ्लेमिंग
याज्ञवल्क्य
उर्वशी
ग़ुलाम
समयावधि
Gu
एसे
झूम
ठाणे
पीय
मं
माव
यार्ड
रति
लकी
##सिटी
##iam
##action
##ूजा
##देख
##भास
##ux
काव्यों
विह
संधियों
जीडीपी
कलाकृति
चौराह
अरोड़ा
##ुम्न
सोते
सैफ
दिखाना
##ट्टू
त्रयी
पेशा
उठकर
ऐसीटिलीन
खुजली
मज्जा
तेहरान
ताओ
सेलिब्र
समझौतों
अवशिष्ट
सूरदास
सजातीय
जालंधर
गेंदबाज़
दीर्घकालीन
मेहमान
नोबल
उभरने
मार्क्सवाद
असहमति
सत्यापन
शिरोमणि
पंद्रहवीं
कारीगरी
##बिंदु
ब्लाक
धौलपुर
निखिल
पन्नों
पैग़म्बर
भाद्रपद
##logroup
जमानत
चॉकलेट
haplogroup
IT
खारे
ठाकर
दखल
मचा
लुग
##रक्षा
केले
कीटा
कुमां
सीज़
कार्यवाहक
##िपरि
ब्रैंड
बदाय
आयनों
##ोतों
देवदार
बच्ची
प्रवर्धक
1700
दलदल
रायबरेली
सुनहरी
माइग्रेन
अन्तराल
##चकित
प्रतियोगिताएं
१५९
प्रमाणीकरण
काव्यशास्त्र
##ानिधि
संश्लेष
चंद्रशेखर
पशुधन
गुलामी
1871
डबल्स
रोहतक
डाकघर
अष्टमी
##्यूलर
उतारने
निर्वहन
डिफेंस
हस्तांतरित
रवींद्र
##glas
शाहजहाँपुर
##कांटिनेंटल
##ype
ताँबे
आलावा
वृत्तांत
आख़िर
बेंगलुरु
महालक्ष्मी
टैबलेट
पन्द्रह
GP
अजन
चुल
चाट
चम्म
नाजी
मिनेस
रोस
वोक्स
##सौर
##ुमार
##दाह
##sy
होमर
जातियां
##रीकरण
महुआ
सक्रीय
लगन
##ूरिया
##िट्ज
##फ़िया
##वल्ल
स्कैंड
कॉर्ड
कॉस्म
संख्यांक
परिवर्तनीय
विधियां
इंटरकांटिनेंटल
परिसंचरण
अहं
रोमानी
विजयवाड़ा
वीरगति
मेलों
तालुक
घटने
अजित
अस्थमा
१९४३
दासों
मछुआ
नॉर्मन
१९२६
दीर्घा
चंदेल
अंधविश्वास
रेशमी
झूठे
थॉमसन
मुल्तान
##ible
असहाय
##हिं
पुनरुद्धार
तंजानिया
लोपेज़
डीलर
लिबरेशन
प्रतिलिपि
सेन्ट्रल
त्रासदी
वार्मिंग
त्रेता
प्रोडक्शंस
गांगुली
AB
Rh
San
उड
खिच
चान
बक्सर
मोब
ह्यु
##उर
##जिए
##मिली
##दराज
##भान
सेरे
##ड़कर
##सेड
अधूरा
कार्मिक
अल्ता
##र्गिनी
अभिप्रे
कामदेव
रेजी
कालों
लीक
बुड
विषैले
बतायी
एमजी
संग्राह
बनेगा
प्रस्तर
क्रियात्मक
संग्रहालयों
ताश
##रायण
निरुक्त
जमालपुर
किनारा
११९
तीर्थस्थल
##्यूरिक
गंगोत्री
कक्षों
बढाने
सोनपुर
पहनना
फ़ारस
उद्यमों
कंटेनर
इकठ
आंखें
बारीकी
##इयां
नतीजे
तेरहवीं
ISBN
गाथाओं
चाँदनी
एन्क्र
झेलम
स्पाइवेयर
कौशिक
सोयाबीन
डिलीवरी
चिश्ती
खूनी
बिय
यकीन
लिक
लसी
वट
##बड़
##me
##ll
##न्यु
##दस्ती
##गया
##ॉफ़
##र्ना
काहिरा
##नेस्ट
कोनों
करवाना
##केस
##माई
रहो
सीढ़
बीसी
##िटेज
फ़ा
कैसी
दुध
##म्बी
बेयर
##निधि
अगुआ
आईआईटी
बुक्स
ज्ञापन
##बल्स
रूद्र
साधारणतः
१२७
##फ्तार
तालमेल
खासतौर
१९४१
##ateg
डिवीजनों
निरीक्षक
विसर्जन
सादगी
मैडिसन
नाहर
काॅमिक्स
फोटोग्राफर
तिमोर
मैकडॉन
स्मृतियों
##ript
##allel
पक्षाघात
पोटेंशिअल
सेलिब्रिटी
Bar
अत्रि
एजे
ऐब
गद
घटी
चम्बल
टांग
थर्ड
पन्ने
बकाया
लिल
##त्क
##yg
##नियम
##प्ले
##न्टर
##न्डे
##न्टे
##्यावस्था
लेम्बो
##ाइज़ी
प्रतिजन
किस्त
माहा
अंतर्द
सहस्त्र
##गाड
सर्कस
##eries
ज़िलों
प्रभावकारी
मौज
नीचा
रामानंद
बाहुल्य
प्रणेता
डॉ०
दलाल
निरुप
inc
क्वार्ट
विदिशा
गौत्र
साधुओं
रोजर्स
माहिर
१९३३
प्रतिमाएँ
1877
अश्वमे
किस्मत
##ants
गारो
दिगम्बर
##ॉरिटी
इन्फ्लू
घावों
फाल्ग
लचीले
क्योटो
स्ट्राइक
कैरोलिना
कनिष्क
संक्रांति
मैग्नीशियम
सुलेमान
सम्यक्
नियतांक
इब्राहीम
इस्तांबुल
शख्स
मिनेसोटा
Iglas
NT
fe
कबी
चब
टर्की
दूल
पौर
फीन
रफी
##धमान
##संप
##ience
##ुसीय
##जेन
##लक्ष्मी
##पुन
हैवीवेट
##याली
कीमती
##नाली
##िल्य
##तीया
##ेशर
क्षणिक
रहन
लगना
वेदी
अन्योन्य
##ंचना
##प्रचार
प्रतियाँ
बैत
असद
1830
##aria
सर्वशक्त
सकतीं
पेले
##स्पी
ब्लास्ट
वंशी
##शीलन
आंद्रे
विनोबा
हॉवर्ड
##एफएस
संपादकीय
सेटिंग
मंगेश
स्लोव
१९१८
इंद्रियों
मनोवैज्ञानिकों
आराध्य
प्लेग
##ग्रंथों
असुरों
हैरान
निवारक
आयोडाइड
ख़ुशी
कीटनाशक
##ublic
सगरमाथा
मॉन्ट्रियल
तुग़लक़
तोल
यदा
योन
हाज
##iy
##ुइ
##EE
##१४
##ار
प्रबुद्ध
संगर
अपव
##लीकृत
##ष्टिक
##ज्ञता
##िपरक
उतरे
##ूसर
##त्वा
रामनाथ
ट्रिलियन
एम्स
मार्गदर्शक
नैश
बॉर्न
शुमार
क़ौम
यूनानियों
मुरैना
##ush
##िथिक
वाहिनी
प्रतिनिधिमंडल
तकनीकें
रिवर
भाभी
exp
नंदिनी
फ्रेमवर्क
कचरा
acc
उत्परिव
रिश्तेदारों
श्रेणियाँ
ब्यूटी
कैरेबियन
ट्यूरिंग
बोधिसत्व
वैशेषिक
लेम्बोर्गिनी
high
आक्स
उर्म
चंचल
झल
डोन
तौल
नन
मर्स
रंजीत
सहा
सेंस
##yle
##ेपी
##ैंती
औरतों
##नेसी
##सेनी
##ष्टमी
##ावर्त
##िशास्त्र
##दीप्ति
राॅ
फ़िन
बनवाई
##फ़िश
##हराने
##मीडिया
##द्युम्न
हमसे
जुडे
धर्मराज
##तरंग
##र्डम
यूगो
भरोसे
##मेव
113
स्वयंवर
शुंग
##आईपी
हेमा
अभिनेत्रियों
क़िला
हलचल
##idae
##गाहर्ट
हमलावरों
लिंगानुपात
रिसी
अमरनाथ
अवतारों
म्यूज़
बुलाने
जिम्मेदारियों
डिपो
बैलिस्टिक
##ग्रंथि
क्रूज
चंपा
निराशाजनक
पहलवानों
दयालु
फ्रैंच
##ोस्पेस
लिथुआ
सत्कार
##साहित्य
उंगलियों
सिलिंडर
बाल्यकाल
इंटेलिजेंस
DC
Em
circ
ईशा
ऋणों
कंचन
टॉल
तेन
तुष
तिग
नख
पोर्न
लाव
हस
##तिल
##सोर्स
##ुएल
##शाद
##शलेम
##ेले
##ैच
##ारपुर
##ारूस
प्रग
##नेश
कोरल
##ियोलॉजी
##िरोध
##िवन
लगायी
दोलन
बहल
जनित्र
प्राणों
वैर
असिमोव
स्पा
उद्या
अपनाते
महाकाव्यों
गोबिंद
पिग
रॉबि
गिरे
111
##amil
##िदम
##िज़म
शिकायतों
परियोजनाएं
चालन
बेलनाकार
१६३
अनंतर
घरेलु
ग़ल
आर्या
लाइनें
तपस्वी
स्नो
डिविजन
नजारा
भीमसेन
अधिग्र
where
जवाबी
ग्यारहवीं
आयीं
वातानुक
रिटायर
कौरवों
साईट
पर्यायवाची
सद्भावना
आपेक्षिक
अनियंत्रित
लिथुआनिया
Cal
SI
her
ऋचा
गेस्ट
डकै
पक्के
बूम
हॅ
हेट
हेज
##ॉमी
##ौड
##षी
##OM
##र्कर
संयु
अनदेख
##क्षु
राजे
कुणाल
करनेवालों
##्रेनी
स्विम
सुअर
##िटो
##िंग्टन
क्रा
ब्रा
कैन्टन
सैनी
ज्ञानी
सुरक्षात्मक
रंगहीन
बालकृष्ण
सारस्वत
सितार
##ames
##वर्ल्ड
आत्मघाती
हार्ले
परिवर्तनशील
##ental
फुटेज
सिक्योर
११८
##ird
than
नाइट्स
पोर्टेबल
##च्छेदन
१९१७
१९१०
रमणीय
झूठा
नाट्यशास्त्र
बिश्नोई
##ोल्डर
डिक्शन
बंटा
एकादश
हकदार
राठौर
क़ुरान
##ohn
ग्लैडीए
यरूशलेम
पिस्तौल
धृतराष्ट्र
शेंगेन
असंतुष्ट
मैकडॉनल्ड
Fran
औऱ
नजी
मस्ट
मर्क
सन्ध
##पृष्ठ
##्रार
##र्णा
##्यद
विट्ठ
##नीज़
लेज
##ोटिव
विश्ववि
स्टार्क
युक
##टी20ई
देशभर
पैंथ
अबु
##inn
कालि
##arth
सर्वहारा
सुरेन्द्र
डीएस
अथक
सांभर
आदिकाल
चीड़
पंचवर्षीय
हेलेन
मददगार
यौवन
##मर्रा
ग्लूक
जॉय
##ापुरं
अफ़गान
चढ़ाने
फैलो
दासता
त्यागी
पाठ्यपुस्त
1873
##ube
ज्योतिषी
मणिपुरी
आश्चर्यचकित
एकाकी
खजाना
अभियुक्त
जवानों
अनवरत
##्सलाम
पदाधिकारी
घुमावदार
नीलकंठ
आग्नेय
पर्सनल
जठर
मिसिसिपी
सर्टिफ
App
bi
such
आफ़
ऊनी
गर्त
नोर
फली
मड
यव
##ुर्ग
##्खों
##शत्रु
##ौफ़
##ka
परह
वियोग
##ियेशन
संक्रिया
अपवाह
देसी
मुंड
अनुशीलन
जीएम
##िमल
राज्यमंत्री
सीला
राबर्ट
##ोकल
कहेंगे
दीवानी
##ेमिया
पीरप
##era
श्रीधर
##arm
बदतर
सैमु
संपत्तियों
बाल्टिक
डेफ
त्रय
परीक्ष
पेस्ट
सम्पादित
##ury
कर्मकाण्ड
आवश्यकताएं
संस्थाएँ
१२८
मसूरी
जुड़नार
तपो
1856
अनुप्रस्थ
रसायनज्ञ
const
महामह
दामाद
उज्ज्वल
गोरखनाथ
ड्यूटी
##ोमाइड
स्क्वैश
आवेशित
कॉन्स्ट
मोतीलाल
विधायकों
अलैह
बूटियों
व्हील
मेहराब
##सीएलए
कुम्हार
मिजोरम
पार्टनर
बिज़नेस
सरीसृप
पदानुक्रम
pH
water
आली
एअर
गज़
जम्ब
ट्वी
ताली
थाली
नक्स
नवादा
बव
हाजीपुर
##डब्लू
##्भ
##वरा
##एगा
##ङा
##vers
##ादरी
##ांडे
किंडर
##िनों
मुहाव
कमरा
तोह
##ुलु
अवस्थ
##प्रयोग
फिल्मो
व्याकुल
लोकल
उच्चारित
लिखती
गोथिक
आसन्न
वर्णनात्मक
बच्चो
संप्रेषण
पक्षधर
बॉर्डर
1400
उठते
चेचक
परिसंघ
##ोदित
##ोदिया
नार्वे
ins
##ोवीन
सिकंद
१२३
दृष्टांत
##uman
कटाव
मांगों
वेदांग
कब्ज
परिभाषाओं
ड्राइविंग
क्रिस्टलीय
महाविद्यालयों
टूटे
अर्थशास्त्रियों
मोहनलाल
मुताबिक़
गार्डनर
भव्यता
झाड़ी
1818
सल्फाइड
सिफारिशों
##ucle
छपरा
नवीनीकरण
असीमित
अंडाशय
नागालैण्ड
कम्बोडिया
शायरी
लड़कियां
घण्टे
नेविगेशन
शक्तिपीठ
चुनिंदा
भयावह
वाङ्मय
व्लादिमीर
पिज़्ज़ा
डेंगू
At
VI
WHO
अजर
अचेतन
उर्स
घिरी
घबरा
ताह
बजर
भैया
मिंग
##ुंगा
##वेंट
##र्दी
प्रैक्ट
कालाह
कोसी
कोको
परलोक
##ियोस
हुवे
##ापन्न
देवास
##थाग
##ोटे
सामानों
##दिगार
##निक्स
माफ
स्टीर
##मीड
##प्रा
##प्रिया
असत
स्प्रेड
##वरं
व्यवस्थाप
सिंहली
आईजी
जानती
##िटीज
सप्लाई
##ेंदु
मास्क
टैंकों
##rain
एफसी
##पलिंग
शेयरधारक
प्रोग्रामों
खुलती
राइस
स्वयंसेवकों
दुल्ह
##िएटिव
एशेज
पुनरावर्तन
##्यूमिनियम
धर्मावल
राधिका
parallel
चावला
MSN
नज़दीकी
डब्ल्यूडब्ल्यूएफ
कुसुम
बँगला
अफीम
चम्मच
Mal
Sup
et
आण्विक
उथल
डन
वरण
##ंफ
##िअर
##िअल
##हुत
##संत
##जाम
##घे
##्रोस
काका
##हीय
##ायम
##्प्स
##विधान
##ारीकरण
सीढ़ियों
फ़ायर
बनें
##हार्य
पीक
पीढी
वैशाख
मनन
रखाव
नीहार
नीची
##ora
विषुव
श्रव्य
क्लिंटन
एसएमएस
इंश्योरेंस
एक्स्ट
रोमा
लालच
बौने
परिसरों
व्यापकता
सिरसा
सिरोही
मिस्री
कम्पन
अनुमानों
##एनएल
सिक्खों
विदित
पार्किंग
इटालियन
गरमी
##ोलाइट
उड़ानें
जालस्थल
1868
एसोसिएट
खरगोश
झूठी
अस्वीकृत
टर्मिनस
नस्लीय
ओडिसी
##्येष्टि
उरुग
निजामुद्दीन
तेंदुआ
ग्लासगो
दहेज
तानाशाही
कोंकण
विक्षेप
electron
सिंथेटिक
असेम्बली
कुरैशी
अष्टाध्यायी
वंदना
Ap
अटक
उच्छ
दानों
नय
शंका
##rum
##दंत
##थरी
##गोद
##फास्ट
##EG
##५५
हैा
प्रसाधन
##ियाड
##नाडा
इसाई
राजकोष
लेक्स
सुज़
सुपु
बहते
सामंती
बीजे
जनसाधारण
ब्राम
कैडेट
##पूर्णा
मनोद
लाठी
विकासवादी
हरक
##ोषी
आईआई
##द्योगिकी
पौंड
नवप्र
ख़्व
रॉड
पंचायतों
मात्राओं
##टलर
लाभान्वित
होंडा
##ety
रसों
संभाव्यता
बावड़ी
गाढ़ा
अक्षमता
सिलिका
मानसरोवर
जीनस
आकाशीय
स्वाभ
सन्दर्भों
1859
##क्लिड
वसुदेव
१९११
निराकरण
उगते
उपदेशों
द्रोणी
##span
स्टेनली
पागलपन
चुपके
दिक्क
अभिमन्यु
प्राप्य
गाजर
महासागरीय
परवरदिगार
प्रोसेसिंग
पियरे
मुहाफ़ज़
चमगादड़
हिप्पोकैम्पस
डिक्शनरी
A3
John
car
gl
अजात
चूल
तदु
नब
बोम
बिकी
बोत्स
भात
लोन
लाट
लहस
##जक
##गुर
##िकापुर
कोबरा
##्वो
##्वेल
संजना
समान्तर
##त्रिक
##वाटी
पहिए
##विचार
##्बर्ट
##ेरों
##ोट्स
कैस्पियन
युआन
उत्तरजीविता
चारे
कॉनक
सर्वोत्क
बदनाम
सैटेलाइट
##चलन
विलंब
उल्लास
121
एमएम
नौवीं
नौवहन
गुणधर्म
##द्दौला
चमत्
शुरुवात
रेखाचित्र
उपचारों
##रेटिव
सत्यनारायण
खतना
##ौलत
टूटी
चकित
प्रोटीनों
सहजता
रुकने
नाविकों
शहीदों
प्रतिरक्षी
चौकोर
चटनी
हीरोज़
टाइटल
वृद्धावस्था
अव्यवस्था
गोपीनाथ
फास्फोरस
ओरिएंटल
दाऊद
बर्मिंघम
कैंटरबरी
EP
Fe
Pak
SE
चेम
पोम
ब्रम
बोर्न
बत्ती
रंजक
##बिश
##हुआ
##सेंजर
##rid
##ould
##फोर
##86
##१६
##FC
प्रेषण
प्रवासियों
##नाती
##न्स्ट
##ंगम
अनीता
निष्ठ
मुट्ठी
हीट
##सीस
विश्वेश्वर
माच
अंतर्ग
देशप
##ख्यान
##क्टरों
बेचना
चारण
रेगे
अपनाए
ट्राय
एसिट
चित्रकारों
कोशिकीय
शाख
भावार्थ
ब्लै
##omy
क्रमानुसार
क़दम
चेको
##olar
हलवा
बरग
रिपोर्टर
गाड
##osis
दानापुर
दृष्टिकोणों
चट्टानी
पादपों
ब्रेन
बूंदी
बृहद
##युग्म
फेंका
रेगिस्तानी
##नाईटेड
मायनों
रत्नों
ब्राउजर
नीरो
धावा
पेलोड
##press
अलेक्जेंड
##ंबंधी
##ember
कारीगरों
रेणुका
अवांछित
शकीरा
एडवांस
वोक्सवैगन
Ram
Sal
उँ
एन्ज
कूर्
जफर
टें
धरा
फँस
बर्थ
लखी
सटा
##होर
##ुं
##मिश
##पती
##ानन
प्रधाना
##नाह
नेहा
किरी
##वाण
जोधा
लेवल
अल्ल
माथे
##प्रसिद्ध
##ीतर
बीचों
##eration
अंगद
देखिए
रेवाड़ी
सर्वदा
अर्जे
महाध
10वीं
दरें
##मेरी
122
गुणक
##डेथ
##ैक्चर
माताजी
रैपर
अक्षत
##than
बेलारूस
१६९
##गार्टन
मौतें
आर्से
आदर्शवादी
द्वारिका
मसूद
गर्भनिर
गुजरना
बॉक्सिंग
वांछनीय
गंधर्व
कार्लोस
पेयजल
##ological
हर्षवर्धन
छूने
ल्यूके
into
बर्गर
तीर्थयात्री
आतिश
पांडुलिपि
पीटर्सबर्ग
लघुकथा
चतुष्को
Mac
Na
अती
आभार
खड़िया
मूस
शीन
०७
##रार
##कर्ण
##ुंब
##ज्म
##यव
##वॉल
##पारा
##ौदी
हैट
कील
##्तिस्तान
परब
हैंडल
नेवी
किपलिंग
मुनी
अनुवांशिक
##िकाएं
साम्प्र
##स्टेड
##ीयता
फ़सल
##टीआई
पीते
##्ताक
असंब
जीवनशैली
सर्वमान्य
महाशिव
गोता
जगद्
एमडी
चलाती
उठाये
प्रसूति
##गम्य
इलेक्ट्रिकल
गलियों
रनर
प्रतिक्रियाएं
हस्ती
##imes
##िष्कृत
आउटसोर्स
चूका
1875
१९१२
बन्दूक
अटलांटा
फाइलों
नस्लों
रचनात्मकता
नापने
पैगम्बर
तैरते
एम्पायर
पुकारते
ओहियो
##ाम्बिया
अभिरुचि
युनिवर्सिटी
कॉन्सर्ट
स्पैरो
पैरामाउंट
पीरपैंती
SC
back
cell
eff
power
आधान
इमान
छल्ले
टार्
तप्त
पर्थ
फिश
रंजन
रफ़्तार
वाँ
शियर
शमन
##नान
##ोए
##ईट
##ED
##ङी
##ال
##QL
##्रांत
प्रमोद
इस्ट
नेशन
##काइ
अपराज
रूपा
##लेर
देवाल
##न्हो
लेटर
##सीमा
सुमित्र
पाणि
कहो
बिह
##टीकरण
विशेषांक
स्थापन
तीनो
कृम
व्यवहृत
जिगर
##नियामक
बलपूर्वक
महाभ
डीएम
विली
##शियाई
##मेंट्स
निम्नानुसार
तुर्कों
अंकीय
ऑस्ट्रेलियन
अकसर
##रायली
##ब्रिज
##ूषणों
ड्रॉप
रणबीर
पलक
दर्जनों
एक्सप्लोरर
##पट्टी
1879
बुरहान
धूमकेतु
इंद्रिय
मैक्सिकन
process
##पूजा
छिद्रों
स्मार्टफोन
शिलाओं
मदरसा
प्रिंटिंग
रज्जु
##मंत्रियों
ट्रिब्यून
काकोरी
लसीका
bec
will
आगा
आर्गन
खमीर
टोम
नशा
येन
सज्ज
##डिग
##सह
##ुओ
##जि
##लाद
##घाटी
##ॉजी
##ैगो
##45
समसाम
##तिथि
##द्दार
उपोष्ण
##ावधान
##िरों
पुर्न
जैज़
##िंगी
##्यूमीनियम
मिल्स
##निकी
##फ़ोर्ड
संगृहीत
##ony
हरिदास
संख्याएँ
यूसीएलए
कपडे
टेरा
ख़ूब
डेज़
सारनाथ
शीला
##बाड़ी
हेवी
निकालता
बौना
2500
मोहर
रीजन
सत्यवती
भेजते
मेलबोर्न
तिरुम
##ग्नि
वासियों
##वेल्ट
Inter
1866
1863
1840
चार्टर्ड
सुनीता
मेगाडेथ
कोपेन
बन्धन
सन्नि
बर्कले
लक्ष्मीक
नवीकरणीय
हकीम
बलोचिस्तान
यथासंभव
भुट्टो
फायदेमंद
सर्वशक्तिमान
CC
ev
vol
एतिहासिक
ऐंग
ओंट
##नव
##मेड
##िलिटी
विमोचन
##सेरा
##नीतिक
##रेड
जीना
अमन
फ़ेड
सहकारिता
युसु
##बंधु
मारुति
वैया
##्वरिन
भूमीय
कॉर
परिधीय
बाढ
मीठी
##ुमरी
##शीट
भरता
##ोलीन
##जेय
फैमिली
बाल्कन
शिवरात्रि
पूर्णिया
एनजी
गिरवी
they
पालने
जमकर
खाकर
११०
मेलबर्न
मनोविक
आरोपी
##ophy
पोलो
डिंब
बुलन्द
बायोप
नाथनगर
१९०७
१९०५
फ्लोरेंस
मक्खी
नेटवर्कों
चामु
तानाशाह
जलसन्धि
कुष्ठरोग
फुफ्फुसीय
इकोनॉम
भार्गव
sur
ऋतिक
ऑपर
गहल
घुलनशील
नन्दा
बली
भक्षण
मसू
रफ्तार
शोषित
सख़्त
८२
##ij
##परा
##गने
##आम
विरा
विमल
संक
निप
कुँ
##माइन
अनुपल
क्षु
स्वातंत्र
वेव
##किशोर
सीस
##ुत्क
मैट्रिक
माड
सहकर्मी
बाराम
मारक
पदम
बदौलत
पुनपुन
##िनेम
##जेता
प्लेन
खिलाफत
रिक्शा
रोश
खोजे
नम्र
##ential
विदर
लोहार
कटि
भेजना
चन्द्रशेखर
संसाधित
हटाना
मंजूर
आध्यात्मिकता
सजग
रागों
डाउनटाउन
ट्रैकिंग
व्हेल
एडमिनिस्ट
परिशुद्ध
एक्टिव
पढने
क्रोमोसोम
अंगूठा
##irect
तितली
##formation
जन्तुओं
गड्ढे
लिहाज
सीक्वल
भागीरथी
जाग्रत
भाषावैज्ञानिक
उरुग्वे
चेकोस्ल
te
उके
एन्ट
जड़े
थ्रो
पोर्
फंसा
बम्ब
बख़्त
भास
शॉ
सोहन
##हैम
##ret
##ior
##दित
केयर
##ेशियम
किफ
##्सार
##ूर्क
द्विज
##िशिया
##ण्डे
##वीकरण
पुलों
सामन्त
अलब
जन्मों
बेबील
स्प्रे
##वाहिनी
सैक्स
न्यूकै
##एसडी
भरती
पौध
शैलों
निर्देशिका
उल्लेखित
शुद्धि
##omb
स्मैक
सकेगी
लॉज
मंत्रिपरि
आइज़
विश्वासघात
##cept
१४०
कराकर
अखरोट
##कानूनी
पुनर्निर्मित
तारापुर
खुलता
क्लासिकल
वकीलों
शस्त्रों
सराहनीय
##उल्लाह
रूमानी
##नेडियन
असंतुलन
दबाकर
आतिथ्य
छिड़काव
हबीब
English
##गुप्ता
विट्ठल
##गोदाम
FI
खरे
गार्
चॉ
चण्डी
जनों
टंग
टास्क
मातर
मित्त
शूल
हिंग
हफ़्त
##साग
##of
##ोइन
##गर्स
##गिज़
##gine
##fter
##्रन
##र्धित
होड़
##ामू
सागरीय
##कार्ता
याचना
##्डेन
##विभाजन
क्षत्रियों
सुजान
ज़ु
जुआन
##परांत
कलां
विषमता
पत्ता
क्लिनिक
गांठ
उपलक्ष्य
उद्द
पूर्णागिरी
##वर्मा
संतानों
##ब्लो
रोमियो
बरसा
रोकते
कविताएं
##ters
1854
मकानों
Inc
ब्रांडों
१९१५
खरपत
अज्ञेय
राधाकृष्णन
स्टॉकहोम
ass
उभरती
स्काइ
चिन्त
##ouse
सियाल
फ़िरोज़
##डि़
नर्सिंग
राइफल्स
गाजियाबाद
रेस्टोर
पारिभाषिक
वूल्वरिन
रामचरितमानस
हेस्टिंग्स
चबूतरे
फ़िजी
ग्लूकोज
परहेज
Can
non
अक्स
आट
एं
एत
घड़ियों
चिता
थंडर
बहाई
मजी
माइट
सिली
सोंग
##डित
##डॉग
##oe
##गारों
##झ़
##ओएल
##्रिन
हैप्पी
काव
यहॉ
##ुरम
##लात
##लापुर
##द्दे
मुर्
##ेलाल
सुश्री
बहुआ
##ौरन
मेष
अलकन
##ानाबाद
ब्रोम
कैंब
गुंट
##ेनबर्ग
##टीपी
दीख
ओरछा
##arh
मीट्रिक
##टनागर
##ुपाल
फैक्टर
विल्ह
पांव
##बाधा
निकलना
जेब
प्रवेशद्वार
सातवाहन
लैला
कथाएं
रसिक
संरचनाएं
मनाली
##िनायक
निजीकरण
आक्रमणकारियों
रणथ
पटरी
##मुदी
हथौ
राहु
##andard
स्ट्रिंग
शेवर
कोचिंग
1815
अन्नपूर्णा
गेंदबाजों
ताइपे
एंटरप्र
रावलपि
सहभागी
विभेदन
छानबीन
अलंकारों
अमेज़न
पश्तून
रोहतास
ज़ांज़ी
##eople
सर्वोत्कृष्ट
एवर
खीर
गाई
छपा
थक
रजा
##जिन
##वर्ट
##पॉ
हैक
##ालिका
संदीप
राजधान
राजघर
बनारसी
कैसर
##वेव
प्रदूषित
##वलोकन
लोकमान्य
प्रकाशकों
व्यवधान
##एँगे
##ुआर
गणों
##िनेटर
नवग
##पालक
##लैंड्स
##itive
##ional
बेटियां
##फ्टवेयर
गोलार्द्ध
##elf
बांदा
मधुस
##चित्रण
वीरों
११४
डायनास
अस्थियों
चर्चों
पद्मनाभ
##नेसिस
पूंजीवादी
बाइक
स्तनपान
नायकों
फ्रीडम
डेनिश
नुक्सान
दावेदार
अटूट
सत्यापित
एडमंड
##ोरेज
फ़िल्टर
भण्डारण
डेवलपर
##क्टिविटी
हमीद
भाटिया
पार्थिव
##elopment
अस्मिता
दिग्विजय
ज़ांज़ीबार
ऊर्ज
ऑकलैंड
ग्वे
जत
जिय
तमा
थैल
पाइन
यवन
सिले
##धात्मक
##ूता
##्न्या
##पैड
##ारत
##नामे
##ियक
नेचुर
अनिर
##ज़ान
निर्बल
निर्गम
जैकेट
कार्यस्थल
प्रकार्य
##ोपित
मारवाड़ी
बैश
##द्रथ
खिलाडियों
ट्रिप
नवाज
निम्नवत
ब्लेयर
चैंबर
रुके
धीमे
वाचक
गाती
रासो
इन्कार
प्रोटॉन
मिनिया
एफए
##une
बदलावों
१४९
उन्नाव
पैराल
समस्तीपुर
प्रोफेशनल
##चुला
बुलबु
गोल्डेन
##ोसिएशन
बूढ़े
शिश्न
पंडितों
गाँठ
नलियों
चतुर्थी
फर्ना
पैकेजिंग
ढाँचा
माइनर
निरर्थक
पीयूष
550
Dr
Elect
log
ईल
कर्षण
पोज
वुमन
हयात
##ंसेस
##त्यों
##कंड
##कान्त
##iew
##ious
##ुथ
##ेने
##फ्रे
##200
##ओएस
##िक़
##ियुक्त
##केन्द्र
##्मर
##ेशन्स
महेश्वर
अनुक्रिया
निर्ज
इनडोर
##रणा
पाशा
##जाता
बारबरा
##ंजरी
राष्ट्रीयकरण
##पीडी
वीरेन्द्र
क्लिप
##ices
डीज़ल
धारकों
रंगा
आदतों
##इटिस
एमिनेम
पांचाल
केंद्रक
एनसी
नौवें
हेक्स
खुस
लालन
वार्न
अहोम
रायल
##ख़्वा
घटता
घटकर
पद्मिनी
पैरिस
तृतीया
सृजनात्मक
##ipedia
बाज़ारों
बुलाते
प्रयत्नों
dec
१९१४
सम्प्रति
पाण्डव
१९०८
सम्प्रदायों
##साईट
पोटेशियम
नाइजर
##ized
काठिया
क्रेटर
भिक्षा
सैय्यद
प्रचुरता
ड्रमर
पुरूषों
अत्याचारों
पीपल्स
नादिर
सिंगल्स
##ollow
फरीद
होल्डिंग
बुन्देलखण्ड
कन्फ
सूचियों
तस्मानिया
शकुन्त
सतर्कता
वसीयत
निर्मला
बधाई
अख़बार
असुविधा
घोषणापत्र
यथेष्ट
ठाकरे
इकठ्ठा
मंगेशकर
मैकडॉनल्ड्स
अजातशत्रु
कॉनकॉर्ड
Sar
UM
had
ऊंट
कटी
टोली
नाली
नसों
भुख
भोले
श्यान
सॅ
०५
##कॉप्टर
##ple
##ूआ
##ोऽ
##श्
##श्याम
##ौता
##de
##ام
##तात्मा
कोणों
##नाशी
विग्रह
विनियामक
##वायर
##ायदा
##त्तनम
##ाँस
##स्टाइल
ब्रोमाइड
कैंडी
अभिमान
मारते
पारिश
##सिना
अंगुली
1820
दिनचर्या
कृमि
जिन्दगी
रामगंगा
##ena
वीकली
##कल्या
##ोबारी
डीजे
अथॉरिटी
विलिस
प्रस्तु
कर्मकांड
लौंग
##कुशल
सुनता
सुनियोजित
##ross
वरन
##आरपी
##rab
सेंचुरी
जापानियों
अध्यादेश
जूलिया
एफआई
अनुरक्षण
मैकबेथ
##गोला
रोजाना
सुनामी
आर्टिस्ट
ऐलान
##ोलॉजिस्ट
तरंगें
यमुन
अग्निहो
स्कोरर
छापे
##ण्यम
organ
अम्बाला
मज़ाक
##राइली
क्रेग
रोज़गार
नौकायन
जोगी
तैरने
श्रावस्ती
लंगर
भागीदारों
न्यूर्क
लातीनी
ख़रीद
बख्तरबंद
रहस्यों
इंपीरियल
एकरूपता
इन्फ्लूएंजा
अनदेखी
बीजेपी
AT
अड़
अक्र
आधिक
उड्ड
चंड
झाल
डर्बी
पडे
फतु
भांड
भटनागर
##ीया
##ूरे
##ेमी
##TE
##ौस
##95
##SD
##ऑफ
##तिनी
अप्प
मुथ
उपजात
वालो
बहाली
मिलें
गुद
ग्रूप
##ोपन
बैठी
सर्कल
जुताई
दिनकर
##मार्
परिहार
श्रृंग
टेरेसा
जगाने
गुरारू
त्रिगुण
एमसीसी
##श्वरी
मालिनी
##त्याग
सिराज
लॉन्ग
मरक
##ख़्स
230
मूवमेंट
##ott
१४५
तीर्थों
चढ़कर
पैरवी
सोमाली
कमाए
सुझाया
पादरियों
डेविडसन
सदाचार
##रिअर
सम्प्रभु
फाइव
energy
ब्रॉडवे
स्कीम
सिएरा
त्रिविम
मुस्तफा
दोगुना
लोकगीतों
गुणनफल
ऐश्वर्या
वॉटसन
दुर्दशा
पख़्तूनख़्वा
So
min
most
sin
use
आबू
छटा
ढह
ढके
ताज़ा
दून
पटरियों
फैन
मलाया
रोहन
सद्द
सादे
हंटर
##हुड
##खोला
##वधि
##ॉन्ग
केज
हैली
##र्ध्य
परख
##ादास
##्याचल
अनुरा
राजकोट
##हाइ
कुएं
उन्हों
महर
वेस
इन्वेस्ट
सबल
मैकल
अम्प
##ोरिक
कैफे
दक्षिणा
करनाल
धर्मांतरण
उदित
##ोस्म
तबाही
एल्ड
##ेदन
##क्ज़
ट्रेल
यूक्लिड
दिखला
शीशे
##स्पद
##ura
चैट
हलकी
बरियारपुर
बजाना
बहुजन
##ड्डू
##िडास
मासूम
कहलाये
गुजार
१०७
समुद्रों
##सूचक
११६
280
संभावनाएं
हाईवे
शास्त्रार्थ
एप्लीकेशन
ऐल्क
हॉलैंड
कोयंब
संग्रामपुर
छिपाने
अस्वीकृति
##्लाइंग
असामान्यता
अपरिम
व्यंजना
अभियंता
गैलेक्स
प्यारे
शिपिंग
सँभाल
##छीना
एंथोनी
आयोडीन
अपरिहार्य
विप्रो
हरिश्चंद्र
##शीतोष्ण
गौराडीह
ग्लूकोज़
बोत्सवाना
CN
Mon
law
चरों
जूतों
लारा
##धिपति
##खली
##निंग
##ोमीटर
##ोस्कोप
##ोस्कोपी
##वुल
##प्टर
##गाय
##ॅर
हैम्प
प्रोब
काबा
एकाउंट
निम्ब
##ायब
राज़
##ापूर्वक
कुद
महतो
सुधीर
##ंपी
##ंचे
अवन
##ेडेड
लाक्षणिक
जलधारा
एल्यूमीनियम
बल्तिस्तान
एसिटिक
##िग्ध
चित्रा
##लाईट
गोलियां
महाराज्य
मोटापे
##ख़ान
##idd
##ोराडो
काउबॉय
११५
मनोविश
मस्ती
पद्मावती
रसायनिक
तूफ
पहनती
झुंझ
दंडित
चुनौतीपूर्ण
गोदाम
गौरवशाली
फार्मास
पार्श्वनाथ
परिशिष्ट
Arm
फुलवारी
उत्तराधिकारियों
काँटे
मीनाक्षी
यॉर्कशायर
प्रतिरूपण
बहुलता
नूरज
पड़ोसियों
डेवलपर्स
परावर्तन
प्रोपेन
स्लाव
चिट्ठा
आडवाणी
हडसन
आवृत्तियों
समालोचना
प्रायश्चित
स्पार्टा
सेकेण्ड
ल्यूकेमिया
Av
Fl
FDA
IQ
My
Mas
No
Pal
ap
ge
long
कन्द
कज़ाख़
गाइ
टाव
पत्रा
मका
यज
हरिक
##तला
##खड़
##चर्
##गि
##gen
##ढक
##यामत
सेहत
करायी
##न्डर
##त्रे
##रीकृत
राज़ी
अधूरी
देयता
मुग्ध
##स्टल
मेसन
##वतार
##र्गिक
##कोला
चलो
##ोसो
##enn
कलाकृत
##न्सर
तैनाती
डिजाइनों
गैरकानूनी
अंकुश
लिप्त
विज्ञप्ति
रूसो
##पुंज
ऊँट
धातुएँ
state
##ोग्राफिक
२३०
अश्वत्थ
1869
पूंजीवाद
नीतियां
शल्यचिकित्सा
नाइट्रिक
1803
जागृति
दिगंबर
ext
अंतर्देशीय
वाष्पीकरण
असमर्थता
द्विध्रु
कत्ल
वात्स
आर्मस्ट्र
##ाविद्
अंगूठे
जागीरदार
फ़ुटबॉल
क्लाइव
add
लोमड़ी
##चुम्बी
श्रेणियां
ट्राफी
गगनचुम्बी
क्वींसलैंड
द्वादश
पंक्तियाँ
एनेस्थ
होटलों
उद्यानों
न्यूकैसल
Web
del
data
अवं
औज
कसा
चूस
जरी
जटा
भोर
मजे
मंडे
मटी20ई
लूस
शयन
##हले
##माली
##दिया
##गंधा
##MT
##र्कि
प्रक्ष
होय
समास
समशीतोष्ण
निगाह
देस
वर्धा
हीं
सुध
##वीत
स्थितियां
मैजिक
मिलाप
##फ़ॉर्म
देशज
##स्कृति
पैंट
मनमोह
##ग्राउंड
मौकों
जलविद्युत
##ination
परिघटना
अर्नेस्ट
दूरभाष
वास्ते
त्रैम
माल्टा
##ुनू
मजार
जेनेट
##ros
लैरी
जमुना
मंत्रालयों
पकने
एचबी
१०३
मिनटों
हॉरर
आलोचनाओं
खासियत
राजनितिक
##ster
गुप्तचर
##विड्थ
##ocial
हरिजन
ड्राइंग
गुफाएं
कन्याओं
मैक्सवेल
अनुशासित
जामिया
काठगोदाम
बुख़
colspan
सैंडविच
Cont
तांबा
चुपचाप
सीआईए
कास्टिंग
नृत्यों
अभिभावकों
आकृतियाँ
पीलिया
टोबैगो
मशीनी
##बदोश
संश्लेषित
अलैहिस
मिनियापोलिस
650
ERP
Lib
Reg
att
gu
line
अखण्ड
कंडी
गय
चपेट
दिष्ट
रूल
हृ
हायर
##ध्र
##रान
##िंड
##डमर
##ेचर
##थियों
##ॉन्ट
##भन
##ke
##DN
##्युक
##न्धा
##ियारी
##न्दना
##ढ़ाई
पुजार
##स्टस
बीते
##ोक्रोम
अमो
संगी
##ोप्रो
पारद
##ंजय
कल्कि
##्युअल
ट्राम
##एसएस
यूरिया
डेवी
##नीयता
अक्क
बरमू
एयरोस्पेस
वित्तपोषित
एचपी
विद्युतचुम्बकीय
बागी
उपाधियाँ
राजमार्गों
वहीँ
स्वर्णिम
ब्रेकिंग
इंसानों
१९०१
मंगोलों
गैलन
उगता
United
इम्प्ल
इम्पीरियल
सद्भाव
अण्डे
परावर्तित
स्लाइड
यूएई
जिनेवा
किंडरगार्टन
##बिशप
बरमूडा
Cap
Long
इत्र
एमे
क्यौ
घुड
छिन्न
जूट
नाज़ी
सृष्ट
९२
##yt
##ज्या
##्जे
##दित्य
##44
##्रजन
सेठी
होर
संता
##्लेर
राजगुरु
मुने
##किम
##स्थलों
पुथल
##िटाम
अल्बम
जनहित
सरंचना
##ाप्ती
पारगमन
##म्बिनी
मुख्यभूमि
##ॉलिटन
##डीसी
अबा
नींबू
##ोडाय
##चेस
सतना
हिस्प
##ूदन
पौष्टिक
त्रिवेदी
सौहार
##स्पष्ट
रोके
##फ्टर
ब्रह्माजी
##एमआई
महारत
##र्पूर
##ास्थि
कथावस्तु
पिछला
##ोवो
जिमना
खाए
आएगी
दृष्टियों
##शालाओं
बर्ताव
डायने
सुपरस्टार
विद्यापति
ध्रुवों
गर्भधारण
मेरु
प्रतिस्पर्धात्मक
परिस्थितियाँ
चूड़
कीमतें
मंडलों
पित्ता
जैकब
##चिकर
बल्लेबाजों
वधू
एडवर्ड्स
निलंबन
आशीष
अंदाज
सीलोन
आँकड़े
सीआईडी
लिथियम
सौतेली
आक्रोश
बशर्ते
इलेवन
पसीना
मुसीबत
जलोढ़
चौराहे
शकुन्तला
फतुहा
महाराज्यपाल
320
6000
You
chem
det
ka
उक्ति
खदेड़
टंक
तड़
तांड
दय
दलाई
दलील
भिख
रॅ
रें
रोड़
लोब
शेक
हिले
##बन्दी
##सई
##स्यूं
##कण
##खोरी
##पस
##थार्थ
##भोज
##kh
##31
##55
कीड़ों
नेवर
अधिम
वर्गा
मुसा
याहू
##ेटो
##जीसी
ब्रों
गुब्ब
अवक्षेप
पूनम
मुख्या
पैमाना
##arn
##र्ड्स
मीथेन
आईएनएस
श्रॉफ
अतिर
लिंच
डीए
पुनर्न
त्रिम
परिणामी
एमिली
स्वीट
संग्रहों
सातों
चमड़ा
गाॅ
गुजारा
बैंडविड्थ
धातुक
इलै
##ग़ुर
##ेंडेंट
मार्कस
घाटा
पत्तियां
हेलिक
विचारधाराओं
मोनिका
चिन्हों
तालाबों
जीवाश्मों
राइट्स
गणितज्ञों
पडता
##ext
फरीदाबाद
left
डिटेक्ट
बशीर
अखंडता
दंपति
महिलायें
फ्राइडे
सतलुज
फ़ॉर्मूला
लहसुन
Pakist
समसामयिक
Im
red
अठ
अबी
आड़
उंचाई
गण्ड
छतों
ट्यु
टोंक
दम्प
धुल
पब
पख
फेज
भूस
मस्क
मर्च
रोष
लर्निंग
वोड
हॉक
##बैंक
##ृद्धि
##शिर
##टकर
##पटल
##गोपाल
##ेंडा
##्वास
संकरण
अनमोल
##राड
##स्तंभ
अनुदेश
##रेक्ट
##देश्य
##ुतो
भागो
बैंकर
सर्जिकल
सालगिर
##तिकरण
##alth
सर्वव्यापी
बुकिंग
रंगपुर
डेला
अप्रिय
रोवर
एडिडास
रुस्त
होंठ
खानपान
##टेस्ट
१२६
20190
##ote
##लेट्स
गुलशन
हस्ताक्षरित
आभूषणों
अष्टांग
आहुति
मुल्ला
मन्त्रों
निबंधों
इच्छित
मल्टीमीडिया
कमांडो
अन्यान्य
ड्रग्स
ओपेन
मैनहट्टन
ऐंठन
सख्ती
HTML
अल्ट्रासाउंड
यूगोस्लाविया
मुहाफ़ज़ाह
King
est
you
कन्स
खू
टॉक
थॉ
नटर
भिव
मिस्ट
लकीर
स्ता
##तोली
##ोउ
##ोज़ा
##दह
##32
##ेंडे
##र्न्स
काग़
##केम
साओ
निघ
##ंडलों
मुकु
पहनी
अनुवर्ती
दोआ
वेयर
सुने
पुर्
पाओ
##ंकु
भूजल
पारदर्शिता
सूई
आवृति
आईआर
तीज
##ुपाती
प्रणयन
भरते
विद्युद
पुरुषार्थ
सम्पाद
शीर्षकों
सुनहरा
खोया
हवाईअ
कनाली
##ika
चर्चिल
सोलंकी
ताराम
फैलती
##ब्बत
कार्डिनल
प्रत्यक्षीकरण
मालिकाना
वादे
धूमधाम
यशपाल
गार्सिया
उगने
इस्तीफे
अंदाज़
मॉरिस
मुर्गी
##ुपातिक
प्रतिद्वंद्वियों
जुरासिक
छुड़ा
महाजनपद
डिफ़ॉल्ट
##urrent
मुजफ्फरनगर
##मीडिएट
महाशिवरात्रि
सालगिरह
Des
ST
run
अन्द
आले
खात
डूम
तत्र
पली
बाइनरी
भाटी
रैक
रतल
लं
सिलाई
##ज्ड
##वस
##ces
##90
##ور
##ानियाई
##वाड़े
हुवा
##ाराव
कुकी
उपखंड
##िव्य
##ज़ेन
नामदेव
सुधारा
##िटस
पूर्वोत्तरी
पाटन
फ़ोट
##फ़ल
विभूषण
सूबा
पीड़
जानेवाला
परिचालित
##ियरिंग
चौप
घराना
ट्रंक
लिंड
गैलाप
##देखा
शिवपुरी
शिवसेना
सार्क
शाक्त
गुरूद
एमिल
अंके
आल्हा
कर्मी
भूमिहार
##ब्रिक
यादों
कम्प्यूटिंग
वाहिकाओं
काउण्टी
पटौदी
##ogen
सूत्रधार
दोषपूर्ण
प्रतिमाएं
दायरा
ट्रांसपोर्ट
गुफाएँ
१९१६
प्रतिद्वंदी
उन्माद
डिस्कवरी
१९०६
फाइब्र
who
USB
अंचलके
विनियमों
त्रिभुवन
point
राजगद्दी
मुनाफा
लीजिए
##र्वाण
सुलतानगंज
मुआवजा
भावात्मक
ग्लैडीएटर
स्मैकडाउन
रावलपिंडी
1बी
NO
loc
may
अट्ठ
ईपू
एंगल
चेंज
नूह
भरण
शब
सियोल
##त्प
##तमी
##बूब
##कर्त्ता
##ुनि
##ोडी
##र्ताओं
##ान्सी
कीथ
कांत
इस्क
##्लिंग
##ायणी
राजाराम
##करे
देहाव
##ावधि
##विन्यास
अनुक्रमण
दोहे
व्यस्क
##िट्यूड
मेगाहर्ट
##स्फीति
ब्रदर
सहगल
##हार्ट
टीला
पीता
आरोग्य
श्रीनाथ
##ग्रही
##ग्रुप
स्कंध
रेप
कॉपर
एलएल
चौंक
बल्ब
गतिमान
##म्भरी
अधिकांशत
##संरचना
अप्रभावी
132
आनेवाली
सनसनी
द्रवों
विजित
सप्तक
जेसी
कहानीकार
##िडोर
गायकी
भाषणों
अस्पृश्य
डायन
चतुर्
सृजित
1855
##ोग्राफ़ी
ट्रांसमिशन
बचाते
प्रशंसनीय
झाड़ियों
होल्कर
बिताते
बख्शी
सेवकों
##ोन्मुख
विलासिता
दत्तात्रेय
ट्रांजिस्टर
BMW
##लोगों
अधिसूचना
वज़ीर
टकराने
प्रलेखित
ग़लती
लखीमपुर
अनुपलब्ध
पित्ताशय
AN
ret
इक्ष
एस्टन
ओबेर
चिन्न
डायर
तख़्त
बोर्
रित
वमन
शक्कर
हारे
##धात
##रिन
##िओं
##िडे
##्ही
##चूर
##ोका
##ोकी
##मद
##ेतर
##गुन
##अत
##्विस
##ालंकार
##ादत
##ासू
##ासो
नेर
नेत्रों
कुप्र
भारतेंदु
##ागन
##ेलियों
वालि
निर्या
निर्जन
सुदी
व्युत्क
जबतक
##ोक्र
अमरो
कार्यशील
माताओं
फ़ल
अभ्रक
##प्रोत
उपयोगों
मनस
अंग्र
##ोसाइट
कलंक
मीम
महाकाल
कुलकर्णी
सुराग
चिकना
प्लेब
नमाज
##क़ीन
तेलों
भुला
##श्रेणी
210
##टिकन
इलिनो
##ody
##कोटि
##एचसी
मसाल
पलामू
सीखते
शेख़
राजकुमारों
मेहमानों
हेरिटेज
बनायीं
अपनाना
चन्देल
पैराड
सादृश्य
दुखद
नौकाओं
फॉर्मेट
तेंदुए
यूक्रेनी
प्रतापी
स्वयंभू
बन्दरगाह
रत्नाकर
मुमताज़
कवयित्री
त्रिवेणी
मनोदशा
सन्निहित
चेकोस्लोवाकिया
भुखमरी
औजारों
कनालीछीना
गैलापागोस
Red
tem
छिट
नन्ह
पिला
बर्टन
यत्र
वाया
##वश्यक
##son
##अरों
कोठी
संधार
अनस
अनदेखा
साबर
अपलोड
निर्भ
सुसंगत
##िमो
राशन
##्रमिक
पूर्वोक्त
मैम
क्रॉ
क्राई
फ़ाइ
गुर्ज
पारंगत
दीया
दीजिये
सूझ
सर्द
हरम
आमंत्रण
लीं
बाधक
क्लोन
##iter
शिवराज
गुणसूत्रों
माले
पाले
उठाता
क्रियाशीलता
बोलियाँ
प्रेमक
##िफर
जॉन्स
मनोचिकित्सक
१३५
भेदों
माइक्रोप्रो
खरीदना
वेंक
अब्दुर
त्रिपुर
ड्राइवरों
धोती
खरब
गोपालगंज
प्राइस
##ounc
फातिमा
अज़ाब
नर्सरी
नर्तकियों
अछूत
##ोत्कर्ष
शुभारम्भ
दुर्बलता
इष्टतम
रीतिकाल
रोनाल्डो
स्ट्राइकर
उधम
##ydro
फतह
चिदंबर
चतुर्दशी
घाघरा
ग्रेजुएट
समेकित
ताल्लुक
##्बेकिस्तान
प्रोग्रेस
दलदली
देहावसान
8वीं
Air
EC
Sec
VII
अरण
आक्राम
च्य
जकार्ता
थोडा
दफ्त
दावत
पन्त
मधे
मरीन
येर
रील
सडक
##कूप
##rd
##फेन
##भक्षण
मेंं
प्रकीर्ण
##ियेट
##िएल
##केयर
##क्षय
##राप
##कारो
जोत
##्रेनिया
सिध
पाथ
माफिया
फ़ॉक्स
संगति
##ोपिया
बिछा
स्थानापन्न
आवृत
##ल्लों
लोककथाओं
उदारीकरण
कालका
##ोडोर
नियमान
##esent
देवबंद
भग्नाव
गिराने
एडगर
वंशों
हलांकि
हल्द
बजाज
क्वथ
जमाल
१०४
मुहूर्त
धात्विक
##स्थापना
संक्रमणों
जुड़वा
लघुगण
किरदारों
1864
समीपवर्ती
जातीयता
when
दुश्मनी
बारात
संबोधन
खालिद
जनसांख्यिकीय
हर्बल
साईं
दोहराव
त्वरक
##धिराज
जोसफ
कॉरपोरेट
शमशेर
##मंदिर
संबन्धित
घोंसले
श्रीमद्भागवत
प्रचंड
अन्वेषक
हतोत्साह
Hindi
##अमेरिका
जिह्वा
कैप्सूल
रुक्मिणी
व्यभिचार
माहात्म्य
अलेक्जेंड्रिया
टार्ज़न
वैयाकरण
अलैहिस्सलाम
We
mar
आषा
गिग्स
टिट
नर्व
बंजर
भाम
मोरी
षट
सत्व
##oad
##जैक
##ूथ
##मंगल
##णवी
##झर
##ालक
##काट
राजशेखर
मुर्त
पहिये
बहाना
##ुतोष
##ष्करण
##्यूज़
हिदाय
##ंचा
गुड़िया
भूखंड
##गाड़
##कोष्ठ
कॉर्ट
हरकत
##तरफा
राष्ट्रव्यापी
कुलदेवी
एसई
रचनाकारों
एनआई
प्रदर्शनकारियों
##omen
फलनों
प्रस्तोता
लालक
##गुजा
अहल
कांग्रेसी
पर्वतारोही
मोरे
मास्ट
वाघ
एचटी
१२४
तुमको
270
कराधान
स्थिरांक
##istory
##क्कल
अनिवार्यता
अभिव्यंजना
चाची
अर्धशतक
उद्यमियों
टॉमी
ताकतों
बिरला
एंटोनियो
आश्विन
अनिच्छ
अनूठे
अव्यक्त
मानवाधिकारों
परमार्थ
सेंटीग्रेड
राजगृह
गंतव्यों
चौरासी
डब्ल्यूडब्ल्यूई
बीटल्स
लचीलापन
##चारात्मक
वुल्फ
बरामद
अ0जा
ओतप्रोत
अभिलाषा
तीरंदाजी
अविकसित
स्तनपायी
फाल्गुन
मनमोहक
त्रैमासिक
मसालेदार
Mo
sl
इक़
ईशान
टीन
डेज
मियां
वोह
शाला
सखी
सियार
हठी
०८
०९
##िद्ध
##एफ़
##MP
##अर्स
##GB
कोसल
विहीन
विंबल
##िन्य
##द्गीता
स्वान
##किशन
सुन्दरी
जीमेल
क्रास
क्राइम
फ़ाइलों
सरह
स्टोरेज
कैनेडियन
अवमूल
वैद
पैसिफिक
##यन्त्र
##iness
सत्यता
##्राण
सोचना
सेनाएँ
प्लेस्ट
हाथरस
वायदा
मल्हार
पाठय
वाका
अनुसंधानों
गलनांक
अपेक्षाओं
दुर्वासा
अधिनियमों
कटरा
इलियट
गंवा
साक्ष्यों
१४३
स्टार्स
स्वराज्य
##्रेटेड
पॉकेट
अनायास
प्रिंसेस
गीली
दायें
अणुसूत्र
पहचानी
रिचर्ड्स
विक्टोरियन
पेंटियम
USA
उज्जय
काठमा
ह्यूम
ताकतवर
अंबानी
##ship
न्यूज़ीलैण्ड
कॉम्पैक्ट
रवीन्द्र
घोटाला
आप्रवासियों
हत्यारा
किंवदंत
टर्बाइन
पनडुब्ब
देवलथल
आख़िरी
एसटीएस
आपेक्ष
##etween
##जेपाम
पार्षद
बरनवाल
##sych
##सागरीय
बहुआयामी
प्रस्तुतीकरण
अ0जा0
विंबलडन
Bas
Po
Rec
Te
ep
some
आर्ग
एवी
कश
प्ली
फंता
भ्रा
यद
यापन
लुड
शलाका
##बेस
##जेस
##चिंग
##शती
##टेट
##गास
##ky
##ON
हैन
##न्डा
##ासिन
अनी
उपप्र
उपजाति
##स्तिष्क
##्रेग
स्वशासित
##ेरिक
##ेरियम
##स्निया
##र्थी
संगीता
सूद
टीकम
आधारों
बेव
मनोबल
स्पार
ज़ुल
##डीएस
धर्मेन्द्र
##ुक्क
हाफ़
गांधार
रंगोली
एनबीए
ब्रिटिशों
मॉस
संतति
जरुर
जेपी
बोल्ड
##rough
प्रशिक्षु
##ives
संयोज
मिनोग
जूलियस
१४४
१४वीं
गूंज
हथिया
प्रेक्षक
फ़्रै
मौलिकता
गुलबर्ग
गेंदबाज़ी
डबलिन
जलाया
##िनोमा
डेमलर
अम्बिकापुर
##रेखीय
उगाने
खिड़
नीदरलैंड्स
डूंग
##acter
##वांशिकी
शाकाहार
स्कैनर
बिस्मार्क
कोस्टा
अल्ट्रा
लैंग्वेज
संपीड़न
फैक्टरी
लद्दाख़
सूखने
बनवाए
मलावी
बहुपद
महिंद्रा
टिम्बर
##तरेय
##अंदाज
महाधमनी
डायनासोर
अनिरुद्ध
पारिश्रमिक
##ोस्मिथ
वर्गाकार
प्रेमकहानी
क्वथनांक
Bal
Eur
ID
UE
cr
term
अमान्य
झाला
डरा
पाह
बटलर
वचनों
सपा
०३
##धर्मी
##बास
##होल
##oic
##li
##ler
##लक्षण
##ोच्च
##ेनी
##RNA
##ks
##DI
##छिद्र
करोड
##ालू
##ामय
##रीक
##्लिकन
##लेवा
##िरे
वेक्टर
क्षेत्राधिकार
तोरण
##ोकॉ
हिंड
माही
सरलीकृत
स्टु
##प्रिंट
##स्क्रिप्ट
##err
लोकत
प्राचीनता
##ोसिन
##ोसीन
नीना
रामजी
अग्न्या
आयतों
गोखले
डीआरडी
प्रणय
नवयु
नवोदित
माल्ट
##ात्मा
एड्रेस
रूज
बैंकॉक
नाराज़
साइरस
शाहपुर
बढ़ाती
तंत्रिक
इन्ड
##र्वेटिव
सुलह
उड़ते
सेलुलर
इत्यादी
एफडीए
ईसाईयों
विकेटकीपर
कृतित्व
ज्योतिर्लिंग
##erson
बेचते
##बिहारी
शेखा
1874
अविद्या
बैठकें
ant
लक्ष्मीबाई
इंट्र
पट्टियों
ख्यात
खगोलशास्त्री
##स्रोत
दत्तक
1835
प्रोडक्ट
##ियर्सन
अवरोधक
सिग्मा
अनिच्छा
दाँतों
विश्लेषकों
हजारीबाग
रिहाना
##ause
रवैया
ओरेकल
कलीसिया
पुष्यमित्र
##िबन्धीय
रतलाम
ICA
SAP
ki
एलाय
गोन
चील
टैल
पिज
रज़
रंज
रूह
##ंद्ध
##रानी
##कते
##oard
##मल्ल
##मग्न
##ँगा
##ालाल
विवर्त
##ियरी
##ांध
अनभि
##द्धन
कुड़
महोदय
##न्द्व
सुभद्रा
सुस्पष्ट
##भीय
##ोरल
बार्
अवस्थिति
बैटल
सर्फ
बेने
बेसल
असम्भव
ज़ूमा
जुब
जुझ
धर्मप
दिलों
महावि
प्रणव
नवाज़ा
इंडिप
गुरुदेव
##गलन
##ley
131
वितरक
पंचायती
चलाकर
जर्मनों
बसते
सप्तमी
जेरे
लोभ
उपचारित
फारेनहाइट
दैवीय
घटिया
वॉली
डिस्लेक्स
नीलगिरि
जमात
##ava
style
बायें
सेक्रेट
नोटों
##्बाथ
नज़रिए
डाकुओं
दमोह
कबूल
नुस्
कम्युनिटी
दंतकथा
ब्रॉडकास्ट
सियाचिन
class
चश्मा
तंजाव
नॉटिंघम
मूँग
पुनर्मिलन
under
बार्कलेज
नसीरुद्दीन
लापरवाही
बेयर्न
उर्मिला
शियर्र
एडमिनिस्ट्रेशन
मित्तल
उड्डयन
संधारित्र
हतोत्साहित
AS
GN
HB
air
count
fact
mm
mot
mult
आॅ
आंस
ऐंट
खराबी
गाम
चय
डिश
डंठ
लती
शम्भ
९००
##समान
##min
##जेड
##फाई
##भ्रम
केवी
हैम्स
##ताज
एकेश्वर
##न्डी
##ालैंड
##ासिटाम
सम्व
##्याय
कुण्डल
##ण्डन
सबवे
सब्बाथ
##ज्ञों
##ीयत
विश्वकप
##िपूर्वक
फ़ूड
##िक्षेत्र
##ोनॉट
ज़े
तबला
राष्ट्रसंघ
बाहुब
गोरे
देवियों
बताकर
##र्णय
पहुंचना
रॉसी
फलोदी
रोमनों
माँस
हिमलर
आशुतोष
##नामों
इलेक्ट्रॉनों
टैटू
संयोजी
खोई
उड़न
हाइड्रा
पेटी
दवाइयों
औद्योगीकरण
मापक
सलाहकारों
संशोधनों
##app
सेनान
खुलकर
1851
यथास्थ
गिलास
नलिकाओं
आहत
##बुद्धि
रघुवंश
शालि
अनोखे
इब्रानी
ल्यूक
घुटनों
जहाज़ों
निरोधक
CEO
हरिश्चन्द्र
मोनोऑक्साइड
पोर्शे
सिद्दीकी
रिसीवर
ओंटारियो
काठियावाड़
इलिनोइस
A5
इबाद
ऍफ़
ऑरे
छपे
तांग
दायीं
नब्बे
बही
भोला
मौर
रुम
हिक
हुर
##िबल
##डोना
##जाह
##यची
##वई
##वटी
##ौग
##33
केत
##तापूर्ण
##नेथ
एकक
##ालोक
##ामापी
##्लव
यात्र
मानिक
मेध
अमुक
क्रॉनिक
हिच
स्टडी
##वेस
टीना
टीसी
सर्ब
पीवी
ज़ूम
चाहने
##ones
मौक़ा
हराम
डीएल
देनेवाले
##धिकारियों
लालू
धाराएँ
##ोफ्रेनिया
मनाये
प्रान्तीय
##सूत्री
लिपिबद्ध
दैत्यों
##ेंजर्स
चर्बी
आयरलैण्ड
उर्दु
विद्याधर
##्वाड
पकड़ना
पत्तन
फैलाया
पात्रता
परिस्थितियां
द्रवित
व्रण
Char
बुनियाद
उन्मुक्त
दरवाजों
उतरते
नारीवाद
##योमी
५०००
कौरव
पठारी
सशक्तिकरण
कृषकों
चांदनी
लंगूर
धागा
मुनाफे
फिरोजाबाद
एम्बेडेड
##ysis
हाइपोथ
आर्चर
उपविजेता
ओब्लास्ट
छापामार
##राँव
##विस्तार
नैसर्गिक
किफायती
क्यौंकि
850
GSM
Met
NY
Sa
SQL
world
अण
ऐतरेय
झ़
टों
पंग
बुत
लायी
शरत
##पण
##पॉड
##फेट
##uj
केतु
केबिन
परास्
विण्ड
जाज
सात्विक
थाय
##क्षत्र
अपच
निन्दा
##्लेट
उपत्य
रहमत
##रेक्टर
##्बेस्ट
##ोलिनी
सीएम
विकि
जबर्द
##ष्कारों
##ीयन
जननांग
फ़ोर्
स्टेल
कैले
पारियों
##कोव
लाउड
श्रीरंग
ट्रकों
ट्रिनिटी
पतझ
समानान्तर
नाउ
दिखी
##स्ट्रियल
theory
141
एडोब
हलाल
मोज़
मोटापा
एयरक्राफ्ट
##शिमा
१०६
विदाई
बागडोर
फॉर्च
हत्याओं
सप्ताहों
१३वीं
ऑनर्स
तिरहुत
खतने
##बिन्द
कण्व
हेलो
टेल्स
प्रतिपदा
टीकाएँ
अंधे
##ries
तात्या
डिज़ाइनर
गोत्रीय
कनेक्टिविटी
आयातित
रिटेल
928
शाकम्भरी
रचने
बगीचों
उ०व०
उपनगरों
दयानंद
##ethod
##etwork
अपरिवर्तित
आउटल
अकाउंट
पेंसिल्वेनिया
Research
वेल्लूर
आपूर्तिकर्ता
मधुसूदन
फंतासी
बाहुबली
Rep
Soci
Singh
Trans
एए
खप
खेद
खम्भ
चें
चने
छक्के
तस्य
धोना
भाक
म्यूट
रोने
वजीर
शुल
##मट
##दत
##ware
केला
प्रबोध
##्त्या
कोमा
कोर्प
हैंक्स
जाधव
नेल
##तिहा
##सेप्ट
##िनियों
कुला
मुग़
##माइड
##िविया
इन्व
जैस
##िटा
मिलेंगे
जनमानस
ब्रिस्ब
तरक्की
प्रत्यु
वैशिष्ट
अंगरे
स्पील
उदयन
नियति
क्लॉक
सुरंगों
समाजसेवी
नवाज़
##itude
परिणति
लक्षद्वीप
दाढ़ी
वारेन
##uss
सुधारवादी
संकेतन
संभाव्य
मनाए
१२९
दैट
दैहिक
शिंदे
१३३
सन्देह
लिम्ब
हाइड्रोक
गठिया
अनुप्रयुक्त
ज़रुरत
बुलाकर
पाण्डु
पितरों
१९०९
prov
उगाई
1817
बाध्यकारी
सहनशीलता
कंसोल
acid
कैंपस
##फुल्ल
जन्में
गैंगस्टर
गोंडवाना
पिघलने
काव्यात्मक
विशाखापत्तनम
समाकलन
हामिद
किर्गिज़
सुचारू
पत्राचार
##ान्सीसी
अवमूल्यन
परास्नातक
AI
ABC
Del
Will
between
pos
rad
एरी
जने
तर्कों
नयन
फादर
भंवर
मिता
वंग
##जंग
##ूज़
##चुक
##ोँ
##शोधन
##गंग
##गिंग
##CP
जांघ
##ासना
##ड़ते
##ांद
##्मेर
##्लु
##ायरों
भारोत्त
कुत
उपाद
निर्धारक
##न्नू
बीना
अमोनियम
अलार्म
जनतंत्र
गुह
ग्रहीय
##गाड़ी
##ोधा
निकेतन
##म्बन
मनसा
##ोहारी
##वलैंड
ज़ाल
##ोसले
श्रौत
ट्रायल
देवदास
धारचुला
जगमोहन
भरपाई
फैंट
पूर्णरूप
तुझ
शुजा
गोलियाँ
रोकती
inst
कम्पनियां
##लाइड
##ival
१५वीं
##आरएल
मुक्तक
लम्बवत
गूजर
शीतोष्ण
फ़रिश
माइक्रोफ
हृदया
बंधु
कक्षाएं
चट्टोपाध्याय
अभिहित
##चुनाव
अकबरपुर
टीकाकार
विंडो
प्रत्याशित
राधाकृष्ण
बगावत
पाण्डे
मॉडर्न
888
माधवराव
पायदान
दुर्भाग्यवश
कोलेजन
गुमराह
म्युज़िक
पंजे
उ०म
मच्छरों
ढीला
##racle
हकीकत
डोगरा
रामानुज
news
प्रज्वलित
कुटीर
सैंकड़ों
DivX
जठरांत्र
प्रैक्टिस
Group
Mad
bu
بن
अत्त
अट्
इद
ओडीआई
कान्य
झूल
टाम
टाँ
तली
थियो
नवीं
नाले
मिख
##कपुर
##जनी
##्गर
##मबर्ग
##वले
##दंड
##शकों
कोयल
##्वेंचर
##नापुर
नेवादा
निवृत्त
वर्मन
##क्तता
इनपर
##ूलक
माक
धर्मपाल
जिन्दा
संघटक
वीटो
यूज़र
##ुपा
शैश
##lege
गिरकर
1100
एक्सबॉक्स
इलायची
##omic
जेफ़
ग्रेमी
प्रसंगों
लैप
साइबेर
हॉग
##राजा
स्वामीजी
बल्लभ
दोस्ताना
घाटों
कैसेट
अभिवादन
फेरी
गौरैया
लोहान
२२०
मोरार
बढाया
प्रावस्था
एकाएक
भूमध्यसागरीय
क्वालीफाइंग
लीलाओं
अलेक्स
##न्टीना
ललितपुर
रौशनी
डेमोक्रेट
मुक्केबाज़
जमींदारी
सम्बंधी
भतीजी
घटाकर
संचयन
##विरोधी
अखाड़ा
ऐश्वर्य
ident
देहात
ऋतुओं
##ography
सिम्बियन
बंजारा
##शरीफ़
उपद्रव
बौधायन
सिकंदराबाद
##कल्याण
वात्स्यायन
धातुकर्म
आपेक्षिकता
डीआरडीओ
ब्रिस्बेन
Ca
Har
Samm
rem
असाध्य
ऑर्के
ओके
ओपल
गैंड
टिल
ढकी
धूसर
फाग
सवा
##तूस
##ड्रा
##जद
##मैट
##शाल
##टोक
##गोम
##65
##OH
प्रमंडल
संस्त
##ामु
जाह
##ुरिया
##सेज़
निब
निहार
##्लिन
जोह
अधिनायक
हीथ
##सीडी
##िरो
##िवास
वेम
##िमे
राण
विकट
मेद
##िंगन
##चार्ज
ब्रश
सरगुजा
##ोपचार
##सिष्ठ
पीएम
##निग
प्रशीत
##ांशु
अर्जन
##esis
##ामीटर
सुरा
बाल्ट
##itis
मृतकों
विभागीय
पहाड
##समु
भाईयों
##्योत्तर
लाइफ़
अदर
तत्वावधान
##टेक्ट
वाह्य
##rah
बांह
264
##राज्यों
आर्सेन
##न्डेशन
there
आदर्शवाद
रोजमर्रा
मेडागास्कर
आउटडोर
मुक्ता
नॉर
जिल्ला
खीरी
अविभाजित
शौकीन
बुद्धिजीवियों
स्कोरिंग
चम्पा
डिवीज़न
नहरें
नावों
शहादत
मानचित्रों
सैलानियों
बुखारी
##हाइड्र
बंगलादेश
##ATA
ऑरेंज
##ample
ढेरों
इलेक्ट्रानिक
period
ठहराव
गिब्सन
सुषमा
मेट्रोपोल
हँसी
ज़बरदस्त
##ाकिनी
डकैती
फैलोशिप
बजरंग
बुरहानपुर
लक्ष्मीकांत
युसुफ
सद्दाम
हिलेरी
UEFA
लोकतान्त्रिक
अट्ठार
AA
Az
ED
Gov
GDP
Mc
MI
tit
छिपी
डों
तलाई
बोड
रोपण
लान
लांस
सभाग
हारी
##र्र
##हब
##मैक्स
##विराम
##शत
##शो
##शासी
##घी
##ईएस
##थों
##थिंग
##SI
प्रहल
प्रफुल्ल
विभी
विवर्तन
संचलन
##्पित
राजदर
लेवी
##साथ
##ेटिक्स
वर्षावन
कमिटी
प्रतिभाव
मेथेन
##िपेट
हिज़
प्राच
##्नो
अंगी
चार्वाक
पदकों
कलाँ
विषु
यूं
गैसीय
रंगभेद
भरमार
पौष
उद्घोष
अलीपुर
लैंप
##chi
प्रेमचन्द
इन्स्ट
लोच
लोका
न्यायधीश
खरीदार
मूला
आखेट
रिसॉर्ट
1853
आन्दोलनों
पादु
स्लॉट
मिथकों
अनुबंधों
सोनम
माइकल्स
१९१३
बुद्धिजीवी
लहरें
लिटरे
स्काॅट
निषेचन
स्पिनर
##ोत्पादक
घुमाने
सिंघासन
लक्ष्मीनारायण
वैलेंटाइन
##ences
विडंब
भांगरे
स्टार्टअप
खंभे
मोतिया
HSV
बाल्टीमोर
भुमिका
पैंथर
आर्सेनिक
चतुष्कोण
मंत्रिपरिषद
आर्मस्ट्रांग
थॉम्पसन
भग्नावशेष
प्लेस्टेशन
खिड़कियों
AOL
Pre
She
अर्ग
ईपी
गृ
गॉल
चंबल
दक्
पेम
बद्ध
बोने
बक्से
रिकी
लश
वॉक
सादा
सगुण
हसी
##बदल
##मण्ड
##OP
कें
हैl
प्रप
विच
##ामि
##ाद्व
निवृत्ति
राजगीर
##ंदूर
##लेखा
उपादान
##िवाल
सुधर
पुदु
मेधा
जननी
होनेवाला
पैठ
आरोही
प्रशान्त
जलडमर
बाबाजी
मीटिंग
सर्वोदय
ट्रिगर
यूँ
##्यानु
कुल्हा
गैस्ट्र
आसाम
चित्रगुप्त
गुरिल्ला
एम्स्ट
कोडिंग
पहुंचकर
पांचवे
ब्रह्मगुप्त
कौंसिल
##rod
निकटस्थ
न्यायाधिकरण
अग्रभाग
पाँचवें
मांझी
चुनकर
मेट्रिक्स
बंधुओं
प्रोग्रामर
##ोनास
नवीनता
वोल्फ
हाइकु
सौंपने
जालस
गलतफ
भोज्य
सेकण्ड
पट्टा
##बिलिटी
१९०४
अपरदन
नाश्ते
टोकरी
पेजर
पूजनीय
हर्बर्ट
फिनिश
प्रामाणिकता
पशुपति
वक्ताओं
एंजाइमों
चित्तौड़गढ़
पांडुलिपियों
प्यूज़ो
नांद
मिलिट्री
वॉचमेन
झींगा
अर्नोल्ड
मूंगफली
फिसल
एटलस
गर्भनिरोधक
खुसरो
चिदंबरम
PH
Part
work
उट
गाम्बिया
चातु
छुड़
ढंक
०४
##सोनिक
##ग्वे
##ऊन
##EM
##34
##FS
काप
कोशी
कोकीन
एकवचन
##ालिब
सममिति
##कार्ट
##ाहिद
##्चे
अनुनाद
##ंतक
##ेरोन
सीज़र
बीह
प्रतिवेदन
पाबंदी
##िंगा
किसने
क्रिक
कैवल
चुकाने
अभिग
पार्लिया
पीटा
मुख्यमन्त्री
बेघर
##ुकुट
जानलेवा
राष्ट्रगान
महाभाष्य
##ोब्ल
चिड़ियों
शरीफ़
परिवर्तक
निम्नतम
##्जिका
पालकी
ऑस्ट्रियाई
उमराव
हार्पर
कोलोराडो
तापन
डिजाईन
शादीशुदा
235
११वीं
##बूती
१३८
जायसी
माहेश्वरी
छत्तीसगढ़ी
प्लेटिनम
##ोज़ोआ
सिंगर
सुबोध
कण्ठ
ट्रांसज
ईस्टर्न
बोधि
ang
परेशानियों
वानिकी
1845
चरमोत्कर्ष
कीटोन
असहमत
गजेट
कांस्ट
न्यूरॉन्स
##ords
कैम्पस
आपदाओं
बहुलक
मरुस्थ
Americ
ढलानों
सामंतों
पगड़ी
##वाइरस
घुड़सवारी
ब्रिगेडियर
भगवन्
हेलीका
विनिर्देशों
एक्सटेंशन
श्लेष्म
क़ीमत
शिक्षाविदों
राजकमल
languages
##्यांगना
भर्तृ
छतरपुर
अर्मेनियाई
अंतर्दृष्टि
स्लोवेनिया
अश्वत्थामा
पुजारियों
हिदायत
एलायंस
उपत्यका
पादुकोण
Sam
Sant
oper
कंवर
छव
टॉस
तिज
थाल
फाटक
ब्व
बकि
बंस
मिकी
सन्तु
ह्त्या
##बस्टर
##pos
##put
##ोद्
##ौद
हैड
काटना
काइट
परद
विं
विठ
विंटर
नेल्ल
निमा
##्सू
हुड
जोनास
कुन्ती
उपजी
वाल्ट
क्षेम
वेबर
सीकरी
सीमेंस
##चारे
सरक
अवसंरचना
आपसे
##atus
कंपनियाँ
परिचार
मीड
आईएएस
सतारा
पं०
##सायन
गिरफ़्तार
##वर्ली
सनक
रुस
सुनना
##roc
माइंड
माइकेल
हिमच
भुवन
विद्यास
विनती
ध्वनियाँ
##ump
चलेगा
भेजकर
१३६
प्रेमा
उपभेद
स्ट्रॉ
कल्याणी
ऐलिस
पड़ेगी
##स्मिथ
बुराइयों
रॉयल्स
निष्कर्षण
1847
१९०३
##ector
कूटनीतिक
सिमुलेशन
दीनदयाल
मेसो
त्रिपिटक
पहनाया
दादाजी
##नेरियो
डूबने
ठिकानों
शतपथ
शिराओं
अलैहि
सब्जियां
RFC
लाजपत
अनारक्षित
प्रहसन
मेट्रोपॉलिटन
अधिशेष
language
कोरियोग्राफर
क़स्बा
मैकेनिकल
झोंप
मद्देनजर
पधारे
##ategory
अजरबैजान
खरपतवार
Oracle
nucle
उर्ध
ऑर्ब
जम्प
झां
झाँ
बियो
यूल
शृ
##रकों
##िदान
##िहाइड
##lor
##ुशल
##लिपि
##ट्यूड
##फाइट
##षु
##kar
##we
##्रत
विमा
संकुल
सम्यक
सायन
##ूपा
##लीस
##लीप
मुशर
##्किन
##ाँश
जीपी
##ोलिथिक
प्रतिबाधा
क्रैंक
फ़ास
सरिता
स्टर्न
प्रदाह
##भाचार्य
बेथल
##erb
##कोम
हरमन
अध्यन
##orph
##ुआं
आयशा
अरसे
पुनरा
इंस्ट्र
##बाध
मिडिया
योजनाएँ
हेरा
##स्ले
रुब
नरसिम
बैठना
अदरक
आइकन
लोअर
ग्लूट
फ्लोराइड
ड्राई
खंडवा
ग़ालिब
गृह्य
##imal
जिम्मा
##नोई
##स्फुट
लिम्फ
पॉलिश
कार्डों
लवणों
सौरमंडल
डरते
1862
अविनाश
आंधी
नजरअंदाज
जौन
गारफील्ड
##ंतीस
ट्रैक्टर
सैल्मन
नापसंद
बंगलुरु
परिपथों
भैंसा
प्रासाद
दर्ज़ा
##फोर्म
##ernment
डिब्बों
धीरज
बीतने
माइनिंग
संवहन
सेकेंडरी
common
ओषधियाँ
क्रियाकलाप
नुकीले
सब्सिडी
विरूपण
value
पेनिसिलिन
क्लॉज़
अव्यवस्थित
संगोष्ठी
सौहार्द
भिवानी
व्युत्क्रम
आक्रामकता
CM
Kar
Pat
many
sim
आक्षेप
कढ़ाई
झंग
धानी
पल्प
फर्ड
यति
वसिष्ठ
हरण
##िदा
##बत्ती
##सक
##्हास
##दश
##गर्
##गेन
##भुत
##fl
##book
##WA
##अव
##०ए
##GA
##याति
प्रलेखन
कोरा
साउ
##नीक
##कीला
कारतूस
कुल्लू
उपवर्ग
##ागृह
अधिकाँश
##िमण्डल
कमियों
पाठन
##िपात
फ़ील्ड
##प्रास
भूतल
दीवाना
बैलों
लातिनी
##सिद्धि
जलती
##ुषी
दृढ
सर्वज्ञ
पदच्युत
क्लेश
समाजशास्त्री
सफलताओं
सारस
दुनियाभर
लड़ना
नैया
पेशाब
हार्वे
भौम
बेहोशी
रीडिंग
आइवी
सैनिको
फॉरेस्ट
पाँचों
three
मार्को
जमाया
मुकाम
निशानी
अनादि
इरविन
राजपूताना
शल्क
सोनू
भाऊ
प्रतिकार
दौड़ने
हेमचंद्र
रोबिन
##ource
मेसोथ
स्फुर
भिंड
रिज़ॉर्ट
प्रविष्टियों
निपुणता
##ोन्मूलन
##ियोग्राफी
कर्कट
निगमित
नाज़िल
पराक्रमी
अखाड़े
झड़प
मुक़ाबले
मृत्युदंड
अज़ीज़
##uthor
नवनिर्मित
बीजाणु
wikipedia
IBM
कीमोथेरेपी
कुमांऊँ
रेस्टोरेंट
टीकमगढ़
HP
Sub
follow
उबल
ओड़िया
घृत
चोक
जन्नत
झोप
टॉय
थै
नोर्
पेत्र
ब्लाइ
मवाल
रैल
ल्यु
लाईट
वाइट
वांट
हनन
##िड़ी
##हाम
##कं
##cent
##गॉन
##gy
##LAN
##्रुत
##ारेड
परिजनों
विदेह
##ियड
##तेश्वर
अनधिकृत
किरात
##क्षियों
##वाग
जोवी
##्रीत
अनुष्का
जीबी
व्योम
##िटिस
##ष्फल
माफ़ी
कैके
बिष्ट
##क्सस
भागते
कामगार
दक्षिणपश्चिम
ज़ब
लोककथा
##ेक्निक
##atory
जिंक
बाकि
##ales
समाजिक
प्लैट
लड़कर
पेप्ट
##asc
##गणितीय
ज्ञानकोश
मिथाइल
जेनेटिक
बैंको
सिरका
वायुमार्ग
विदुर
फ्लो
भावनाएं
भेड़िया
##osph
१४७
इमारती
१३७
सूक्ष्मजीव
पुनर्स्थापित
संस्थापित
शिकारियों
मार्श
सुब्रम
टिकटों
खर्चों
उभयल
स्त्रियां
शिल्पा
शिल्पी
छिपकली
ट्रैवल
झरनों
स्वयंसेवी
अवरक्त
##फॉर्मर
शाक्य
पुनर्गठित
मुक़द
सुकरात
आस्तिक
चमकीला
##्युमिनियम
डोगरी
मुज़फ़्फ़
बेजोड़
संवर्धित
गुंजाइश
मुहावरे
नवगठित
##मार्केट
उज्जयिनी
डिस्लेक्सिया
तंजावुर
बेथलहम
GA
IF
SP
SS
V6
wiki
अवा
ईए
ऍक्स
ऐमिन
कजा
कोंग
डाउ
तातार
पज
पॉट
मोर्ट
शावक
हंसी
##बला
##जिया
##शयों
##भानु
##ua
##100
केरी
##ानाम्
काश्म
सेग
##सेर
##ायों
स्थली
स्थैतिक
##करन
##कीर्ति
##्बो
विकर्ण
##िट्स
प्रतिपिंड
##रणीय
##स्ने
स्टंप
##फ़र्ड
##ंबार
मार्त
आपस्त
कॉस्ट
साल्ट
##चीनी
क्रिकेटरों
सेवायें
गोयल
##ूमदार
152
नाबाल
विलाप
परीक्षक
वनोन्मूलन
142
##रलैण्ड
सनकी
##गुहा
ऑफ़िस
सातवाँ
जयंत
आनुपातिक
तटस्थता
जनतांत्रिक
##मराज
१५००
रैकेट
##ॉप्ट
चालकता
नीतिगत
सॉन्ग
225
मराठ
सूक्ष्मजीवों
परमिट
उत्क्रमण
##बन्धु
प्रभास
फॉरवर्ड
330
रॉयल्टी
प्रत्यायोजन
साराभाई
सिवनी
रेटिना
पुष्पों
मैक्सिम
तिथियों
1843
चिपच
जाम्ब
बखरी
लार्वा
अभियोजन
फॉर्मूला
बानो
अब्बासी
रवीन्द्रनाथ
उपक्रमों
रेमंड
अमेठी
बलरामपुर
श्यामा
अंगुलियों
नाजुक
तदनंतर
कनेक्टिकट
##incip
आत्मसात
सीतामढ़ी
ऋषभदेव
साझेदार
फीनिक्स
तुषार
जगद्गुरु
आउटसोर्सिंग
गुंटूर
श्यानता
नियमानुसार
##०ए०
3D
BD
Min
mat
phys
गतिकी
घूर्
जयन्त
डिल
तंतुओं
नसल
फुर
फंक्शन
बाना
यत्न
वतन
##ड्
##सम्मत
##कॉक
##़त
##खाप
##चरी
##इन्
##یں
##्रॉन
##यांग
कांप
सेती
कोरी
##िलोक
##ेशियन
स्थिरी
कार्त
##ाहे
थीसिस
सिंचित
##िमार्ग
प्रतिवादी
हिण्ड
अंतराष्ट्रीय
बनवाने
भागकर
पारे
कामुकता
##ero
स्प्ल
प्रभावकारिता
श्रीमान
रामपाल
##लैंडो
##ites
##मेली
संरचित
अप्रचलित
कैल्विन
१८००
बॉक्सर
मिर्गी
पांचवी
रुद्रा
ग्रेनेड
चरवाह
बहुउ
शाहू
माँगी
१०९
260
शिखा
वॉर्स
##ायलर
reaction
##बन्धन
संभवतया
मंजरी
लाहिड़ी
##बोधक
कोलंबस
फुले
##ize
अहिंसक
कैम्पों
बँटा
जेसिका
विकृतियों
उड़ाया
उछल
वेंकटेश्वर
रीतियों
रैपिड
नृत्यांगना
उलझन
उदासीनता
partic
आर्किमि
ठेकेदार
प्रह्लाद
आसिफ
समेटे
मैंगनीज
अध्यापकों
स्विमिंग
गहलोत
स्पीलबर्ग
Sammart
प्रहलाद
विडंबना
ICC
NSA
ऐल्ड
कबाब
चक्की
टां
दंग
दैन
भेल
मज़ा
मंशा
हाप
हेस
०२
##िन्द
##लंकार
##टॉन
##फॉल
##ौडा
##ँड
##vir
##्तों
##नाप
संरेख
##ामृत
##ामाइन
साही
##ायो
अधिस
अधर्म
अधिपति
कुंद
##माही
##त्तियाँ
महबूब
अनुमंडल
##वीर्य
प्रतिध्व
##ुलिया
क्रोन
जनार्
ब्रिक्स
कैनन
बार्ब
प्राणि
जन्मदाता
स्थानान्तरित
तहसीलों
बेनेड
अमेरिक
कपट
क्लर्क
टेनेसी
लिंडा
रंगून
चित्रांकन
इस्तमाल
उदाहरणस्वरूप
एमआई
बसाने
लालसा
अकस्म
बोलबाला
नमो
लॉस्ट
तमिलों
विनियोग
बेल्ल
हॉर्स
मिलेनियम
बर्दाश्त
मनोचिकित्सा
वॉयस
चढ़ाया
परिपत्र
आतंकियों
नोवा
यज्ञों
बचाओ
##कोशिकीय
बांधने
पहनकर
एक्सप्रेसवे
शहरीकरण
खींचकर
निराकार
नीत्शे
शिल्पकार
गोपालपुर
रहस्यमयी
इब्ने
टाइपिंग
सापेक्षता
##श्रित
##प्लर
केलिए
उग्रवादी
न्यूरॉन
मानवतावाद
फर्मों
सीरिज़
978
उस्मानिया
1789
##नेडिन
गोकू
पूँजीवादी
विलेज
ऐड्वेंचर
बुजुर्गों
हर्ट्ज
दाईं
अँधे
प्रेसिडेंसी
क्रिटिक्स
राल्फ
एहसान
ज़ेनोबिया
तदुपरांत
एम्स्टर्डम
3डी
el
pop
sol
same
अश्म
गार्ज
द्
नंगे
पय
रसी
लक्स
ससेक्स
##ाणी
##ाध्यक्ष
##बोर
##res
##ुइट
##ूकों
##गानों
##99
##48
##०५
विना
समयान
##वाच
वर्क्स
##ाइयां
अनुज
##ंतला
##ूरक
##िशाल
##दिता
कार्यपालक
कृपाल
##ोबस्त
एस्बेस्ट
##ाताप
##स्पून
बॉस्टन
हेक्टर
खुदी
महानता
##गुच्छ
दृष्टिगत
लैग
केन्द्रक
१०५
##ख़्श
पाएगा
तलछ
सत्यम
सिल्वा
शिंज
इट्स
बोर्डों
जायदाद
विद्याओं
वृक्षारोपण
तृप्त
ब्लैकबेरी
वसन्त
यज्ञोप
खोलकर
ख़ानत
इजरायली
सूरजमल
झुठ
मेघदूत
सिवान
380
रागिनी
दरवाज़े
चिपका
अखिलेश
1801
1805
अभियान्त्र
टर्मिनेटर
छूटती
हूणों
ISDN
भुजाएँ
इंडीज़
अंबाला
सिसोदिया
एरिक्सन
अँगू
पेसमेकर
एपीआई
जीएसएम
शिथिलता
मेज़बानी
वडोदरा
क्लीवलैंड
विस्मय
लेबोरेट
कार्यकलापों
different
अटकलें
विश्वविख्यात
सुपुर्द
ब्राम्हण
लघुगणक
अनिच्छुक
डंठल
##ासिटामोल
विद्यासागर
Sammartino
Pa
after
hind
गाउ
ठा
धब्ब
बठ
बटर
बाया
यार्क
हव
##राल
##हस्त
##सोल
##ोहर
##मई
##वय
##विव
##वियाई
##ग्स
##dom
##र्ली
##िके
सेरा
नेब
नेगी
##रीक्षण
निव
कार्ने
##ापुरी
देवेन्द्र
लेव
याह
मैडम
मेची
##र्शियल
वालेस
##ोपयोगी
बिठा
##टीएस
कामिनी
बेवक
अंगोला
ज़िया
##ल्लु
##सिद्धांत
रामप्रसाद
महाशय
यूजर
यूनाईटेड
गोबिन्द
##गढ़ी
अच्छाई
रेल्वे
लड़ता
परिणामस्वरुप
एक्सपी
एडविन
बेटियाँ
उमय्यद
गोलों
रक्तश
inv
वस्तुनिष्ठ
रेखाएं
सेल्फ
परिषदों
दबाया
पृष्ठीय
मंचूरिया
छिंद
डिजी
##चुंब
मुकाबलों
सौंपे
जूली
समानताएं
विस्फोटों
ऑक्सीकृत
खण्डन
महामाया
नीतियाँ
कोंड
मादाओं
आरामदायक
माँगने
रोटर
मन्त्रालय
संयोगवश
प्रिंसटन
दमनकारी
जेरार्ड
पुनरुत्प
हैरिसन
नीरज
बछवारा
टेम्पल
परोपकार
प्लूटोनियम
##्युदय
ऑपरेटरों
अपरिचित
छात्राओं
मुस्कान
जैतून
##arbon
फुफ्फुस
कोरोनावायरस
पठानकोट
Corpor
गंडक
कारपोरेशन
बग़दाद
सीएनएन
अशरफ
कान्तिमान
अश्वमेध
अधिग्रहित
मोरारजी
AV
mass
अट्ट
कॉलर
खमेर
घब
ट्यून
डंक
नमन
फफू
बवास
मोर्स
लायंस
##बात
##सां
##संक
##ोथी
##ness
##गेल
##ॉर्
##ारिज
##्वायर
एकत्रीकरण
##ामे
सममित
निह
##्पे
जोसे
द्विस
##विंद
सिम्प
सुथ
##ोल्स
##र्मक
पुजा
##ोटर
##िट्ज़
ब्रॉक
सहेज
बारंबार
ग्रोवर
बेई
बेकेट
##काशित
##न्तरण
कालिया
सर्वांगी
पदनाम
आयोजकों
चौह
कपाट
पेन्ट
तुच्छ
क्रियाएं
मजूमदार
जरास
विपत्ति
तेनाली
रुग्
ग्रेन
दिवाली
पोती
मशाल
इन्फ्र
लोकेशन
संविधि
मूड
हॉर्न
कथकली
११३
चुनते
बोर्डिंग
##ogn
युक्तियाँ
प्रजातंत्र
365
दीर्घवृत्त
जवाबदेही
product
कबड्डी
करवाता
दस्ताने
खबरें
भाग्यशाली
1824
बखूबी
वाजिद
अंदाजा
सतपुड़ा
हिरण्य
उत्प्रेरित
नियन्त्रित
कुटिया
प्रोटेस्टैंट
कादरी
रिबन
फोटोग्राफ
टेट्र
कोठारी
हेलीकॉप्टर
किडनी
शिष्टाचार
अवांछनीय
अस्वस्थ
पुरुस्कार
उबरने
सहरसा
नवजागरण
हेलेना
बियौफ़
रॉबिन्सन
अवस्थी
साम्प्रदायिक
मुग़लों
पेजरैंक
3G
8000
Mot
NAS
Sim
bel
group
micro
अच्युत
आंचल
इथेन
ईo
कल्ल
चेस
डाइन
प्यूप
रईस
शम्स
##aut
##दंश
##शैव
##श्रय
##ौट
##75
##ठिया
##SS
##OR
##اد
##िक्क
प्राइड
##्तिया
##नेडा
##िस्को
भीख
##लाक
साकेत
अपा
##वाए
राजद्रोह
वर्धमान
उपकुल
##सीर
##ागतिकी
##ाहार
##ंतल
निर्बाध
इनक
##ोल्फ
##ूलित
पुश्त
राशी
बील
##िटरी
मैज
गुंड
बिच्छ
भूरी
प्रकाशिकी
जलयान
नीव
नीती
##arge
अर्थपूर्ण
एल्फ
##क्श
अरू
गणराज्यों
##पीएन
##चित्त
सैक्सन
##ट्टनम
चिराग
##गणेश
रोरी
एडिसन
वारंटी
जेनी
यात्राएं
मोहल्ले
##ूंठ
अदन
क्विन
रसद
रस्स
##ीदास
भाषायी
##शिआ
##ider
बागवानी
रणधीर
साक्षात
सुपरह
दानवों
रोजा
##istic
त्रिदेव
स्लिप
भंडारी
राजनीतिज्ञों
मेघवाल
सबूतों
हेरफेर
श्रोणि
अलगाववादी
महानगरों
बगीचा
सावधानीपूर्वक
डबिंग
बाबासाहेब
प्रतिलिप
मूर्तिकार
चैलेंजर्स
फ़ॉस्फ़
प्लेटफार्मों
ईश्वरी
कनिंघम
##ification
फ़ीड
खदानों
जेफ्री
रहस्यो
स्ट्रीमिंग
मुश्ताक
नाखून
##्वाकु
क्वात्र
डोपिंग
सेनेगल
दरम्यान
second
महिषासुर
कीटाणु
फुलवारीशरीफ़
लालकुआँ
चयनात्मक
लाउडस्पी
By
How
अंच
अजेय
औप
गोज
टाट
फेंग
ब्यु
मलाई
र्
रुद
##कुट
##जयी
##नित्र
##यण
##दुल
##टकी
##ेन्द
##ऊस
##नेशन
##ित्ज़
##नाया
विस्टा
##ायोट
##हाब
##त्तियां
अनुमत
निर्भी
सिद्द
सिगन
सुशी
##ोलु
क्षेत्रर
पुतिन
बहमनी
पाचक
अल्टी
जनश
माण्ड
गुंडों
##ध्ययन
बैसा
दुष्क
##म्बर्ग
श्रीकांत
##तराम
बाबरी
##alk
रामविलास
बुकर
##ेजय
##पीस
दशमी
आसुत
एस्सार
भूमिकाएँ
##ाज़त
लड़ाइयों
नैपोल
##ases
व्यक्तिपरक
चैत्य
तेली
जेठ
##ules
##पाठी
##िज़ोना
##एमई
कांगड़ा
बोस्निया
सूचनाएं
टैंगो
रुपयों
मैकबुक
##दमों
उम्मीदों
वॉरेन
सोलर
कार्बनडाइ
बंधा
उठाती
अभिज्ञान
इरादों
टेलिफ
घुमाया
तनावपूर्ण
अत्यावश्यक
पाइथ
जेनिफर
गैलियम
व्हिट
कोहेन
स्काट
ह्यूगो
##ather
प्रकटीकरण
निलय
आर्मेनिया
वक्रता
व्यस्ततम
त्यौहारों
शूकर
color
about
श्यामल
लक्जरी
हादसे
एनडीटीवी
कोरोनरी
अजनबी
सुज़ुकी
मंडेला
ओबेरॉय
यज्ञोपवीत
EU
HC
OH
SD
VH
der
lev
war
अवी
अजा
ऍल
ओमे
खिर
जमे
तीतर
दिक्स
फटने
रीय
राईट
हूण
##ling
##line
##निय
##मज
##मिता
##टीन
##ईन
##face
##ैंस
##ओस
##ळी
##IL
##्रस
##िकारी
कासल
##ियागो
विमुख
होमो
##लाब
##सेस्टर
##्लेस
कुओं
##ाइमर
जीटी
##दीप्त
तोड
मिल्टन
##ोरिन
कैटर
अवेंजर्स
##हरों
युनेस्को
मारो
उत्तरपश्चिम
टीलों
##ोनियों
##णाधिकार
लातिन
##परिव
नीबू
##ुष्प
##ासनली
योगिनी
##म्मम
संघनन
धारिता
चित्रशाला
ख़तरा
कान्हा
त्र्य
##बलि
भावनगर
1300
स्मॉल
##uri
दाख़
वारंट
256
##usiness
बोकारो
तंत्रिकाओं
अशांत
टेलीफ
सॉकर
व्याख्याओं
मीलियन
दृश्यता
सफारी
##ेंडिंग
कैथलिक
चाड
ग्रीनलैंड
##ified
any
छायांकन
दरवाज़ा
१९०२
करवाते
मैग्लेव
ent
मानचित्रण
गिनीज
दुर्र
भिड़
छुपे
फायरिंग
डुनेडिन
टाइटन
उर्वरकों
पूँजीवाद
##ाज्ञी
गिरीश
##डियोज
सुविख्यात
थेरवाद
जन्माष्टमी
तृणमूल
##िकाव्य
वोडका
दोआब
निर्यातक
संयोजकता
सेक्रेटरी
फ़ोर्ब्स
Lin
South
Vis
bh
people
sign
writ
अयन
आगर
इय
ऊटी
एप्र
एंकर
ऐंटी
गग
ध्र
नंदन
फंसे
राना
रियर
वन्दे
सप्र
३५०
##ंथा
##चियों
##यज्ञ
##पत्ति
##ईई
##ॉस्ट
##ौक
##wa
मेंड
कायर
इस्र
संबल
##ामणि
##ेशी
##रावत
##हाड़
रूपान्तर
कुलों
##ावकों
महती
क्षीर
नामा
जीपीएस
जैक्स
बहिन
##ुलस
ब्रुस
फ़ाउ
अभिकरण
उत्तरकाशी
बैस
बैटरियों
##हार्ड
दुविधा
##दारक
##ोनल
मनोहारी
##बीच
प्रयोगकर्ता
देखिये
देखेंगे
ओरिज
कॉटन
कॉकस
जिओ
परिभ
राष्ट्रप्रमुख
लिखाई
##एसआर
सेनाएं
एनपी
प्रदर्शनियों
फरार
इंटरटेनमेंट
हार्द
लौटी
बहुभाषी
वाडिया
इस्लामिया
चक्रवा
इलेक्ट्रानों
पटनायक
खरीदारों
सॉस
इल्त
सफाया
१४६
१३९
जिम्मे
केंद्रीकृत
सुखदेव
कैथोड
##istor
इकाईयों
real
स्वाध्याय
##ौलिया
घनश्याम
आर्यसमाज
सौरभ
जालौर
सर्वेक्षणों
रेट्रो
शिल्पकला
##over
झूला
लूटा
मैथिल
जामुन
हेराल्ड
कत्यूरी
##ोत्तेज
स्मरणीय
##वर्तियों
टाइटेनियम
इंतजाम
गवाहों
गुमनाम
जबरदस्ती
खंडहरों
एंथनी
फाइनेंशियल
कुचलने
आफिस
सुर्खियों
अपरिवर्तनीय
पुतली
बीएमडब्लू
संज्ञाहरण
ट्रांज़
बिल्लियों
##शास्र
बुलबुले
##चर्चित
American
HLA
type
ईज
ओफ
टोडा
टंकी
डंकन
तर्पण
धनाभ
प०मनि
फिना
बोब
यर
यमराज
रोध
लहरा
ललाट
शौर
शार्क
शवों
##सून
##ुत्र
##ुर्य
##जुल
##पमेंट
##ेद्य
##fore
##36
##ji
हैमर
##यापन
कीर्त
##्वि
##ामेंट
##ाजिल
##्मान
थाइर
##रागी
राजसिंह
##ाप्य
उपय
तक़
सुब्ब
##ेटिन
##ूलाल
##जीएस
फ़ाइनल
फ़ायदा
कैप्ट
##भावों
उत्तरांचल
देशान्तर
पार्ल
वैज
परिवर्धन
धर्मग्रन्थ
बाबुल
जानकारियों
बदमा
हाकिम
सोख
सोफिया
सांगा
विलम्ब
विलोपन
बचाना
तापक्रम
हलसी
बंदियों
बरतन
लैपट
व्यवहार्य
साइक
डाल्टन
यादवों
बोई
##आरए
ग्लिस
##ray
प्रौद्योगिक
बैंडों
डायजेपाम
खासा
तेजाजी
रजिस्ट्री
स्ट्रैट
##टिनो
फ़्रान्सीसी
ट्विन
पापी
तिलहन
कुशवाहा
संवादों
भूतकाल
जड़त्व
डेमो
हेमंत
पार्वत्य
##ains
खबरों
१८९०
##च्योर
जनकपुर
लाईन
स्कैनिंग
इंतज़ार
चमत्कारिक
नक्काशीदार
होशंगाबाद
बोहरा
कादिर
मधुमक्खियों
आक्रांत
##डोल्फ
ओलंपियाड
धुंधला
कीटनाशकों
डिब्रू
##पंथियों
फ्रेंड्स
सर्टिफिकेट
कालाहांडी
स्वाभिमान
देवालय
आर्सेनल
बकिंघम
नाबालिग
अभियान्त्रिकी
बवासीर
current
during
vill
औलाद
घोरी
तिस
तद्
थू
नफ़
फड़
बानी
भट्ठ
भोसले
येलो
रानियों
वॆ
सस्प
हर्म
##किर
##लाना
##शिरा
##RO
##फॉ
##ष्त
##NT
##्राज्य
केब
कीज़
एकसाथ
समकालिक
अधिपत्य
##िरस
महन्त
सिफ़
##ोलोन
##ोजे
राउल
मैटर
मेवात
##कोंडा
##िपर
जनरेटर
स्टॉल
सर्किल
बेनेट
रखनी
आरए
##ंसात्मक
##anth
##गेय
संबंधियों
अपनाकर
सतसई
ट्रॉय
यूजीन
गोरा
हिंदुत्व
देवघर
डीड
एसडी
दूरियों
यूरेशिया
यूरोपा
##चालकों
रॉब
ब्लिट्ज
क़बील
इंटरमीडिएट
विजयों
##पाड़ा
गढ़वाली
##वंशीय
विद्वत्ता
##ivity
प्रोटो
ध्वनी
##चिन्ह
वीरभद्र
सिल्व
जॉन्सन
प्यारेलाल
समाचारपत्रों
बोलीविया
##ota
दुर्गावती
जितेन्द्र
शीतकाल
नाइट्रो
कालीकट
##ista
पल्स
##ग्ने
वाक्
संप्रति
सुनाते
stud
त्यागने
मिथिल
शेखावत
भाभा
गेटवे
बीमारियां
फ्रीक्व
##हेगन
वॉल्यूम
##बुली
ट्रस्टी
कीटिंग
ब्याह
##निष्ठा
1839
चटगांव
छपने
लूटने
कैम्पबेल
डुंग
##्रहमान
नृविज्ञान
##्लोरिक
केमिकल
दोगुनी
##ociation
वफादारी
अभिसरण
डुबकी
आर्किटेक्ट
कन्हैया
बढावा
बूँद
परमानन्द
small
मुखौटा
संथाल
कार्सिनोमा
विदरस्पून
फर्नांड
UMTS
शेखावाटी
अनभिज्ञ
पतझड़
कान्यकु
कार्बनडाइऑक्साइड
Cr
Lee
आंव
गूँ
छंट
छमाही
डांग
दमा
दाना
धनिया
नालियों
फँ
बक्स
यस
शची
षोड
हारा
##िन्हो
##ूढ़
##खरी
##्दि
##दरा
##फोड़
##37
हैजा
##याजी
काबिल
सेप
सेलेन
कोबाल
##ितर
परोस
भीमा
अनप
राजसम
##ापार
कुंग
उपकार
##ेलियो
##स्त्रा
महोबा
क्षोभ
निर्जीव
जीन्स
विक्की
अलाद
कार्यकुशल
प्राचार्य
##ोपल
पार्स
अन्तर्ग
##ेमाला
व्याप्ति
वैकु
आवारा
##िकीकरण
##ांगना
अतुल्य
##ोसिस्ट
अलावे
##व्यय
जानें
बलवान
क्लूनी
रंगी
प्रणीत
भरना
नवम
फैण्ट
शैत
##मेण्ट
पेच
बचकर
##विकसित
##धन्य
चेरी
##कुछ
##कुंडा
बजाये
बहुचर्चित
जमने
हिमपात
बोथ
##फाबाद
मंत्रीमंडल
वायुसेवा
खातिर
##एनसी
आइडल
टाइफ
विनचेस्टर
वीरशैव
##प्पे
##एफएल
समाचारों
बर्बरी
कलेक्शन
अजंता
प्रोवि
आँसू
पद्मा
इमली
हाईकोर्ट
तलाक़
फ्रांसीस
जलाशयों
हनुमानजी
रहस्यवादी
मथुर
यथार्थता
अम्बिका
480
सुगन्ध
1819
1838
सैलून
अपवादों
क्रीक
अभिक्रियाओं
1761
कैनवास
फाॅ
सामंतवाद
फ्यूचर
थलग
शर्मि
परागण
क्वीन्स
क्रीमिया
##olec
मैल्कम
सोरोस
मेज़बान
किन्नर
रवैये
##ियोटाइड
##ALL
उज़बेकिस्तान
अभ्यारण्य
दुष्यंत
सिक्योरिटी
असतत
किरीट
मातरम्
राजधानियों
##वुल्फ़
कंडीशन
गण्डकी
इक़बाल
पाठयक्रम
काठमाण्ड
आउटलुक
ऑर्केस्ट्रा
कजाख
नैपोलियन
DR
dr
°F
कद्द
घोस
धावक
न्ग
पाँ
फखर
रँग
वशी
शात
सचित्र
##बोलिक
##हॉल
##हानि
##क्री
##कॉन
##pe
##ोवे
##मौला
##टु
##गाँ
##ues
##مد
हैव
##िलाल
##तीस
कार्म
कार्लो
मुर्श
##सीट
##्डे
महक
##ंतरण
##रेला
सुइट
##िशी
##ोटिया
##न्नान
अंतर्ज
प्राति
विभूति
बैजू
पीए
##म्बरी
२०६
##ोमो
बढ़ई
मूलक
रेफ
जिंद
एल्बा
उच्चायुक्त
विरक्त
महाकाली
##म्मान
जिलाकी
इंफ
##मेरा
सौद
चिनाई
विधिशास्त्र
प्रबंधकीय
##िद्म
अकाली
जेसे
जातिगत
साइल
कुमारिल
कम्प्यु
दिखाकर
उत्सर्ज
##एनयू
सल्फ़
आठवां
सुलझा
पाएंगे
मांगे
रिची
कुरआन
##भूमियों
##न्ड्र
##्यूटिव
पेरासिटामोल
जुड़कर
मार्कर
समझाते
ऐल्यूमिनियम
कदमों
##ians
कैमियो
प्रतिभाओं
स्वर्गवास
झुण्ड
आज़मी
करवाए
मेनू
रोबर्ट
कनॉट
##िनिर्वाण
सिमोन
1837
१८९८
बैकअप
अभिलेखागार
तोपखाने
नितिन
आक्सीकरण
कछुए
फ्रैंकन
##कामना
किडमैन
called
मंज़िल
गिरिजाघर
includ
एन्क्रिप्शन
स्प्रेडशीट
देशपांडे
अर्जेन्टीना
बुलन्दशहर
अनुराधा
रुस्तम
वैशिष्ट्य
ज़ालिम
ब्लाइंड
CBS
Category
Gr
Kal
MD
इग
इना
ईराक
एवें
ऐट
ऐडम
कमेंट
खारा
नकाब
फर्न
बबूल
मणिक
योक
यक़ीन
रैन
रेशा
रेंग
शाली
शेव
##धियां
##रुप
##िचेरी
##तारा
##ुह
##शेक
##शिक्षा
##टिस
##षे
##لی
##ॅशनल
##्रों
##ार्त
सेण्ट
एकसमान
परित्य
इस्वी
विवि
जाद
##तेन
##काराम
205
महराज
##मेंद्र
##्रेटर
सुन्न
अमेरी
##स्नातक
##ोरिस
माॅ
अंत्य
सहदेव
सहपाठी
##ध्ये
मार्था
बैंका
##स्क्रीन
##ाटन
ज़हर
पश्चाताप
स्कू
##ुदे
जीवनयापन
कलिल
खेलक
##ाकोट
आयतें
एलियन
उच्चस्तरीय
बलवंत
विषैला
संख्याएं
सुरु
##ication
दिखाये
शाफ्ट
बचते
आलिया
फरमान
लागु
##ांकनों
रुड
कृष्णन
अंकगणित
साहचर्य
वेबसाईट
उपाधियों
कोशिशों
वीरेंद्र
आक्रमणकारी
हत्याकांड
इंजीनियर्स
जायगा
सूक्ष्मता
डिस्को
फैलते
मुकदमों
स्टीम
प्रतिपादक
##ार्जित
मृणाल
फार्मूला
रिचर्डसन
दस्तों
लीलावती
हूवर
विसरण
1799
सायनाइड
दादरी
अफ़ग़ान
एजेंसियां
नित्यान
ऑप्टिक
नृसिंह
मेकअप
ऑडिट
अफवाहें
टर्बो
मापदंडों
फ़्रेंचाइज़
##ॉन्सिन
गन्धर्व
रामानुजन
डायामीटर
सुल्तानों
अभिशाप
म्यूज़ियम
बोर्नियो
बरगद
कटिहार
झुंझुनू
टिम्बरलेक
जेरेमी
मेधावी
गजेटियर
स्थिरीकरण
धनाभानाम्
Rev
Sm
SA
To
WALL
bre
fre
syn
ऍम
घूं
च्व
तं
दहे
नरों
पोष
पायन
बब्बर
भभ
रफ़ी
लड्डू
सने
सवे
##मौर
##एज
##ईडी
##गौर
##ME
कीप
कीनिया
कोल्लम
परप
##ाल्प
##िलिस
##ास्टर
सायरस
थाप
##ापूर्ण
मुन्ना
उपिन
लेय
206
स्वस्त
सुत
जीआई
##िमुख
इन्त
##ोटेक
व्यतिकरण
अंत्येष्टि
##ेनु
##्नूर
##सिनी
##सिबल
अन्तराष्ट्रीय
बेवर्ली
जुली
लोकोप
##ined
कॉन्व
##ोसोफ
सर्वखाप
##्लीट
एलियट
बलराज
ट्रैन
भगवन
इंडियंस
प्लाज़
शरीयत
छोड़ता
मिशनों
भावे
प्रयासरत
हेरात
मलन
युगीन
क़यामत
पढ़ता
सुनाने
##बद्धता
लॉय
कृष्णदेव
इलेक्ट्रोनिक
प्रशासकों
घटोत्क
चुनता
हवाएं
जायफल
##imb
these
आवासों
अभिजन
बेचैनी
जिल्द
आर्यभट्ट
शेफ
माधवन
एंजेलो
ट्रांसमीटर
बचाकर
बुरु
anal
भा0
भाड़े
1842
खानाबदोश
शुभंकर
इण्डिक
मज़ार
##ैक्टिव
chrom
वायुमण्डल
कार्लिन
क्षत्रप
१८९९
अवधियों
रॉयटर्स
1770
स्प्रिंग्स
एंगेल्स
एस्टोनिया
सायण
##फार्मर
ग्वाट
कड़गम
किण्वित
शकुंतला
ब्यौरा
प्रोमो
लादेन
चुंबकत्व
मैग्नेट
रॉल्स
ज्वलन
वीनस
लिबर्टी
मैग्निट्यूड
विस्कॉन्सिन
अफ़गानिस्तान
त्रयोद
चमत्कारी
किर्गिज़स्तान
बियोवुल्फ़
मुशर्र
बेनेडिक्ट
420
BE
Serv
book
dia
if
my
method
इम्फ
एबर्ट
जिर
झरो
टोला
तरण
पछाड़
फेक
फौजी
मियाँ
रिय
सादी
##रिंग
##बोट
##बॉर्न
##ty
##मों
##पेज
##गै
##छार
##्राज
##ान्द
करेंट
##्टम
##ामान्य
##िसिंह
जावास
##ासिम
समया
अपक
राजसत्ता
कारोबारी
##्कुट
लेन्स
##ाग्राम
लग्गा
##ंधि
पुश
जैज
सीढ
राफेल
पावा
अलविदा
क्रिएटिव
मिलावट
मुख्त
भूखे
बैरक
असिस्ट
जुटे
##ोमिक
श्रीगणेश
जलालपुर
अतरी
आयोजक
बलभद्र
गोआ
##ished
पंवार
172
अप्रकाशित
नैरो
एशियाटिक
क्रमपरिवर्तन
क़त
##गुनी
चीनियों
हारून
लौटना
बोल्शे
खानदान
पिछड़ी
##ोफेन
रीना
मूर्ती
भाषाविद
अग्रसेन
खोखले
पत्रिकाएं
##वैया
##agement
फिलीप
प्रीस्ट
पद्मभूषण
अग्निश
शेली
एंजेल्स
स्लोवाकिया
जूही
बचाए
जवाबदेह
आंध्रप्रदेश
गिरजाघरों
अनुशास
1849
640
मैगजीन
गोंडी
व्हाईट
भूगोलवेत्ता
नरेशों
1832
१८९७
रसूलपुर
१८६०
कंसल्ट
बैरम
ऑरलैंडो
कदापि
सिनसिना
राशिद
संपीडित
##ोपैथिक
निदेशकों
अफवाहों
विधिवत्
हाशिम
मेथोड
रेतीले
आकांक्षाओं
विनम्रता
जलालुद्दीन
पिल्लई
अतिसं
##गोविन्द
known
नौटंकी
राजघराने
कोयंबटूर
माइक्रोप्रोसेसर
वॉलीबॉल
फॉर्च्यून
लश्कर
हार्दिक
इम्फाल
Ser
av
cos
mil
set
उइ
कन्ट
खरा
खाट
गॉट
चमेली
ठुमरी
दंडी
नश्वर
फोड़
शमी
षड़
सोग
##धुरी
##रंजन
##िधि
##खु
##्द्र
##यित
##ोचन
##पने
##ेे
##ङ्
##SR
केनेडी
सेप्ट
##नेम
परक
इसमै
समागम
राजधर्म
कारन
##ाइना
##ाइली
अनुल
##रेन्स
सुसं
जीसस
##ण्डेय
व्यष्टि
बीएसई
किस्से
##ीयो
क्रूस
##फ़री
##धान्य
सूअरों
विशेषतया
२०७
##ोनिन
असैनिक
आवधिक
रखो
अंगु
##परिन
##anch
रेने
शिक्षिका
##ोसियेशन
आईएल
आधीन
##म्भर
गुरदास
चीते
सम्मानजनक
तुवाल
##आईए
रुश
रुसी
धनुर्
पहाडियों
##कुंट
सातवां
फुटबाल
परंपराएं
##िनाशक
अक्षुण
गांधीवादी
सर्वाइ
योग्यताओं
अमरीश
##ारण्य
वेल्ड
१३४
उदयसिंह
लिंगों
स्ट्रै
स्वाहा
फ़्रान्स
जीवात्मा
##akh
##क्लिफ
चूहा
चूड़ी
जालौन
ट्रांसप
दीर्घकाल
कॉलिन
यशोदा
पाइर
रुकती
मंगोलियाई
परामर्शदाता
उभरता
मानदण्ड
दुसरा
रघुवीर
स्क्रै
लेखाकार
सैलानी
१८८०
##aceae
##मेटिक
##मावली
फ़्लोर
नर्तकों
स्पाइस
control
जिज्ञासु
प्राप्ता
पीलीभीत
अन्तर्निहित
मागधी
कार्यशालाओं
कैसीनो
सरोजिनी
उकसाया
मिलिटरी
कम्युनिकेशन
मार्जिन
जख्मी
स्थलाकृति
उनहोंने
जहरीले
Pakistan
अंकेक्षण
इबादत
प्रत्युत्तर
पार्लियामेंट
पेप्टाइड
जनार्दन
रहस्योद्
घटोत्कच
सिनसिनाटी
MB
Ob
cat
magn
sa
series
आघूर्ण
कफो
छेत्र
थक्का
नार्थ
भिगो
मंगे
मनेर
लोव
शेप
##बोल
##काना
##ras
##rish
##oi
##other
##खरा
##नोट
##फु
##uv
##uff
##इम
##अद
##ढ्य
केंच
हैै
एकान्त
##ालु
विए
संडे
##ामेट
नेक्स्ट
##ुरंग
##ंगला
##क्षागृह
##्लिष्ट
हुऐ
स्वचालन
सिम्पसन
मानवी
##ोजनीकृत
सबा
##ंपिंग
बनिया
##न्मार
##श्चेव
व्याधि
बेकन
पर्सी
##ष्ठान
##सिद्धान्त
##िस्टल
अर्ह
अर्न्त
गोदी
लिनेन
डीटी
सारथी
त्रिलोक
दिवाकर
मल्ट
दौसा
शासना
धनवान
##ola
ग्रंथो
##समुद
एयरवेज़
वायुयानों
अंकल
उत्सुकता
शोधों
मांगता
अल्पायु
मुद्राएँ
भौतिकवाद
तिरस्कार
सोलो
श्रमण
मातृत्व
जेलों
बुलबुल
ट्रांसफर
पहुंचाते
शैलियां
यशस्वी
अब्दुल्लाह
महामंत्री
शत्रुघ्न
तारीखों
नदिया
कोहनी
दीनार
सोनीपत
##ुएला
प्रकरणों
साझी
विलुप्ति
भीलवाड़ा
हंगामा
छुपाने
complex
स्तम्भों
पिघला
मॉरिश
हिप्पी
बर्कशायर
वाग्
##विषयक
हनुम
तत्परता
सुदामा
वाचस्पति
अधिराज्य
नवप्रवर्तन
अंगूठाकार
अलकनंदा
मनोविश्लेषण
इक्ष्वाकु
आंसू
हिण्डौन
सर्वांगीण
टेलिफोन
मलनहंस
ग्वाटेमाला
CL
DNS
Je
MHz
PET
Ter
sev
techn
अगा
आभाव
आफ्टर
कड़ियाँ
खारी
ख्मेर
डिम्ब
डोंट
ढिल्ल
दतिया
पके
पल्ली
फूँ
लोंग
वफ़
शरिया
##iqu
##mer
##जगत
##ट्टी
##फुट
##ॉएड
##ki
##ful
##ारूप
##र्वर
प्रपत्र
कोइर
परॉक्साइड
##िलरी
##ाम्प
जाव
##ुराज
##ुराई
##लाभ
अनंग
##कीकरण
उपकला
##ाइक
##विश्व
बादामी
स्वशासन
##साका
##र्मुखी
कुछेक
##स्ट्रीम
अमेज़
अलख
##ुल्ल
मिलों
स्टैल
ग्रिम
मार्ले
व्यापर
तहसीलें
##ोर्फ़
पैशा
बढ़ोत्तरी
##onment
##डीएम
धर्मो
जलते
हरफन
उदघाटन
नीद
##पीडो
##ita
##तमंद
दर्शाए
161
कोडेक
##गणों
##ार्थक
हेवीवेट
रोज़े
एडिटर
##टलैण्ड
आत्मिक
उमड़
##गुडी
इंटरप्र
रुड़की
ग्रहणाधिकार
##एमपी
बरवाड़ा
पर्वतारोहण
बहुसं
बहुभुज
नारुतो
वाए
##भारती
फ्ले
१२००
##त्त्विक
संघर्षरत
##umar
अधिनियमित
सिलेट
ईसप
सरलतम
वेलिंगटन
खरीदते
##abad
गीला
आविष्कारों
चकमा
##दृश
प्रत्याहार
##ights
पुरातत्त्व
##ूडि
प्रयत्नशील
इकॉन
बाईपास
धुलाई
शहज़
चुम्बकों
कोहिन
प्रायद्वीपीय
1814
नालन्दा
हसनपुर
शिराज
पितृसत्ता
फ़िलिप
निष्क्रियता
##ajor
षडयंत्र
ग्यारहवें
कंधों
बंटवारे
वैनिला
अंतःक्रिया
रत्नाग
रबड़
बिखरी
लघुरूप
पाइपलाइन
disc
नशीले
मण्डप
##पश्चिमी
आबंट
विशाखापट्टनम
छिलके
प्रायश्चित्त
सीओपीडी
पैरोडी
चरागाह
Technology
भरोसेमंद
कृमिनाशक
भिखारी
काग़ज़
मोतियाबिंद
गलतफहमी
भर्तृहरि
सुपरहिट
क़बीलों
कान्यकुब्ज
खेलकूद
उपिनषद्
बोल्शेविक
हरफनमौला
Af
ASP
Sw
Sur
list
ऐच्छिक
ओशिआ
कवी
जर्
पोस
फिद
बेंट
लायन
हवेल
हवाना
९वीं
##बिज
##ps
##ुड़ी
##जादा
##चिरा
##यूर
##दोष
##ning
##uit
##GP
##ार्स
##ारोपित
कीजिये
##्तो
विनी
अपंग
##लेरी
कारनामों
कुड
##ष्टक
स्वावल
स्वार्थी
दोहराने
वेइट
##ोजीन
पुनीत
स्थितियाँ
किसे
उतरी
ब्राइड
सहसा
प्राधिकृत
अव्वल
##मीत
दीव
##क्रिटिक
##ोनो
पैप
पर्त
ज़फ़र
परिहास
##कृत्यायन
सम्मिश्र
##चीवमेंट
##्राकृतिक
चौबे
सदस्या
लिखें
यूज़
रोगाणु
##ूमध्य
प्रवासन
कोशल
कान्ह
वर्गो
सौदों
##बाबू
श्रृंखलाएं
सनराइ
चेता
द्रष्ट
मोहल्ला
बरिशाल
तमन्ना
अफ्रीकन
बज्जिका
मोटरों
डालें
##ेंद्रम
कम्पनियाँ
टाइगर्स
##raction
सेंमी
##osh
सिलिकेट
सिलिकन
मस्तानी
द्वारपाल
मंचों
छिछ
##ability
हटाए
आंकलन
सम्भाल
##ipl
मंगलौर
डिज़नी
रखेगा
बमवर्ष
##ैविकी
यशोधरा
माराडोना
तारीफ
999
##ept
1833
माइक्रोसॉफ़्ट
इन्फैन्ट
जसनाथ
##lesia
press
रचियता
इवांस
सन्निकट
##ोत्पत्ति
नाचते
वेनेज़
स्केच
कुमुद
क्षुद्रग्रहों
भड़का
लैंसों
पनपने
सुषु
अपवित्र
परबत्ता
effect
रीजनल
कॉरिडोर
##gineering
हैम्पशायर
इलैक्ट्र
मर्चेंट
साबरमती
दफ्तर
मधेपुरा
ICAO
विंस्टन
घबराहट
दुर्रानी
लैपटॉप
फ्रांसीसियों
ओशिआनिया
XI
hy
like
mus
north
आज्ञ
इंधन
ओज़ोन
खट्टा
गत्या
गतियों
गंदगी
गंदे
चंगे
जवानी
टिकी
डोरी
तत्
निस्त
पिंगल
बब
बंटी
भेट
लौर
शृंग
सड
सजी
सगे
हय
हटना
##ंभा
##िन्यास
##िन्ग
##तह
##तित
##ड्यू
##हय
##ycl
##ुके
##योजना
##व्व
##ृती
##शियों
##ेई
##ौफ
##BI
##SL
##ов
प्रकोष्ठ
सेनेट
##ाजल
यह्
अनं
निडर
कार्या
द्वन्द्व
##्क्रिप्ट
सुझा
सुब्रह्म
##योग्यता
पुर्ज
##ोटोप
##स्टियन
अन्यों
##्यूडा
जनरेशन
ब्रोक
सरन
बनानी
चुटक
##ोपार्जन
अभिकार
अभ्युदय
भूस्खलन
टीकों
उत्पति
पैच
ज़ाय
जुग
##निष्ट
स्तनों
कॉनन
आम्र
रामकथा
राष्ट्रवादियों
महाबली
ट्रेंट
सैदपुर
क्लेन
जाएंगी
ख़िल
डेरेक
डॉक्यू
भावुकता
##्जू
##oma
प्रदर्शक
बंगले
मलयाली
हास्या
बंदरों
मोहब्बत
##जोंग
तमि
##ुग्ध
पहुँचाना
गुरुजी
चक्रधर
अशिक्षित
लुम्बिनी
##adem
##otal
तीर्थस्थान
प्रोद्योगिकी
##घाटित
परमवीर
उन्के
विकेटों
मेरिट
स्टूडियोज
शेफर्ड
माधो
माधुर्य
पथिक
हेल्म
शिखरों
डा0
सच्चिदान
सोनभद्र
ब्रांडेड
पूंजीगत
छायावाद
States
आर्कबिशप
एरिज़ोना
धुं
धुएं
खिलौना
संज्ञाओं
##ॉक्सासिन
टकसाल
##ैप्स
नाशक
द्विआ
area
१८५८
गुरुत्वीय
डूबे
मल्लिका
युग्मित
मिरर
##ney
समितियां
प्यारी
सांगली
Phil
मॅक
Organ
बीरबल
क्लोरोफिल
खोदकर
बैंगन
विन्ध्य
पसीने
असंगति
सरोकार
इंटीरियर
नॉकआउट
नवरात्र
अफसरों
फ़ातिमा
बेबीलोन
अग्निहोत्री
एचबीओ
संगीति
इम्प्लांट
अग्न्याशय
बैंकाक
कोहिनूर
Ben
EMI
Law
aut
each
serv
south
अौर
ईक
एस्केप
गजल
गजान
छट
झंझ
पोरस
भाला
मंझ
लडाई
##तव्य
##ीश
##हाली
##सला
##जानी
##लु
##ृष्ण
##ेन्
##sch
##85
##47
केव
हैथ
##यासी
##्यमान
प्रिम
##नाइज़
जाफर
##ाजू
##ासिया
##सेतु
##राउ
हुइ
राजपाल
##्कड़
##ानेट
प्रतिबल
मेँ
अमूमन
जनजीवन
स्टैट
बार्बी
##फ़ाक़
भागना
दीदी
टीएन
हमको
##ंटे
##कोब
परिद्ध
बाॅ
##चेतना
आजतक
विरचित
तीखी
वीरा
गोठ
दूरदराज
समाजशास्त्रीय
151
शैले
वर्गमूल
डेयर
त्रिलो
एनएसई
पहुंचाता
लंबित
##वर्दी
क्रियाविधि
जेव
यात्राएँ
कृष्णमूर्ति
कुमारगुप्त
कम्पाइल
आकर्षणों
बावन
गाढ़े
अनुमानतः
वाहिका
फ्लिंट
चालों
आएंगे
प्रौद्योगिकीय
सेलूल
पेट्र
जॉली
मैक्ल
शीतलन
मार्कण्डेय
अभिवृद्धि
स्ट्रक
गेमों
सीखे
शेफील्ड
बतिस्ता
नेपियर
संबद्धता
##ट्ठा
दस्तावेजी
वानरों
1844
फेंके
##ella
अज्ञातवास
दिलाती
इज़रायल
व्यंग्यात्मक
फेरबदल
१८८७
टॉमस
समावेशी
पानदारक
दंतकथाओं
लवणता
माइक्रोवेव
खैबर
मुक्केबाज
बैरिस्टर
##ynam
लेस्ली
अमानवीय
रीमिक्स
##तटीय
कैंटोना
बहुपक्षीय
distance
district
स्कॉच
छोडकर
##आइवी
घोंसला
कोट्टयम
पॉलिटेक्निक
अतुलनीय
film
डब्लूड
जंजीर
आर्केड
टिप्पणियां
लिच्छवि
एचएसवी
बदायूं
स्कैंडिने
सैमुएल
स्टीरियो
ब्रम्ह
हफ़्तों
सम्प्रभुता
दम्पति
मूँगफली
कोबाल्ट
फ्रैंकनस्टाइन
जावास्क्रिप्ट
IU
Patt
XP
di
test
wid
आरे
ओखल
कसी
गज़ल
जंक
जस्ते
नाइन
पॅ
पाइल
भामा
यिन
यास्क
रिग
लिस
षष्ठी
सिय
##सेंटी
##rist
##ye
##जपुर
##जेंट
##ूना
##शिख
##प्रेम
##पत्तन
##गरा
##गुरू
##ॉर्नी
##ओप
##ος
##यामि
प्रहरी
प्रलो
काताल
परब्रह्म
##ासान
##केड
##ुरल
अनारक
किंचित
##सेन्स
##ोगन
हुबली
राजराज
कुर्स
मुम
##ावशेष
##्रेषित
बीड़ा
सबकुछ
अलोक
##चारित
कईं
क्रोनिक
सरना
प्राधिकारी
##टीई
##ून्यता
हाला
##ंसित
प्रकाशवर्ष
कालजयी
जीवन्त
बाड़ी
##ality
सम्मोहन
सतयुग
महापुराण
कुलदीप
शिवालय
##मनगर
##asthan
पेशियाँ
##फ्टिंग
द्रुपद
भाईचारे
मरोड़
माँगा
##ोवस्की
##िफिकेशन
बोनी
गाकर
टैप
##osa
मूली
##oda
मेटाब
तिरंगा
through
आंतों
परिपाटी
काटता
एक्सपो
##निर्धारित
बेचकर
तोड़ना
स्लेट
गिलहरी
हेनरिक
रोहिल
राज्यपालों
परतें
##धीनगर
बेरियम
होलिका
दस्तक
अटैक
कब्रों
Ant
##obal
स्फुट
मुजाहिद
प्रवृत्तियाँ
कंधार
गोमांस
प्रभागों
पोखरा
शॉट्स
मिठास
ढ़ंग
अभिकलन
वैल्यू
प्रताड़ित
कामकाजी
कोठरी
मुसोलिनी
वेश्यावृत्ति
ओषधियों
रामेश्वरम
काउंटियों
जेनेवा
समाकल
अतिशयोक्ति
द्वितीया
Iglesia
मुक़ाबला
विसंगतियों
ज़मींद
जेलीफ़िश
राजमुकुट
सीज़ेरियन
निरुपित
प्रगट
संयुक्ता
शेवरॉन
दयनीय
मेगाहर्ट्ज
अस्पृश्यता
च्यवन
जबर्दस्त
प्रतिभावान
अनपढ़
इन्फैन्ट्री
अभिकारकों
Ni
NC
NTS
Tw
mark
pat
खरों
जत्थ
जयन्ती
टोगो
दंगा
नगा
बबल
रिका
रजी
लील
शख़्स
सव
साज़
सट्ट
ह्य
##िन्दर
##सुर
##td
##शैल
##पोश
##DM
##GE
##LS
जाहिरा
अपग्रेड
वर्म
द्वारों
##ेलिन
सुजाता
जीई
बहुर
##ब्धि
अल्सर
किसके
क्रैश
माटी
कैडर
##िणाम
दीवाली
निकु
पैथ
##ोमे
मूल्या
रेह
पास्कल
आईसीआई
अर्बन
समझती
##ेसियस
##देई
##डा़
विलोम
##ाणि
शक्ल
##बाबाद
इंगल
##ams
पांचली
बहुप्र
##ेप्ट
निरंजन
मरू
पकड़ी
गौतमी
पाँचवी
लिपिड
प्रकृतिवादी
##aye
जॉब्स
##ेंडन
स्वाभाव
राजपुत
उपनदी
घूमना
जलवाष्प
अनुप्राण
standard
तूने
यथोचित
370
##ically
artic
डाइविंग
उष्णकट
अनुशंसित
पराश्र
1846
धुनों
दिग्द
होम्य
नाइक
ह्यूस्टन
१८९४
मेस्सी
सान्याल
मधुकर
असीरिया
##हैं
कचहरी
कांटैक्ट
निःस
अस्पष्टता
शालीन
कछुआ
कूल्हे
integ
##hemat
धर्मनिरपेक्षता
हैलोवीन
खसरा
डिटेक्टर
नाईक
गुआंग
वाद्ययंत्रों
खर्ची
जटायु
##ozoic
School
मेटाक्रिटिक
बुलंदशहर
चूरू
राइडर्स
ऑस्टियोप
शशांक
जयराम
वैक्यूम
फव्वारे
अल्ताई
रेजीमेंट
वातानुकूलित
नम्रता
विल्हेम
अपरिमेय
बहुउद्
##vironment
लाउडस्पीकर
सिगनल
अल्टीमेट
##सेंटीग्रेड
CA
Do
Dh
Dec
ओव
ओडिया
कंच
जव
डोंग
बाइट
लॉन
##बंदर
##rang
##mun
##़र
##ुध
##लाने
##यनी
##मॉ
##शीन
##घव
##ैः
##Sc
हैती
##र्टर
प्रेज
सेवी
एकतरफा
परां
विन्ध
होत
संम
जातकों
##ांजी
##रीप
निहाल
##्लॉक्सासिन
##ावरण
पहरे
थेफ्ट
##्बल
##ोजर
मेदिनी
क्रै
क्रिम
लोगान
##फ़्र
##बंधक
उत्तरपूर्व
##श्चिक
काम्प
स्पंदन
लाखा
सदमे
अलाय
नियो
आईए
आईट
##वाल्ड
चौट
अरिह
##ुमेन
##ेसरी
विधानमंडल
प्रवर्धन
विलंबित
विज्ञानियों
शिवकुमार
पेप्स
पेन्सिल
जीतना
आत्मरक्षा
इंटरव्यू
रुहेल
ग्रंथसूची
नरभक्षण
खानपुर
बजरी
साइंट
वाकर
गाडी
पकड
##iven
मनाही
##एनआर
बांद्रा
##osp
कटिबंध
साधू
जूल्स
चुनना
फैसलों
प्रोस्ट
##ज्जत
माइक्रोब
सुखाने
पैरास
इम्यून
##क्कम
1852
पूछते
घूमकर
टुकड़ियों
मोहम्मदपुर
कोटिंग
२४०
क्रिस्टलों
बृहद्
श्रेष्ठतम
खींचे
रिवाज़
पांडित्य
मेघनाद
##astic
1841
रीतिग्रंथ
फार्मेसी
दिलाते
नौकरशाह
वाष्पशील
१८९५
पिटाई
शार्प
अनिर्
तोपें
कंबोज
बानू
पर्यवेक्षकों
1707
टिमोथी
CDMA
बडे़
##िसूक्ष्म
बनवाये
वेस्टमिन्स्टर
क्वालिटी
जनादेश
Acc
अधिसूचित
कैटलॉग
##ियॉं
सेमिनार
दुल्हिन
अपराजित
बम्बोर
स्काइप
अतिरंजित
काश्मीर
अंचलों
इल्तुत
परित्यक्त
अतिसंवेदन
अनारकली
Dis
F1
Ga
GH
HO
Mod
TR
XV
sing
इंदर
कन्ध
गँ
गतिक
गजर
टाँग
टकीला
थिओ
थैले
दं
नरो
पपी
फ्लाइंग
बिया
सिकल
##बोरो
##हेम
##सवाल
##med
##जोड़
##्दे
##ोचना
##ोची
##मृत
##वासन
##66
केसी
##ारिस
##िक्त
करणी
##न्ज़ा
विजन
होमी
##्थे
##सेक
अपवर्तन
निवे
##लीज़
देवत
वर्धन
द्विबंध
मुअ
उपाप
विशिष्ठ
##देशिक
सुन्नत
मैकि
विश्वप्रसिद्ध
क्रुद्ध
फ़ू
स्टीन
कैला
कैली
अविस
##ोपोल
दक्षिणपंथी
##ैंडर
##वल्ली
##ोमस
उदासी
अध्येता
रामसिंह
##िस्टा
राष्ट्रपतियों
राष्ट्रपिता
##ेसन
क्लस्टर
देवगढ़
वर्णक
तैत्ति
सांकृत्यायन
पांडु
##lection
चेदि
पांचों
पांचवा
ग्रेगरी
##एमसी
बरसों
रोककर
संसर्ग
सूर्यदेव
##गम्यता
१०वीं
शोधपत्र
रैना
फ्लक्स
टैंकर
बांटने
भेड़ों
सक्रियण
आंतर
काटते
रियायत
##झावा
सीखता
##ipp
##iph
वोल्वो
##iang
बृहत
ग्रीनविच
चम्पारण
स्त्रोत
##मिहिर
इन्द्रियों
छापने
कलकत्ते
बेनिन
अमीरों
State
रोलर
असरगंज
तारीख़
##फ्रेंड
example
सल्फ्यूरिक
रूढ़िवाद
बाँधकर
मनीला
मनीषा
विसर्जित
लूटपाट
1775
एंड्रॉइड
##िअम
##ulture
असीर
प्रासंगिकता
##IDS
resp
१८१५
प्रसिध्द
समलैंगिकता
सन्निक
पिशाचों
बछड़े
फ़ैशन
फाइनेंस
शटलकॉक
हाशमी
कंगारू
लिहाज़
कन्है
College
ध्यातव्य
उथले
देहाती
चिल्ड्रेन
आवेदकों
बैजनाथ
मिस्त्र
मिस्त्री
ढूँढने
श्मशान
पाण्डुलिपि
एनजीओ
##एसडीएन
मजेदार
नटराज
निघंट
तारामंडलों
मीमांस
##ouncil
साइबेरियाई
ट्रांसजेंडर
मेसोथेलियो
Corporation
दिक्सूचक
उपयोक्ता
मेसोथेलियोमा
7000
Jo
Nag
Sah
hel
hyp
sch
आवे
आर्ड
उच
एरे
एसा
एसेक्स
गिल्म
जेडी
डोक
तक्षक
फन
फौरन
मोंग
वूमन
हंगेर
##ंम
##उप
##सें
##कें
##ुमान
##जेडी
##जैविकी
##खियाँ
##्ज़ी
##निस
##ट्य
##भोग
##आला
##2O
केनेथ
हैकर
सेत
करूँगा
##्लेम
##्सो
कारख़
देवि
##ंडिंग
द्वै
कुंव
##ेलिंग
सुला
जींद
##ोलू
जैनों
व्यसन
##िलेड
मैना
अम्बा
##्यूज
##किनार
##ोहक
पर्वों
##ष्ठियों
##गीरी
जलाला
##ato
सिंहभूम
कलह
सर्वांग
विषाणुओं
धारियों
चित्रांग
##ised
सांड
व्यक्तिवाद
रोते
क़ाब
तेतिहा
कोलोन
मोइ
लाइन्स
सूचनाएँ
फ्रांसिसी
##raw
##चरित्र
प्रोटोज़ोआ
भावनाएँ
लुभा
कटार
चुनार
##मुनि
मैकले
##्यूरिख
order
पॉलिमर
भ्रंश
##aking
##महोन
टूना
स्टीवंस
बेचता
चैम्पियंस
अब्दाली
बूथ
ग्रीनलैण्ड
##ift
बारहवें
सावली
वाइकिंग
कोणार्क
340
अंडरवर्ल्ड
रहस्यवाद
prot
बिरयानी
खिड़क
जामनगर
परिकलन
कथनानुसार
सुपारी
बिट्स
१८८४
कष्टों
Art
दुःखी
1825
बख्श
रगड़
compound
play
समकक्षों
म्यान्मार
हॉपकिंस
चौरसिया
होल्डिंग्स
##ाप्रसाद
संजीवनी
Central
SOA
आकृतियां
struct
##ेनसांग
फेलोशिप
चालाक
कालिंजर
बख़्तियारपुर
रणथम्भ
निर्जलीकरण
किंवदंतियों
भ्राता
हाइड्रोक्लोरिक
फैण्टम
कोइराला
गत्यात्मक
AG
Dist
Hol
MG
Mor
kh
अथा
आच
ऊष्ण
कर्मा
डेंटल
डोटी
धुम
नाला
नॉर्ड
फला
फाजिल
बॉलर
रक्
सलेम
हर्ज
##रानुसार
##ीहाइड
##ique
##थला
##FL
##ारेन
##ानां
##िलस
##वाइन
मुस्टेन
##माह
##ीनुमा
लेयर
लेगी
अनुभूतियों
##किता
सुस्त
बहकर
राया
अलिंद
क्रोड
फ़ोर
सहने
स्टैण्ड
ग्रियर्सन
भून
बैरेट
सूचि
पैसेंजर
##onic
मौसी
मध्यवर्गीय
##फलिस
सालो
परिष्कार
सम्मानों
सैफ़
लिओन
समानुपाती
##ister
सांपों
कानजी
इंडस्ट्रियल
हाथीद
पुत्रियों
हेपरिन
##विधियों
क़ो
वारंगल
बरह
##्रुश्चेव
नारायणी
एयरटेल
अगरतला
गौड
टैर
स्नाय
हॉर
हॉब्स
265
कथ्य
पेट्रो
##प्पर
पत्रिकाएँ
अजगर
ऑनर
##एचएस
रोड्स
उत्कल
अयूब
तृप्ति
##ands
मेरुद
खीच
अभिव्यक्तियों
वास्को
परिभाषाएं
कर्णाटक
शिशुपाल
अर्धसूत्री
325
एंटीजन
समाधानों
पारितंत्र
##विदित
गुनाह
झूले
वोटिंग
##rich
##epend
पिट्सबर्ग
हंसराज
##ucation
##ोरेस
बाध्यता
आईपीएस
अंबेडकर
मदनमोहन
१८७०
फिंच
##ternal
फ़्लैश
घिरनी
चौदहवें
##ाज्ञा
प्यारा
##ukh
त्रिशंकु
बोतलों
##स्लाव
उभयचर
कुतुबुद्दीन
शेड्यूल
गलियारा
कशेरुकी
रजिस्ट्रार
##ान्टिन
परवलय
लिप्यन्तरण
उँगल
बायोप्सी
मुनेत्र
हवाईअड्डा
छिटपुट
चक्रवातों
बर्बरीक
क़त्ल
दुल्हिनबाजार
तैत्तिरीय
720
Di
North
gr
main
trad
एड़ी
एआर
झांग
ढाला
तज
तनिक
थॉर
दुरा
धुआँ
नपु
फोल
भोजना
म०
मृत्त
शकर
सआ
हवल
##ंल
##बग
##्ठी
##ca
##गेटर
##फत
##be
##49
हैवी
##ारिश
प्रकृत
प्रपंच
काता
कादर
एकमत
करूंगा
##ामनी
जाख
##ाद्र
हुकुम
अधूरे
कुटिल
उपेन्द्र
उपदंश
लेम
##्चा
वेई
सुकुमार
मेें
विश्वविध
ब्रोकर
सरब
सहकार
##फ़न
##टीक
फिल्माने
असमी
लाड
अग्ना
##ेंटिन
अरस्तु
वृतांत
नदीम
क्लेयर
दरिद्र
दरकिनार
पड़ना
##ुप्प
देविका
गैलील
सामान्यीकृत
बाल्यावस्था
##मेओ
उपलब्धियां
डॉनी
शुगर
कौत
प्रसारक
ग्रंथियाँ
रीगन
विशालतम
##िथ्म
मुहिम
अनुवादों
अक्षीय
एफ1
किरगिज़
गृहिणी
then
##्यकर्म
##्रेट्स
अभिविन्यास
अय्या
फेरे
अभिभूत
श्रद्धेय
बुलडॉग
गिल्बर्ट
बढे
सुझावों
रियासतें
आश्रमों
पहाड़ियां
कार्रवा
प्रतिकारक
गोविन्दा
अत्याचारी
जैकमैन
prod
राइब
पहुँचाता
मेनका
बिरादरी
गुज़रते
परिकल्पित
##थलिक
सिमट
द्विभाषी
विघ्न
1790
बंगलोर
##ैंट्री
माइक्रोस्कोप
युग्मक
मुक्केबाज़ी
बैरवा
बस्तियाँ
चोरों
छन्दों
##radesh
चालुक्यों
मैत्रीपूर्ण
लुटेरों
हताश
संचिकाओं
लहजे
युरोपीय
राउत
नांदेड़
लक्ज़
डायलिसिस
रश्मि
##्नावली
नूडल
फॉस्फोरस
यशवंतराव
बेतवा
मेड़ता
based
डरावनी
उद्दीपन
बिकीं
महाभियोग
अमोघ
##ाल्पता
मंगेतर
वेनेज़ुएला
अनुप्राणित
इल्तुतमिश
7वीं
fin
आर्डर
उकस
एंब
एन्थ
क्
ग्ली
गाजा
गद्दा
चीयर्स
टैन
टायलर
ठहरे
ढक्कन
तारण
मंगा
यां
यरु
सवाना
##काजी
##rh
##जला
##ल्लाह
##पत्री
##पाषाण
##थ्नूर
##फिर
##भरी
##uf
##ैचि
##आक्साइड
##DC
##42
##LM
##ारिका
प्रहर
प्रस्ता
##ियानी
करि
##न्डल
##िलैक
इसाब
विंची
किड्स
##वाचन
मुण्ड
##ात्य
##्रेक
बहिष्कृत
सीएफएस
##ोटस
व्यति
सामजिक
##जील
कमोड
सबौर
पूर्ववर्तियों
बनास
अल्गोर
ब्रून
अंतर्भ
सहेली
स्टेव
संगण
बिगाड़
मारियो
तहखाने
भागा
बेतु
##ंटल
लाॅ
दिनो
##ग्रेशन
##ुदत्त
कालानुक्रम
##ोडियन
##ोडॉक्स
जिग
बाकू
बुलाई
तबसे
जहानाबाद
लिंक्स
सामान्यीकरण
##जेन्द्र
##संय
1750
##itor
शाओ
चीख
डॉयल
अप्रतिम
अप्रभावित
##नीयम
पक्षपाती
शुई
##ama
सनम
अहम्
रूई
रेडी
मुरुग
##ili
पोता
मूर्धन्य
बोया
एचए
आइएसडीएन
अनुभवजन्य
रावी
##बेला
##न्याय
बांधों
लुढ़
सत्यजीत
प्रचारिणी
काउन्सिल
ईसाइ
चन्द्रोदय
290
चलनेवाले
##istry
नारायणपुर
एपिक
सम्भावित
गीले
माधवी
व्रज
बांधकर
##udd
पंखे
नस्लवाद
असहज
१८५०
लैंडर
त्रिकोणमितीय
एलेक्ज
दालचीनी
घुसने
कंसर्ट
खलनाय
मॉनसून
अनुकरणीय
अंदाज़ा
किशनगंज
मुनरो
म्युचुअल
बोहेमिया
हिमालयन
ढीली
ढीले
बेंगलूर
अनाथालय
तरीक़ा
बिमल
मनीषी
माइल्स
अवकलज
हठयोग
आसिफाबाद
खड्ग
फॉस्फेट
पॆद्द
मालविका
बूझकर
ऐबक
##र्कराल्पता
महामहिम
दिक्कत
पनडुब्बियों
डूंगरपुर
William
मिखाइल
क्षेत्ररक्षण
शौरसेनी
डीडवाना
अलादीन
CB
Ep
Mat
Sir
found
field
go
mov
अही
अडो
उडु
एग्
ओटो
गाली
घोस्ट
चाब
चक्षु
डां
थोप
दिम
दबे
नव्य
नकुल
पडी
भास्क
मंतर
ययाति
रक्षित
##िथम
##तलब
##बर्ड
##met
##मिट
##मकों
##दरी
##शः
##टेज
##पोक
##प्लेक्स
##फिस
##फाइ
##फमैन
##EL
##MV
##ऍस
##حمد
केे
मेंढक
##ान्ड
काठी
एके
इस्रा
संचरित
##ामर
##ास्म
नेशंस
##्मो
##राओं
##रापुर
अपतटीय
##ायगी
गयाना
राजगढ़
##ाइंस
##िरूप
सिज़
नामवर
जीका
##जीब
पाखंड
विश्वस्तरीय
क्रस्ट
लोगन
ब्रॉ
सरं
अवचेतन
युवत
मार्ल
##्निया
##भाटा
वैम्प
##रिकी
बेले
पैट्र
ज़ार
ज़ारा
कृत्त
हरिश
उदगम
परिष्करण
रामानन्द
खेलेंगे
बुट
विषाद
तीखे
गोलीय
गोसाई
दराज
पुनर्भ
धारामापी
जगजीत
नवजीवन
##धीकरण
सौजन्य
वायलिन
एनडीए
##स्पर्शी
गिरना
##धनुष
##बाबा
##asa
प्रायिकता
रोज़ी
##ुनपुर
##डेविल
कौशी
मोहक
बरकत
नारन
##ille
##्सेन
कार्बनों
##ब्रुक
शोले
वाचिक
##भाषण
आइपॉड
गलतियों
245
लुंग
मांगते
मात्रक
जॉब
सिस्टर
उलटी
अजायब
##यालाल
##सीयू
पहुँचना
स्नैप
निशुल्क
सोचकर
काशीनाथ
ग्रीष्मकाल
क्रिसलर
हार्डिंग
##iff
cond
प्रावि
art
वाराह
औषधियाँ
बाईस
फाइबोन
चिपक
नवाबों
1806
व्हाट
छूटने
रिकार्डिंग
रूढ़ियों
सिफारिशें
वाटिका
डूबा
रुद्रपुर
फ़िलहाल
टाउनशिप
साजिद
सकीं
पद्यों
##thern
meas
पोतों
फ्रंटियर
फ्रेंक
सीएसआई
तितलियों
संबध
ईथरनेट
कुआलाल
हेल्थकेयर
नं0
हुमायूं
टोटल
गोर्की
पंक्तियां
general
अनामिका
बुलेटिन
प्रणोदन
अवेस्ता
##तरंगिणी
उपोष्णकटिबंधीय
इकोनॉमिक्स
मजीद
हिस्पैनिक
##ब्रिकेंट
प्रोग्रेसिव
[...]
